#version: 0.2 - Trained by `huggingface/tokenizers`
Ġ t
Ġ a
h e
i n
r e
o n
Ġt he
e r
Ġ s
Ġ w
a t
Ġ o
n d
Ġ c
i t
o r
e s
i s
e n
o u
Ġ b
Ġ f
in g
Ġ p
e d
a n
Ġt o
a l
Ġ m
Ġa nd
a r
Ġo f
Ġ in
Ġ d
Ġ h
i c
l e
a s
o m
i on
Ġt h
â Ģ
i l
Ġ l
en t
v e
Ġ n
Ġ e
Ġ re
r o
s t
Ġ y
Ġ g
Ġ T
c t
Ġ I
e t
l y
Ġ S
i d
o t
Ġb e
u t
a y
Ġy ou
Ġ is
Ġ on
Ġf or
i m
o w
Ġ A
u r
Ġ C
s e
c e
i g
a d
a m
o l
v er
Ġth at
Ġ u
c h
at ion
it h
Ġs t
i r
l l
Ġ he
âĢ Ļ
Ġw ith
Ġ it
Ġ M
Ġw e
r a
Ġ B
Ġa n
Ġa s
Ġ P
Ġw h
er s
il l
Ġh a
i f
k e
ĠT he
Ġp ro
Ġa re
t er
Ġ H
u l
g e
l d
o o
he r
Ġc on
p p
Ġ W
Ġw as
Ġo r
r i
at e
es s
m ent
Ġ D
Ġc om
c k
Ġa t
Ġs e
o re
es t
Ġd e
u s
Ġ F
Ġ 1
Ġ 2
a b
t h
Ġ (
Ġ R
ig h
is t
r om
Ġn e
an t
u n
Ġe x
p e
Ġ L
it y
q u
Ġs u
i ve
Ġ v
re s
o p
Ġ âĢ
or t
Ġha ve
Ġn ot
Ġ r
e m
ar t
a in
Ġ G
e l
Ġ N
Ġ E
Ġyou r
n t
u m
Ġs h
u st
Ġf rom
i es
o s
Ġth is
Ġa l
Ġc an
Ġb y
a nd
Ġc h
igh t
al l
om e
Ġ le
Ġp l
ou ld
t e
Ġ O
ar d
u d
i e
re d
Ġw ill
i v
ou t
Ġd o
Ġw or
Ġa b
ou r
g h
al ly
o d
o st
0 0
Ġa ll
c i
Ġ J
id e
r ou
T he
Ġ j
Ġ k
Ġs o
a k
as t
e ar
in e
u re
a g
f e
p er
Ġs a
' s
âĢ Ŀ
p t
Ġb ut
Ġh as
Ġw he
Ġthe y
Ġm e
t her
ic e
ct ion
a ck
Ġu p
ver y
a ge
oo k
Ġu s
Ġa d
p l
a c
a ke
Ġo ut
ic h
Ġthe ir
Ġ U
in d
a re
Ġh is
im e
on e
r y
s o
o g
on g
Ġ en
Ġcom p
Ġm ore
ab le
oo d
at ed
c c
am e
n e
Ġl i
Ġ2 0
ou s
it e
Ġc l
Ġt e
i z
an s
Ġ im
Ġm y
ĠâĢ ľ
Ġon e
ĠI n
b er
f or
ĠT h
i p
Ġab out
Ġwh o
Ġm an
Ġg o
r u
Ġcon t
ion s
an ce
i a
Ġo ur
Ġin c
Ġf e
a ct
a il
d u
Ġ Y
re e
Ġwh ich
Ġt ime
Ġ K
Ġwor k
Ġhe r
Ġre s
ar y
Ġl o
ation s
Ġo ther
t o
a ch
i re
Ġa pp
a u
ay s
Ġ "
ig n
u e
as e
re at
Ġh ad
ul t
ĠH e
. .
a p
a ce
ĠI t
i b
ar k
ic al
e p
Ġp er
Ġthe re
v en
Ġal so
u b
Ġli ke
ic k
e nd
Ġan y
Ġwe re
f f
as s
ĠS t
Ġ qu
Ġof f
Ġs ome
en ce
n ow
Ġy ear
Ġthe m
i le
Ġd is
ou nt
ve l
ing s
for m
Ġsa id
Ġu n
Ġs p
Ġp art
Ġ V
Ġg et
Ġne w
er v
ĠC h
Ġa g
res s
Ġp e
on d
Ġbe en
Ġ 3
it ion
Ġwh at
i al
Ġwhe n
Ġw ould
ou gh
a v
ent s
Ġo ver
Ġa r
ou nd
Ġ20 1
or s
o se
Ġbe c
Ġ if
Ġt r
in k
Ġ ro
it t
p ort
il d
Ġp re
Ġth an
or d
en s
Ġk now
is h
op le
l ow
Ġs pe
o y
o b
m er
Ġs he
Ġj ust
w n
Ġne ed
Ġre c
Ġpl ay
re n
Ġin to
Ġ -
ir st
or y
in t
ĠW e
nd er
Ġs c
ow n
Ġh ow
Ġw ant
Ġa cc
Ġhe l
at er
Ġa m
ad e
f ter
Ġpe ople
Ġn o
Ġit s
ver s
an g
ci al
rou gh
Ġhel p
x t
l ic
ol d
n ing
l ud
o c
Ġt w
he d
il y
c es
u al
on s
Ġm ay
Ġl ook
au se
Ġcom m
Ġm ake
i an
Ġd es
ĠâĢ ĵ
Ġc o
Ġd ay
f ul
w e
Ġ very
at es
o v
Ġf irst
ment s
Ġb et
Ġ1 9
r ic
Ġpro v
ĠTh is
re nt
Ġb l
ĠThe y
rou nd
p le
Ġb ack
Ġon ly
Ġm ost
Ġe very
Ġin d
f t
ter n
Ġt ra
l es
is e
Ġe m
Ġse e
Ġad d
at ing
Ġb u
h ing
Ġu nder
Ġc ould
Ġ 4
Ġinc lud
i ous
p h
Ġcon s
' t
Ġth rough
Ġu se
it ies
Ġa ct
ĠR e
Ġc ol
Ġs m
e ct
Ġthe se
) .
Ġ 5
l i
g r
o ve
Ġp o
Ġwe ll
se l
ie w
he n
Ġtw o
is s
d ay
if e
Ġpro du
a w
Ġ $
fe ct
if ic
Ġs erv
e w
Ġd if
Ġman y
k s
Ġd id
f ore
Ġh im
g et
ĠY ou
c ed
Ġg ood
pp ort
Ġa fter
Ġp h
T h
Ġin v
ro w
Ġde c
u ch
ation al
Ġre g
j ect
Ġto o
Ġyear s
Ġw ay
ers on
t ing
pe ct
Ġ ra
Ġst ud
le ct
ur n
in ess
r it
Ġs y
c om
Ġthe n
Ġe ven
c ess
ot h
t s
Ġp r
an ge
al s
Ġwhe re
at h
Ġsh ould
Ġst art
Ġre l
il ity
ak ing
Ġ ke
os s
ri end
Ġbec ause
ol og
an y
er m
Ġre m
ĠU n
t y
Ġex per
b s
o ol
. âĢĿ
ĠS he
ib le
Ġe v
as ed
y s
Ġr ight
on t
Ġha pp
Ġn ow
p s
er t
w ard
id ent
ic es
it ed
ul ar
u res
Ġb us
Ġd own
Ġf l
ĠS e
ĠA nd
om et
Ġa c
ĠA s
Ġd on
Ġo wn
h ip
al th
Ġsu ch
Ġse c
2 0
ur ing
Ġf ind
Ġb ig
) ,
at ive
ĠW h
Ġim p
Ġf in
ra ct
Ġg reat
ĠC om
Ġm uch
c y
Ġ2 00
it s
b le
a x
Ġ ent
v ed
form ation
Ġat t
Ġag ain
Ġ &
Ġf u
Ġl ong
ar ch
Ġth ink
Ġg u
Ġc ar
I n
vel op
ot her
ic s
ic t
he s
Ġh igh
Ġm ade
itt le
g an
st em
Ġsh ow
e ll
Ġt ake
o ck
Ġb est
or k
al k
Ġf riend
en er
Ġin s
ri b
l ine
a ir
Ġin te
Ġdif fe
Ġbe ing
Ġ 6
ĠD e
Ġin st
ĠP ro
Ġs et
. "
Ġh ome
Ġre ad
âĢ ľ
i ed
Ġp erson
ĠA n
Ġth ose
Ġbe fore
Ġp ol
Ġs ur
Ġl ittle
Ġdo es
Ġe nd
ow er
Ġm on
Ġp res
Ġwor ld
an k
w ay
Ġf am
ar n
Ġhe re
Ġre qu
Ġas s
ch ool
v ing
ark et
Ġc all
ĠB ut
ol low
Ġb r
ou se
u ally
Ġbus iness
ĠI f
Ġl ife
Ġlo c
u es
re st
u p
n er
Ġm in
a ve
| |
Ġin formation
i x
Ġf ound
as on
Ġtr ans
f fect
sel f
n g
Ġs omet
Ġde velop
Ġo p
Ġf un
p r
gr am
Ġth ough
o f
Ġc he
Ġm ed
Ġwe e
Ġdis c
Ġus ed
Ġha nd
ub lic
Ġa round
l ed
ĠN ew
Ġa v
Ġsu b
s s
Ġ1 0
Ġc are
i o
Ġs im
iv es
Ġe ach
ch n
Ġwh ile
Ġ 7
Ġsy stem
ar m
ĠF or
Ġm em
in s
in ce
l and
am p
Ġc ount
ĠS o
Ġar t
Ġexper i
at ch
Ġn um
W e
Ġin ter
Ġm od
im es
at her
Ġl ast
a z
Ġle ad
Ġc re
, âĢĿ
ĠA l
ce pt
u g
Ġst r
Ġgo ing
en e
Ġd et
al e
i vers
e ver
ak es
n ess
Ġv is
Ġfe el
Ġf ollow
Ġre al
Ġsu pport
Ġdiffe rent
Ġch ild
in es
t t
Ġre ally
Ġprov id
Ġl ot
Ġb o
ut ion
ction s
ou n
Ġb oth
Ġc our
Ġg r
Ġc ur
v iew
W h
Ġ 8
we en
Ġst ill
at a
Ġad v
m s
ire ct
Ġre t
Ġb ook
Ġdes ign
Ġprodu ct
Ġcomm un
Ġs ign
ir d
ag es
mer ic
Ġex p
Ġth ings
Ġs ay
d er
ĠS h
Ġs k
a h
w ays
Ġ ed
iz e
Ġm et
re ad
Ġa ut
ar s
Ġcomp le
Ġim port
ĠA r
Ġbet ween
Ġs ame
as h
Ġc le
Ġte am
b e
.. .
Ġpl ace
Ġch ar
ut e
m an
Ġm arket
Ġs er
Ġpo int
iz ed
Th is
ust om
it al
Ġp ur
Ġ 9
a red
Ġr un
ĠB e
v es
ion al
00 0
Ġhe alth
Ġpro gram
Ġst ate
Ġe as
Ġpro cess
I t
le ase
Ġre p
Ġsomet hing
ĠL e
et y
am es
Ġl ist
Ġpro f
t en
Ġsm all
Ġg l
i red
Ġfe w
Ġth ree
ver n
Ġm om
i ent
ĠC l
t he
olog y
k ed
Ġlo ve
ant s
l ess
Ġp ut
od y
ĠA meric
Ġbe l
Ġg ener
u c
Ġpl an
Ġf ree
Ġfor m
c er
Ġl ar
or n
o h
Ġop en
Ġf act
Ġex t
ĠA d
ar ly
et s
e x
Ġp ost
c on
g y
1 0
t on
Ġte chn
âĢ ¦
th ing
Ġal ways
Ġapp ro
ro ss
Ġcom e
Ġo b
Ġke ep
Ġt ri
er ing
al ity
Ġto p
Ġpart ic
Ġd uring
ist s
Ġmon th
Ġre f
Ġf il
Ġre port
Ġt y
Ġres ult
Ġv ar
at ure
Ġbet ter
b ers
Ġm ust
in ed
ĠThe re
g g
Ġcont in
Ġs chool
ĠT im
is hed
c l
ail able
Ġinclud ing
Ġp oss
Ġres p
ra nd
Ġg ot
Ġinte rest
Ġv al
ic ally
Ġs ol
Ġimport ant
in ing
Ġde f
Ġw ater
iv ing
Ġin t
ĠH ow
Ġis s
us s
Ġp at
Ġd ist
Ġp ri
Ġall ow
st and
pl oy
Ġfam ily
Ġcomp any
ent ion
Ġp ay
ur al
get her
Ġ ide
Ġto gether
u nd
c ent
Ġt ry
Ġc ustom
Ġc ent
Ġus ing
Ġwith out
Ġf r
Ġg ame
Ġc or
ie ld
g er
Ġor gan
Ġre st
Ġm ain
1 9
Ġfriend s
Ġo pt
Ġd ata
Ġbu ild
Ġqu est
Ġe ffect
Ġw om
Ġan other
Ġp ass
Ġg rou
Ġcon f
l o
Ġne xt
one y
Ġne ver
is m
Ġinc re
at t
Ġm ight
ivers ity
r ist
l ing
Ġex am
Ġ 0
is ion
Ġnum ber
Ġexperi ence
Ġh ard
Ġst and
Ġav ailable
Ġw ent
en se
ĠâĢ ĺ
Ġs l
Ġb ro
o ot
ill ion
Ġex pl
Ġl aw
Ġo ld
Ġc r
i er
ert ain
Ġp ublic
Ġre ce
Ġinv est
ĠP l
Ġm ov
Ġhe ad
Ġm us
ĠI nd
a j
re en
Ġw r
ate ly
ir l
Ġhapp y
Ġpro ject
Ġsa w
. ,
m e
Ġs ince
O n
ĠS p
Ġd ri
, "
ĠO n
Ġin f
w are
b r
Ġpro ble
Ġsu re
Ġon line
Ġper form
Ġa way
g in
cc ess
Ġg row
pe nd
ĠE x
ĠI s
te xt
Ġp ower
Ġsec ond
ĠB l
Ġc ost
el s
Ġg ive
Ġab le
Ġd irect
ro l
E R
Ġle vel
Ġwant ed
am ed
Ġle t
Ġ Q
ĠF r
ĠâĢ Ķ
t ed
Ġre se
Ġcl ass
Ġs ays
qu e
ĠC ol
Ġserv ice
Ġspe c
pp ed
âĢ Ķ
as es
g ed
ĠA ll
Ġwee k
I f
Ġ Ġ
is ed
Ġbel ie
Ġs it
Ġl ess
ren ce
Ġagain st
Ġp os
w w
Ġd i
c o
Ġd ays
Ġle g
iv id
a ut
Ġfu ll
Ġle arn
Ġprov ide
Ġ est
Ġ ve
r al
w ork
en cy
iv ed
Ġ1 8
em ber
or m
Ġu nt
ra ph
p os
Ġgo vern
Ġ1 2
Ġ Z
Ġw in
i or
he re
Ġe l
Ġb re
ard s
ĠP h
Ġh um
e red
Ġor der
ru ct
Ġt est
Ġt urn
Ġ i
Ġserv ices
Ġp op
ff ic
iss ion
Ġo per
in al
Ġwith in
Ġc a
i ents
ĠC on
c ing
Ġpro per
Ġp rom
um p
Ġf ood
ot e
Ġcur rent
Ġpre v
Ġacc ess
id er
Ġpro te
ou th
Ġme et
ĠT o
ĠT r
e c
Ġspe cial
H e
Ġ .
ĠTh at
ĠT e
Ġm aking
an n
Ġse em
h or
Ġchild ren
ĠU S
ĠCom m
at s
Y ou
Ġen g
Ġh ouse
5 0
Ġadd ition
s ide
Ġc ame
our s
ent ly
Ġbe h
in a
Ġe qu
Ġwe bs
Ġwork ing
/ /
Ġk ind
re t
r on
Ġc ase
at or
Ġm oney
Ġsu pp
Ġro om
Ġl ight
Ġt ru
Ġs ing
Ġto day
m ed
ab ility
ab ly
Ġunder stand
u ck
ain s
Ġup on
at ter
Ġan n
if ied
Ġh ist
Ġde m
Ġj ob
ir on
ent ial
Ġin tern
iz ation
Ġem ploy
au gh
te nd
om m
Ġp ract
Ġc ap
Ġf our
i um
o int
Ġch ange
en g
Ġlook ing
Ġstud ents
Ġth ing
A s
Ġstart ed
Ġ [
ĠG od
ur y
Ġunt il
ord ing
con om
j oy
o pe
Ġare a
b y
Ġcon st
p or
Ġt erm
if y
id s
i k
Ġv iew
: //
it ions
Ġf ac
Ġch ang
u ll
are nt
r ation
Ġwh y
Ġpres ent
e ad
or ies
ot t
Ġ '
Ġb as
ĠCh rist
ic le
age ment
ri es
it ing
m in
ĠR es
ne y
Ġimp ro
ĠC an
u red
Ġprof ess
ar ing
re am
ene f
ĠW hen
Ġcour se
pp ing
Ġdid n
le y
ĠO r
Ġthough t
Ġg irl
Ġact iv
Ġt alk
or th
ĠO ne
ill s
so ci
ĠM an
iv en
Ġsu ccess
1 2
Ġloc al
Ġha ving
Ġwor d
Ġof ten
Ġs al
o k
Ġlar ge
oc us
Ġind ust
l ish
Ġapp lic
Ġp ast
3 0
Ġw rit
Ġs w
ĠUn iversity
I N
u ro
oh n
ĠC ent
le ction
Ġn ame
Ġd ra
Ġcon d
ivid ual
Ġt reat
Ġ20 2
is ing
p art
Ġst ory
Ġn amed
Ġv ide
Ġd r
m ber
Ġtoo k
Ġn ight
Ġm ove
Ġs ite
ĠM ar
en n
Ġex pect
Ġph ot
an e
ĠN o
Ġgrou p
Wh at
it ive
a im
Ġe ver
Ġcommun ity
e e
Ġte ll
Ġt imes
Ġc reat
in ation
Ġacc ount
el t
Ġp a
Ġev ent
aj or
Ġf ore
1 1
c u
t ain
Ġbec ome
Ġrese arch
Ġp ot
m y
Ġ es
ĠS c
s h
Ġp ain
Ġde v
Ġen joy
Ġ1 5
ver al
as ter
Ġother s
Ġa ir
Ġoff er
O N
Ġcall ed
O ne
| >
Ġinclud e
< |
Ġm ar
of text
end oftext
Ġcount ry
Ġme an
ĠM ay
o x
un e
Ġso cial
ĠWh at
Ġb enef
le t
Ġal ong
Ġle ft
od e
\ \
ĠW ith
Ġwom en
Ġcomple te
Ġbu y
ut es
Ġind ividual
Ġche ck
Ġtr ad
i ke
ater ial
Ġneed s
Ġl ive
ĠA t
ort s
Ġoff ic
read y
Ġb ody
Ġen ough
Ġperson al
Ġcon ne
ur s
ot s
Ġhapp en
Ġgovern ment
Ġdo g
Ġwebs ite
Ġproduct s
Ġd one
v iron
Ġs ide
pport un
Ġf ar
Ġw alk
' re
Ġposs ible
Ġf ocus
Ġc ertain
Ġme ans
Ġ1 1
Ġmem bers
o ice
ut ure
Ġfu nd
Ġed uc
Ġt re
Ġm akes
er n
ra p
Ġn on
Ġ3 0
E S
Ġb ased
Ġ19 9
Ġfollow ing
Ġrec ord
Ġse veral
Ġfe at
Ġl and
f er
Ġl im
Ġdo ing
A T
ĠE ng
an ces
er y
Ġse ason
Ġo cc
Ġmus ic
Ġm en
al f
Ġm illion
Ġb it
Ġal ready
Ġsh ort
F or
ĠAmeric an
Ġm ajor
ĠT om
os ed
Ġre view
Ġo pportun
ne w
Ġcont rol
Ġh old
s c
Ġm il
Ġe lect
ur ity
Ġget ting
Ġm ind
e b
Ġas ked
i que
Ġsh are
S t
pt ion
Ġvis it
s on
Ġqu ality
Ġeas y
it her
Ġb all
Ġl ine
f ort
c hed
Ġ |
' m
Ġcom es
p ro
Ġto ld
Ġdevelop ment
Ġstr ong
ore d
Ġso ft
Ġac ross
ward s
ail s
lo ad
Ġyou ng
ĠS u
ĠC ar
ci ally
i ans
Ġ \
Ġc ou
us h
Ġr is
Ġcre ate
Ġf av
Ġinv ol
at ic
ic y
.. ..
a pp
A R
Ġn et
Ġm ult
ĠC o
viron ment
ĠJ ohn
Ġan al
Ġle ast
a pe
Ġqu ick
ate g
Ġnew s
id d
Ġe conom
Ġpartic ular
Ġb ird
id es
Ġact ually
ĠM y
ur ther
Ġm aterial
ĠUn ited
The re
Ġw a
Ġbe aut
Ġde al
n ot
ĠThe se
Ġf uture
ĠA pp
du ct
Ġchar act
Ġe y
en ces
Ġret urn
A N
is ter
l f
Ġ ident
! "
m ost
Ġc ity
âĢ ĵ
Ġstud y
Ġl a
in o
Ġl ow
Ġex c
id ed
_ _
er r
Ġc e
Ġspec ific
Ġplay ed
Ġexam ple
ar r
ĠM ed
ro p
Ġor ig
Ġre du
a ff
h od
l ished
A n
Ġh ig
Ġty p
ĠA m
Ġrequ ire
o ber
Ġdoes n
Ġre ason
ut ions
O R
an ies
res ent
ul ation
u se
o or
on y
ol l
Ġhum an
Ġ Â
u ff
Ġt ax
Ġe le
ĠHow ever
1 5
w h
ac y
Ġc amp
Ġon ce
c hes
H ow
m m
Ġcont act
on es
y le
oo se
og raph
Ġrel ations
Ġw on
ak en
Ġaut hor
Ġc at
ĠF l
B ut
Ġe arly
Ġvar i
Ġbr ing
Ġke y
Ġg ames
Ġp ar
Ġl ater
ĠP r
ĠCom p
ap s
i od
Ġp ark
o ver
Ġknow n
Ġb oy
Ġre d
g es
Ġcomp et
Ġp ick
W hen
Ġper cent
Ġst ay
ĠS te
Ġhe art
ro om
Ġst ep
Ġmonth s
ĠW or
ĠR ep
os p
Ġh ot
fe rence
a i
id ence
ĠIn tern
Ġ1 6
ĠIn st
c le
our ces
re w
Ġch all
if t
Ġcl ose
ow s
Ġpri v
Ġvide o
Ġt em
Ġe t
Ġas k
Ġen s
b ook
Ġindust ry
il ities
Ġe ar
Ġdisc uss
Ġproble m
er al
an cial
ver age
Ġ X
s w
Ġen er
Ġ vers
Ġan t
our ce
our n
Ġ1 4
Ġper fect
Ġre le
ĠD o
Ġbe gin
Ġg iven
Ġl ink
Ġide a
ĠSt ate
On ce
o on
ight s
Ġcle an
ll ing
Ġcom b
le ge
Ġh ours
Ġy et
Ġwhe ther
Ġresp ons
c rib
ur ch
Ġ /
ĠS y
ct or
Ġc ut
Ġf ive
ĠE n
Ġc ult
ent al
ĠE uro
ric t
Ġs ound
Ġf ace
Ġsome one
p ar
Ġw ind
Ġpol it
ĠN e
Ġse en
Ġam ount
Ġp ress
ĠS erv
u ed
n ers
m b
Ġf ield
st er
Ġcomp anies
Ġcl aim
Ġ ess
Ġde li
1 8
ĠL ily
ĠH is
Ġam ong
Ġevery thing
Ġj o
ill ed
Ġapp ear
ĠB r
Ġsp ace
re et
Ġf elt
o ard
it or
ib ility
- -
Ġquest ion
Ġhist ory
Ġa ge
ĠC ont
for d
Ġpur ch
og n
Ġcont ent
Ġne ar
if ul
Ġcons ider
l er
Ġm or
Ġv ol
g ing
im ate
' ve
Ġplay ing
at ural
Ġbelie ve
Ġto ol
ac es
ain ed
th ough
1 6
pe cially
ri ed
Ġ1 3
Ġp ie
Ġ1 7
Ġlook ed
Ġph ys
ab or
Ġadd ress
her s
Ġpro b
is on
a f
un ch
C h
sel ves
Ġd ue
1 4
Ġen c
Ġcomm on
b all
f ic
Ġwho le
Ġbe low
s y
un g
il i
Ġs ci
ra in
A nd
Ġf re
Ġp age
Ġiss ues
id ay
Ġmed ia
Ġc red
ĠY ork
E N
Ġto t
Ġm ess
Ġt aking
Ġb ad
c he
Ġper iod
ĠM e
Ġen vironment
ive ly
Ġem ail
Ġsing le
il t
u ation
S o
1 3
Ġout side
Ġm ag
Ġevery one
Ġ z
Ġcon cer
Ġresult s
ĠG u
d e
Ġp ack
Ġm ot
Ġst ore
Ġf all
Ġener gy
g o
Ġbre ak
Ġpre t
ĠJ an
Ġsu per
ip s
Ġp ub
as ing
ĠSt ates
Ġst e
Ġw atch
Ġit em
Ġpr ice
Ġany thing
Ġtechn ology
ĠY our
ful ly
Ġval ue
Ġrelations hip
Ġp ort
n a
Ġh tt
Ġab ove
ir t
Ġse x
led ge
am a
Ġlo ved
c ome
ĠC al
ir m
p ly
Ġc ra
R e
Ġbuild ing
Ġmet hod
ob al
ĠN ot
d d
ĠC ount
Ġh ope
ĠEuro pe
Ġp arent
or g
Ġsign ific
Ġmin utes
Ġrec omm
Ġme as
Ġimpro ve
Ġ1 00
Ġc rit
Ġe ff
Ġquest ions
ious ly
I S
ar ning
Ġp ict
Ġrecomm end
Ġbo x
Ġser ies
Ġman ag
itt ed
ĠC ity
Ġwork s
Ġpret ty
ch ie
g est
A S
g le
Ġse lf
pl es
Ġf urther
ro wn
ĠM in
Ġa ud
Ġty pe
Ġc al
Ġw ond
at ors
o le
Ġag o
Ġoff ers
Ġcom pl
ĠN ational
Ġp lease
1 7
ĠA fter
Ġre pl
ro du
us ed
A L
il le
Ġprote ct
Ġ2 4
Ġtra vel
Ġd ig
Ġne cess
Ġh alf
i ol
c ri
fic ult
Ġvar ious
Ġr ange
? "
Ġb rand
il ar
ĠP res
I T
Ġpartic ip
Ġde b
ĠS am
Ġe ither
v ent
Ġ2 5
Ġent ire
Ġfeat ures
Ġtry ing
ver t
ic ation
Ġf low
Ġal most
it es
ens ive
ĠSe c
at ur
Ġneed ed
ur ance
Ġman agement
Ġsa fe
Ġfil m
2 00
ce ll
Ġw ays
Ġfav or
Ġsu gg
Ġsugg est
b ack
Ġes pecially
ĠO ur
Ġth ird
ĠG o
an ks
Ġdif ficult
' ll
Ġm iss
Ġbeaut iful
Ġlike ly
Ġan im
Ġb ar
Ġris k
Ġbec ame
Ġtra ining
Ġde l
Ġdet erm
Ġcustom ers
Ġc ir
Ġ- -
pl ay
g ress
Ġt aken
Ġtra ck
om es
E D
ou d
ĠWor ld
and s
Ġare as
ĠM arch
ang u
Ġl iving
Ġg round
Ġcom ing
f act
Ġimp act
Ġrequ ired
Ġins ide
Ġso on
Ġse arch
! !
Ġfr ont
Ġcons um
Ġbl og
ĠS chool
Ġfin ancial
ĠA f
ĠC he
Ġs un
Ġperform ance
i ally
ru ction
Ġbl ack
Ġprovid es
Ġqu ite
ach ing
I C
Ġrep resent
Ġsignific ant
Ġst op
Ġspe nd
ĠS outh
ĠM c
Ġhow ever
ri e
ĠM r
Ġcle ar
Ġdo cu
Ġs ent
ific ation
Ġpop ular
i ver
Ġel se
w here
ĠP e
Ġcomp ut
Ġpart y
Ġex ist
i res
Ġf ast
Ġt ree
le x
o id
e es
Ġd am
ĠJ u
Ġinf l
Ġ5 0
z e
as k
Ġin it
is es
ĠG r
Ġc ell
Ġs ix
2 5
ic ated
a ur
Ġan sw
Ġag ree
Ġproper ty
Ġh y
ĠP art
Ġc ard
Ġbeh ind
ĠO ct
itt en
Ġsim ple
Ġprovid ed
Ġsub ject
et h
min ist
Ġro le
Ġoff ice
n y
ĠA b
ru g
Ġprofess ional
Ġwe b
t ime
u ary
Ġb ed
Ġiss ue
Ġwrit ing
ĠD r
Ġg ra
Ġincre ase
i am
Ġass ist
ĠN orth
Ġh ost
pr il
um b
Ġs ad
Ġcontin ue
ĠP ol
Ġword s
y ear
Ġm atter
ĠT w
ĠD ep
ĠT H
Ġac cept
y n
ition al
Ġo il
Ġa ction
Ġst aff
Ġn ice
Ġres pect
Ġproble ms
ĠE d
Ġst at
Ġeduc ation
ĠA g
Ġf oot
Ġpos ition
ro ll
Ġr ather
T o
v al
Ġyour self
Ġde ath
Ġa chie
Ġdec ided
Ġhe ld
Ġcharact er
Ġd ou
op y
Ġpoint s
ĠA ust
re me
ĠA ug
ĠA ct
Ġt ou
ic ro
ie f
i ence
Ġprob ably
a pt
Ġacc ording
Ġte xt
Ġc ook
Ġ #
Ġest ab
Ġsim ply
Ġev ents
um e
Ġab s
ĠW ill
ul es
Ġpre p
Ġsec urity
itt ing
u ge
Ġas soci
Ġis n
Ġin j
I D
Ġ201 2
Ġk ids
ob ile
Ġgener al
ĠC or
Ġf ail
res h
Ġadd ed
Ġs le
Ġs ong
r ing
Ġreg ard
it ch
Ġh on
Ġinst all
Ġhig her
n ed
Ġun ique
Ġfor ward
Ġn atural
Ġf ire
ad a
am b
Ġrec ogn
Ġcont rib
Ġw ide
l t
iv al
ĠD is
. )
o e
ĠQ u
re g
ĠD es
Ġk new
ĠG e
ĠB y
ol ution
Ġ201 3
Ġmod el
ĠS ome
Ġtru e
il ed
Ġpot ential
U S
Ġup d
Ġchang es
Ġpa per
an c
Ġconne ct
Ġsur pr
Ġnot hing
Ġwh ite
ab les
A C
ĠH er
Ġann oun
Ġto wn
Ġl oss
ĠS m
Ġart icle
A l
Ġinclud es
R E
Ġt akes
an ced
ĠP er
le br
Ġtreat ment
Ġro ad
ĠP ark
he ad
med i
Ġcol l
ĠAmeric a
i et
u fact
n ov
ĠT ra
ĠJ une
Ġcan not
ĠCent er
ĠSe pt
Ġd ate
ĠG l
Ġ :
Ġopt ions
Ġfin al
or ing
ad es
ĠIn c
Ġl og
Ġsystem s
Ġs ize
Ġne g
Ġch oose
Ġmom ent
Ġ19 8
iz ing
an a
Ġsim ilar
ĠN ow
Ġs we
pp er
em pt
Ġrec ent
Ġopportun ity
Ġmem ber
ĠI m
ast ic
ĠHe alth
ĠJ ust
ĠSt ud
at form
Ġens ure
Ġcour t
Ġde pend
ou ra
r ight
er a
ĠB en
Ġt able
Ġn ational
Ġext ra
Ġfun ction
Ġsoft ware
Ġlong er
Ġg ave
Ġknow ledge
it er
Ġ201 4
y l
ail y
oo gle
ar get
Ġco ver
Ġcont ract
Ġle arning
Ġc oun
Ġrece ived
Ġf a
Ġind e
op h
Ġcre ated
Ġlead ers
6 0
Ġoffic ial
Ġmed ical
Ġl ives
Ġgrow th
Ġpol icy
Ġse lect
Ġwork ed
re l
Ġrun ning
Ġsh all
h ib
ĠB ar
ĠK e
ĠA pril
Ġph one
Ġr ate
at ory
Ã ©
Ġsu m
Ġm ach
Ġwee ks
Ġle ave
Ġcol lect
av ing
Ġl ost
n es
Ġ201 7
Ġread y
Ġshow s
Ġs at
Ġright s
ed eral
c il
Ġeng ine
ĠF eb
Ġterm s
Ġplay ers
Ġrequ est
2 2
Ġc as
Ġo pp
Ġg en
ĠCount y
ci ety
ourn al
Ġtri ed
Ġexp ress
Ġt it
ĠPres ident
Ġ201 6
Ġdes crib
ud e
Ġbook s
m a
Ġf ig
Ġus ually
et er
f ace
Ġdef in
ce ed
g u
Ġdec ision
Ġwor th
Ġspe ak
ad em
Ġse nd
Ġf ul
he l
er c
Ġp ers
ĠF in
Ġbe gan
b ased
Ġrece ive
ear ch
Ġst ruct
Ġnet work
Ġdesign ed
Ġr ad
Ġv iol
Ġd om
ĠAr t
Ġhand s
ir it
Ġ ill
Ġtot al
Ġreg ular
ĠJu ly
Ġthrough out
Ġde ep
Ġpract ice
ys is
m it
ĠP a
Ġorig inal
Ġc ause
Ġread ing
Ġseem s
4 0
Ġs ense
Ġquick ly
Ġpri or
ac hed
Ġatt ack
Ġ x
Ġm ass
Ġus ers
ĠRe g
olog ical
ĠE m
idd le
Ġw ar
Ġany one
Ġa ffect
Ġde p
Ġd est
ac ed
Ġ201 8
Ġc ases
Ġa f
b it
ĠThe n
ar a
Ġapplic ation
Ġde g
Ġcol or
Ġleg al
Ġbl ock
ce mber
Ġthem selves
es e
ove mber
Ġ ,
Ġcou ple
ain ing
Ġro ck
ĠW est
Ġl angu
re ct
Ġat tend
Ġactiv ities
ĠM ore
if f
Ġhe ard
Ġb ott
Ġem b
a ction
op s
Ġlist en
Ġ201 5
ag ing
ĠF rom
ut h
ic les
Ġcl os
ww w
Ġf ight
Ġcred it
id ge
Ġte ac
Ġsk in
Ġcare er
Ġl at
ĠP re
Ġpat ients
Ġsal es
ar ter
Ġst ri
Ġpriv ate
Ġcom fort
Ġcount ries
Ġintern ational
ĠD on
Ġ ut
Ġl ate
ĠM ax
ist ic
ĠD av
Ġl ay
Ġim m
in ary
c ast
ĠWh ile
Ġfor mer
Ġpr im
am ent
Ġ201 1
ĠC our
ĠS pe
Ġo bs
Ġp ric
ĠJan uary
ict ion
The y
Ġc am
Ġdet ails
Ġm other
ur t
o ke
art ment
Ġdra w
Ġf it
Ġaddition al
Ġcond itions
Ġwond er
Ġh it
Ġcustom er
a ign
A t
Ġve h
Ġab ility
Ġdis e
ĠH ouse
Ġob ject
Ġcurrent ly
Ġet c
Ġn orm
Ġprodu ction
cl us
Ġpl atform
Ġpr int
Ġbl ood
li ke
Ġpolit ical
Ġsk ills
Ġdown load
ed d
Ġ4 0
ec ut
Ġce lebr
Ġrec ently
Ġb al
p ose
Ġv ia
Ġdo or
as hing
Ġm ark
Ġprogram s
Ġparent s
ĠR o
k y
ir th
Ġwom an
ĠC O
o es
Ġgo al
Ġha ir
ĠSept ember
ĠE l
Ġgr ad
Ġit self
Ġb ase
Ġbenef its
Ġex act
Ġj ud
Ġaut om
as ons
Ġ201 0
Ġam az
Ġbo ard
ĠOct ober
m ing
Ġf ish
Ġappro ach
li er
Ġst ra
s p
h ood
Ġstud ent
g round
ĠD ay
ĠAf ric
Ġs ens
Ġapp e
Ġman ufact
ab y
W ith
Ġvers ion
us es
ĠAug ust
Ġp le
Ġinclud ed
Ġc and
Ġmeet ing
p ri
m ore
e k
Ġnecess ary
Ġrel ated
u x
b or
Ġw all
Ġ2 1
Ġinvol ved
Ġint rodu
Ġgl obal
er ve
s u
ĠH igh
Ġs il
im um
ĠO ff
Ġmor ning
air s
Ġ ri
Ġe at
in c
h am
ly ing
Ġt arget
Ġe p
ru ary
it c
er ous
en ced
ffic ient
Ġrem ember
Ġb i
Ġsa f
Ġwe ight
Ġmarket ing
Ġs low
Ġt our
Ġ20 20
Ġcomm it
ren g
Ġar ri
ess ion
av es
at ives
Ġtr ust
Ġvari ety
Ġcost s
Ġlevel s
Ġl ower
Ġdri ve
Ġco ol
ĠB ro
h old
Ġp an
ard en
ĠH ar
Ġwr itten
Ġim medi
Ġd rug
am ple
l ight
Ġb ank
Th at
Ġ2 2
ĠI nt
Ġcl ick
ĠU s
ĠM on
Ġey es
Ġproject s
ĠDe cember
Ġinte gr
S h
ag ue
M y
rough t
ĠP ar
osp ital
Ġmain tain
r ay
ĠN ovember
ĠAs soci
al es
Ġmy self
Ġwas n
Ġst ock
Ġbu ilt
ĠO f
Ġfavor ite
Ġlearn ed
augh t
us iness
Ġch ance
ud d
ĠS ci
Ġse ll
Ġch oice
Ġinst ead
Ġhe ar
ur g
ur b
Ġgo es
Ġ201 9
N o
ĠS w
A M
Ġli ked
m on
Ġallow s
Ġst yle
Ġm ix
ĠB u
Ġs qu
Ġs n
fe red
ĠĠ ĠĠ
st r
o ff
O ur
ĠHe re
Ġatt ention
Ġins p
is ions
her n
Ġwr ong
Ġitem s
Ġset t
Ġr ound
it ary
Ġinvest ig
ĠM us
P h
Ġeffect ive
Ġcon c
\\ \\
ĠE very
Ġlook s
2 3
Ġe mer
Ġins urance
Ġeas ily
Ġc y
iv ity
O T
2 4
ĠIntern ational
Ġf air
ip le
ic ations
ĠDep artment
Ġor d
Ġcl ients
u le
A ll
Ġsc reen
Ġon es
ver se
Ġgrou ps
ĠAust ral
Ġsum mer
Ġus er
on se
Ġenc oura
in ci
IN G
et t
p ut
Ġcir c
ple ment
Ġh ol
ĠA cc
ĠV al
7 0
Ġd iv
j ust
r is
ĠW ar
Ġwr ite
ide red
Ġm ention
ĠM ich
Ġlat est
Ġlead ing
Ġchall eng
Ġp ull
ĠB rit
Ġtyp es
ĠS an
Ġatt empt
h tt
it ution
Ġpro pos
ĠBl ack
un t
Ġr an
Ġtou ch
av y
h aps
ip ment
Ġfe ll
Ġopt ion
Ġre v
ĠAd d
se c
Ġres ources
Ġh uge
Ġpl ans
w ise
O U
E C
k ing
in y
ill ing
Ġcamp aign
sy ch
r am
Ġdig ital
Ġstand ard
Ġd ark
Ġde fe
if orn
Ġ2 3
P ro
Ġcomput er
Ġg reen
ĠCh ar
Ġhim self
Ġm atch
it ation
rou p
ough t
Ġmod ern
O S
B e
ĠL aw
p re
Ġre lease
{ \
Ġv ict
Ġpol ice
ens ion
Ġp red
Ġhappen ed
Ġsomet imes
Ġreport ed
Ġsaf ety
Ġ +
A fter
it ute
ĠT V
ĠD irect
Ġh or
Ġse par
Ġprev ent
ĠG erm
Ġre ach
Ġide as
ĠEng lish
Ġansw er
Ġex cept
Ġe arn
ĠU K
Ġpos itive
Ġfe ed
ir ing
Ġl if
Ġad minist
att le
Ġinfl u
Ġst ru
Ġdr ink
Ġs old
Ġf ix
nd s
Ġpl ant
Ġsay ing
it ter
8 0
mer cial
Ġl ab
Ġmov ie
ĠA c
id ing
te e
Ġcon duct
Ġst reng
Ġsit uation
iforn ia
Ġsle ep
ĠJ es
Ġprovid ing
Ġa verage
Ġp ath
Ġthink ing
Ġse ction
ag ed
h a
Ġg ives
Ġorgan ization
z y
Ġst ates
ĠFeb ruary
Ġpres ident
Ġs us
Ġeconom ic
ain t
ke y
al t
Ġv ac
Ġinterest ing
ĠC ons
und ay
Ġcons idered
ond ay
Ġreg ul
Ġloc ated
9 9
Ġphys ical
Ġexpect ed
c ies
est s
Ġl ived
ond on
Ġt al
Ġw arm
l in
Ġex cell
p ite
atur day
Ġindividual s
w ood
âĢ ¢
ĠS ch
Ġ ...
al y
iv il
ĠN et
Ġpart s
ĠCh ina
Ġpub lished
ve y
Ġn ature
Ġl ed
y ond
Ġc ross
n s
ĠComm un
ud get
Ġent er
ag n
Ġsit es
Ġte le
Ġturn ed
Ġa ff
Ġs ource
Ġb ra
om en
ar i
Ġtool s
ĠC oun
Ġdocu ment
im ately
Ġpurch ase
Ġw ood
Ġget s
m ission
Ġb rought
Ġpart ners
ap an
il ies
ic a
Ġamaz ing
ĠK ing
Ġim age
Ġf resh
Ġqu al
Ġto wards
Ġg iving
ĠA ut
Ġlangu age
id ents
Ġfeel ing
ĠS ue
il es
Ġar ch
Ġpie ce
as te
ĠCour t
ar ies
ent y
âĢĿ .
Ġfl oor
Ġd aily
Ġmult iple
Ġemploy ees
Ġ200 9
om s
Ġcom ment
v ille
Ġcomplete ly
B y
Ġhelp s
ĠF ace
Ġim plement
re ed
Ġcent er
ĠP at
Ġspe ed
Ġa ware
Ġloc ation
ĠInd ia
Ġto y
Ġsc he
al d
Ġsa ve
ĠR ed
Ġdist rib
ac hes
ci ous
Ġbeh av
ĠA N
Ġbro ad
i qu
cri ption
ĠG ener
Ġst ories
Ġinter view
ĠFr iday
Ġcomple x
ĠL u
Ġf ather
Ġl ic
es ter
Ġlim ited
Ġav oid
Ġde part
Ġext reme
Ġcond ition
en ge
ĠO b
itc hen
u ate
Ġde ad
g ar
Ġpro gress
Ġrem ov
E T
ĠS er
Ġdirect ly
Ġsub st
v ant
Ġd oll
is c
ĠCal ifornia
Ġorgan iz
Ġbusiness es
ĠR uss
Ġcon vers
ak er
ar ily
r s
Ġb ur
Ġsu bs
I ON
2 1
Ġ2 8
ren ces
Ġhigh ly
Ġmaterial s
Ġra ce
b and
Ġp en
C l
E L
ĠG oogle
Ġcons ist
Ġm at
Ġanal ysis
Ġev idence
ĠL et
E O
Ġsuccess ful
ĠNew s
Ġdet ail
Ġre ve
Ġachie ve
Ġm obile
Ġd ed
Ġdis play
Ġa w
om ing
se qu
ck s
ĠA ir
r ast
w or
Ġt en
? âĢĿ
" .
Ġm id
ashing ton
ĠTH E
Ġ2 6
ĠA re
I L
Ġcon cept
Ġl ack
Ġresp onse
Ġhelp ed
Ġrele ased
Ġcol lection
Ġd ro
Ġprom ot
Ġw ish
ĠF irst
Ġeffect s
Ġd ream
an i
ĠCol lege
Ġsol ution
al ing
Ġ200 8
Ġplay er
du c
an cy
Ġs on
Ġfe ature
Ġstart ing
A P
Ġf arm
or ge
Ġc ry
Ġob tain
Ġb and
Ġcar ry
Ġreg ist
a el
ĠS en
Ġgrow ing
Ġj ump
ou l
ite ly
Ġ =
Ġinvest ment
Ġ202 1
ro te
Ġexc ited
Ġin nov
ĠL ondon
Ġf ile
ĠJes us
Ġne igh
Ġpl aces
Ġresp ond
Ġca pt
Ġlot s
Ġ2 7
Ġadv ant
Ġdev ice
Ġdevelop ed
p en
Ġpur pose
ib ly
Ġwant s
Ġunderstand ing
Ġex erc
ĠServ ice
m itted
Ġexper t
ate gy
ĠJ ack
Ġinde pend
Ġhist or
Ġcult ure
s et
b oard
Ġad ult
Ġsp ent
he t
Ġm is
ĠSt reet
Ġpict ure
a res
Ġb irth
ĠRe ad
) :
Ġcould n
Ġb ag
ograph y
im b
Ġf irm
Ġem ot
Ġbl ue
Ġsp ot
Ġtrad itional
Ġactiv ity
id a
p m
Ġstr ateg
Ġn ation
ut ed
ĠB usiness
v est
Ġplan ning
Ġc opy
Ġapp ly
Ġth reat
augh ter
Ġequ ipment
ad d
k en
ĠS im
m as
Ġ202 2
__ __
o ly
ore s
Ġdise ase
Ġinterest ed
Ġhealth y
Ġst ress
Ġcol lege
err or
z z
Ġwe l
Ġfin ally
Ġprev ious
Ġv ot
od ay
Ġdem and
Ġhtt p
Ġf ine
Ġal one
Ġopportun ities
Ġh ous
Ġpa id
Ġnot e
v is
Ġin form
it able
ĠS unday
Ġst age
Ġst uff
Ġac qu
ĠD em
oc r
Ġeff ort
Ġim ag
4 5
iz es
b um
Ġd ress
Ġfam ilies
Ġmov ing
Ġful ly
Ġrel ig
Ġh op
b l
Ġreg ion
ĠComp any
l im
Ġcreat ing
ĠJ apan
Ġass ess
erv ed
Ġgo als
ra el
Ġtri p
Ġrequire ments
u k
Ġwa it
ĠTe chn
' d
ĠServ ices
Ġcor rect
Ġm ount
Ġbegin ning
eng th
Ġcons ult
ĠâĢ ¦
ĠI N
ĠJ e
Ġv oice
E x
ress ion
im ent
Ġsp irit
Ġocc ur
ch an
ĠG roup
Ġdiffe rence
ub e
Ġpress ure
ra ft
Ġanal y
Ġschool s
le ment
w ide
ant ly
ĠTr ans
ĠU p
Ġpre m
ĠFace book
Ġmess age
Ġcap ital
ĠM ost
Ġw ife
ar ant
ru it
Ġtalk ing
Ġal tern
v in
Ġ6 0
Ġcl ub
Ġt ick
Ġb illion
* *
d om
Ġappro pri
ĠM onday
Ġfe et
ĠW ashington
Ġg old
ĠS aturday
Ġcertain ly
Ġa im
an cing
Ġg as
Ġrest aur
Ġacc om
Ġh our
Ġd ating
an ch
Ġincre asing
ĠI I
2 6
Ġfre qu
ĠP ost
y ing
ĠL a
ĠPro f
Ġdeli ver
Ġb udget
ven ue
S he
Ġincre ased
for ce
Ġk n
Ġc ode
Ġst ick
ĠH ol
Ġdem on
Ġen h
b ody
ĠE ven
Ġparticular ly
Ġg rand
es tern
ag er
Ġsol utions
Ġt er
rou d
S T
ĠGo vern
Ġinst ru
Ġre ci
ren ch
Ġu lt
Ġbenef it
Ġne arly
ĠPa ul
Ġa ward
Ġtr ade
Ġpr inci
Ġexact ly
ĠCan ada
Ġth ous
o pped
he st
3 5
ĠEurope an
Ġmean ing
7 5
Ġhtt ps
Ġc old
ĠO ut
ĠE ast
ib r
Ġexcell ent
as c
Ġw rote
Ġs en
Ġsp orts
ch ange
Ġbe yond
in ated
Ġb aby
Wh ile
Ġc ert
ĠDav id
ron ic
ĠM et
g en
ol ute
ecut ive
use um
ĠW ind
ĠP lease
Ġr ules
o pping
Ġmay be
Ġpric es
Ġf ear
re ci
Ġess ential
Ġro ll
Ġs ort
pl ace
ĠPro gram
Ġd ire
ke nd
Ġf at
ĠM arket
ĠB ook
Ġf ederal
Ġdeg ree
it iz
Ġch urch
Ġfin ish
li ed
r im
Ġsm art
Ġd ry
Ġwho se
Ġanim als
is l
Ġbas is
und red
Ġr ates
Ġover all
Ġinc ome
f ield
2 8
ĠWe ll
ĠI r
Ġredu ce
is f
Ġcom mercial
d own
Ġl iter
A D
Ġannoun ced
Ġstru gg
Ġf em
Ġnum bers
Ġsci ent
Ġey e
R O
ist ry
Ġp et
Ġser ious
Ġd en
Ġke pt
Ġstate ment
Ġas pect
Ġ ver
Ġpat ient
D e
Ġsci ence
or row
Ġmil itary
Ġdirect or
Ġstud ies
Ġopen ed
Ġre asons
Ġpro ced
ord er
Ġre nt
Ġmov ed
m at
ol f
Ġapplic ations
Ġallow ed
ĠD ist
Ġassoci ated
Ġmach ine
ĠRep ublic
in ner
B C
ĠRes earch
Ġ Ċ
Ġrespons ible
Ġreport s
Ġser ve
ate ver
Ġsur v
Ġteam s
Ġrem ain
Ġcor por
Ġ2 9
ues day
2 7
Ġop in
ad s
Ġtem per
Ġus es
ĠF ree
Ġs ale
Ġear lier
ar c
am s
urs day
ĠH ome
ic ate
ed nes
ord s
t ies
Ġimmedi ately
i ant
Ġof fered
Ġc ash
Ġn ut
Ġhelp ing
et ic
Ġnorm al
ĠE duc
ĠInd ian
Ġsu st
ĠP al
Ġim ages
Ġsm iled
Ġu nd
ri al
Ġphot os
m p
Ġex tend
Ġtit le
Ġa part
Ġsh oot
2 9
Ġchar ge
al ed
Ġchang ed
ic ip
ĠIs rael
ĠT ex
Ġd ang
N ew
Ġstra ight
Ġsh own
C om
Ġfor ce
ĠB oard
ous ly
Ġcan cer
c ol
Ġjo in
or age
ĠB ob
v ision
ĠCoun cil
ĠWh ite
Ġg one
ist ics
Ġact ive
Ġcand id
rap y
ĠP M
fe e
ĠAssoci ation
Ġcl in
Ġconst ruction
c are
Ġf ra
Ġbro ther
k es
ĠP ri
Ġc ateg
k er
U n
Ġprofess ion
Ġm ax
r ig
Ġadv ice
1 00
b on
Ġm iddle
row s
am m
ĠAs s
Ġown ers
ĠM or
o oth
ĠSy stem
He re
ĠWill iam
Ġad vert
Ġref lect
Ġk itchen
Ġfollow ed
Ġdam age
Ġpat tern
Ġmeas ure
Ġsh ared
our ney
Ġintern et
ol ic
Ġg arden
ter m
Ġpe ace
Ġstr ategy
ĠCh urch
ash ion
l s
ĠDe velop
nd ed
Ġal bum
Ġp roud
Y es
Ġhe at
c ause
ednes day
Ġdefin itely
i ance
Ġdou b
Ġb le
Ġw at
I s
a ult
ad y
Ġso ciety
Ġlar gest
Ġc ru
Ġal though
Ġshow ed
Ġcontin ued
P S
Ġnot ice
n ame
_ {
Ġse ven
ite ct
ĠG reat
ĠAl so
Ġeff orts
l a
se e
N ow
il ing
ĠO F
ĠM any
Ġgreat er
Ġ200 7
Ġpower ful
Ġatt ract
Ġtrans fer
b b
i pping
ound s
il s
Ġe ight
Ġsh ot
Ġm er
ĠF ound
re m
ĠD el
âĢĿ ,
Ġtrans port
Ġpop ulation
ĠPl ay
ĠW ork
ĠO ther
Ġst ar
ĠF e
Ġsp read
Ġb orn
Ġpart ner
c ul
Ġveh icle
Ġdev ices
ic o
Ġw ild
Ġtru ly
3 3
h ouse
Ġeas ier
ĠB est
Ġbas ic
Ġh undred
Ġtra in
Ġ19 7
ĠA M
ĠM od
ur ning
ĠG reen
Ġc ast
i ber
Ġwork ers
hip s
Ġfa ith
Ġf ans
p a
Ġpo or
am ic
rie f
Ġpre fer
ĠY ear
Ġcl ot
Ġchall enge
Ġdec l
ĠP ort
Ġgu ide
un k
Ġcoll abor
ĠC ong
ag o
in ally
Ġqu arter
D on
we ll
L E
Ġcont ain
ic ine
Ġtr uth
hen s
Ġserv ed
ĠG et
Ġacc ur
en ed
Ġsupp ly
Ġcom ments
om b
Ġh us
Ġev al
ĠChrist mas
or ry
ative ly
Ġstep s
Ġann ual
Ġgl ass
ing er
Ġare n
Ġfact ors
ĠJ ames
Ġp sych
os ing
Ġto ys
le g
Ġexp and
ĠChrist ian
Ġswe et
Ġad op
Ġl ines
ĠB el
Ġh ospital
ĠSp ot
ic ed
en cies
I V
Ġregard ing
Ġpay ment
Ġp ow
ĠAn ge
ĠV ol
Ġcomp ared
Ġident ify
ĠIntern et
Ġa head
Ġh arm
.... ....
Ġcomp on
Ġprote ction
ĠSu per
Ġwee kend
it ude
ĠÂ £
ĠA nt
Ġfr ame
Ġaf ford
ĠTex as
ra w
ĠI S
Ġjob s
Ġorganiz ations
Ġsur round
ĠOff ice
port s
ĠC le
Ġb ill
oo s
com ing
Ġb rain
ĠR em
Ġoff ering
Ġeconom y
ĠBrit ish
Ġlet ter
Ġche m
9 0
ĠH all
olog ies
ĠIn ter
Ġapp reci
Ġt rou
ĠG ood
Ġpict ures
Ġwonder ful
Ġcrit ical
Ġapp oint
Ġstruct ure
Ġv irt
ru pt
Ġprodu ce
ove red
er ia
Ġappropri ate
e ch
ĠAn n
ust r
ac ity
I G
ed s
am ing
Ġabs olute
ĠM ac
Ġad just
er o
Ġstreng th
ĠR et
ap ter
Ġcl ient
land s
Ġp ages
edd ing
Ġper haps
Ġ ing
Ġmove ment
ĠG old
Ġsu ff
D o
Ġgener ally
ad ing
Ġestab lished
g a
ĠGener al
Ġcontin u
Ġexist ing
Ġmethod s
Ġsat isf
Ġinit i
l ies
ĠP ublic
Ġphot o
Ġestab lish
Ġ â
Ġset ting
i j
ĠL ord
6 5
Ġexperi enced
ĠWe b
pect ive
ar th
Ġprim ary
st on
ĠFl or
Ġchalleng es
Ġg ift
Ġno vel
us ion
ang ing
A r
l ig
Ġsh op
C C
Ġ *
o ices
Ġpart ies
ak ers
Ġsc ared
Ġrequ ires
ĠWh y
Ġb reat
ĠM ary
Ġsur face
Ġcommun ities
um an
Ġcent ury
htt ps
L et
Ġdeli very
Ġc up
en ing
T S
im al
Ġj ourney
Ġc ivil
in ate
Ġaud ience
ĠR ich
Ġm icro
Ġac adem
oc al
ĠInst itute
ĠB ank
Ġcas ino
Ġpass ed
O L
ĠJ er
Ġfin ished
om an
Ġmil es
Ġob v
Ġdo ctor
Ġown er
The se
Ġgu arant
ĠAustral ia
Ġb ow
Wh y
Ġgirl s
Ġc atch
ĠAn y
Ġv ill
ĠJ ew
ve re
ĠL ife
I P
ĠS ur
Ġh omes
Ġco ve
Ġhe avy
Ġre pe
Ġextreme ly
Ġpie ces
f riend
Ġconne ction
Ġg ar
ĠO ver
g al
ĠDes ign
Ġme chan
Ġsec ret
Ġfig ure
Ġbott om
Ġpro s
Ġelect ric
Ġwe ar
Ġf le
ĠH ist
Ġdemon str
Ġsee ing
Ġ3 1
Ġthere fore
E M
ĠPl an
ĠF rench
Ġlar ger
ens es
Ġreal ity
I M
Ġdis app
Ġhus band
Ġinc red
Ġw ww
Ġm ission
ĠComm ission
k now
ĠDirect or
Ġthan k
Ġhot el
Ġref er
ĠM em
Ġbig gest
Ġuse ful
Ġgu id
ĠT uesday
Ġpr ay
Ġadvant age
Ġl au
Ġcreat ive
Ġant i
Ġocc as
Ġb ath
ines e
Ġrepl ace
Ġl ength
Ġgu y
ĠS ol
y m
Ġmod els
Ġar r
ĠMan agement
Ġfind ing
p es
d o
du le
Ġexperi ences
Ġm ist
Ġback ground
us ing
ri age
ĠPe ople
ph one
Ġcharact ers
Ġdou ble
ĠTh ursday
Ġd ied
Ġbe g
Ġgr ant
Ġfore ign
ĠRe view
pect ed
Ġh om
ĠS pr
Ġhig hest
g ment
as ure
ĠM ark
Ġlead er
u ps
Ġes c
se y
S e
por ary
Ġsl ight
Ġimp ress
ĠEduc ation
N e
Ġlim it
Ġstat us
D A
re y
stand ing
Ġwe ather
un te
Ġdeterm ine
wor ks
Ġex hib
ĠE v
Ġcol le
Ġopen ing
Ġst ream
Ġu ne
ĠMich ael
Ġold er
Ġte nd
C on
Ġcomple ted
Ġgu ys
Ġcell s
am ily
ĠS ub
Ġ ir
Ġest ate
k i
F rom
ĠC are
O M
Ġm ill
ad o
Ġ ice
Ġre b
it ar
Ġdri ving
Ġear th
Ġc itiz
Ġfund s
Ġent ertain
Ġcomfort able
s es
Ġcommun ication
U R
ĠPh il
T H
v ention
i os
i ation
Ġs and
a ven
ĠM art
ĠT y
m en
re es
Ġto ward
Ġlaw s
Ġpol ic
ĠB ra
Ġd aughter
ĠSci ence
ĠR ober
ĠR el
Ġpro t
in ter
Ġsec ure
Ġclaim s
Ġut il
Ġstand ards
ĠW ednesday
4 4
est ival
ĠRe c
Ġc ards
ent ure
Ġon to
un ately
Ġwind ow
iqu es
as y
Ġf ant
P lease
Ġman age
Ġwould n
ex ample
z a
Ġknow s
Ġ200 6
Ġexpl ore
os ure
Ġwor ry
P ost
Ġcam era
Ġbal ance
k ay
ut y
Ġdescrib ed
erv ation
Ġdevelop ing
Ġra in
Ġcar s
Ġar gu
ĠS ince
e qu
ent ially
Ġact ual
Ġoper ations
ĠBe cause
Ġre li
Ġsy m
ell ow
Ġte aching
Ġrem ains
Ġwalk ed
ĠS T
i pped
Ġm ental
Ġpain t
Ġg un
Ġ8 0
Ġn ames
C an
Ġme ant
ĠM ag
Ġleg isl
on a
uck y
Ġres ist
ĠO h
Ġpre c
Ġreview s
N ot
Ġprodu ced
c ont
S ome
it ness
Ġim pl
Ġb atter
Ġbe ar
ĠOn ce
Ġf ab
Ġg e
ĠB ig
m ath
ĠH ot
ĠCh ild
ĠTh om
5 00
ĠComm it
Ġrem ind
ĠAfric a
g n
Ġlo se
Ġre ached
ĠSe e
a ctions
Ġcove red
Ġun it
Ġha ven
Ġcall s
Ġst orage
m iss
Ġpo ol
y er
ra b
Ġsc en
Ġcl oud
ot o
ri an
and er
it ors
l or
Ġhapp ens
Ġj ournal
Ġrun s
Ġco f
Ġfor ms
Ġother wise
Ġagree ment
o very
Ġch ann
Ġwh atever
Ġe th
Ġval ues
3 6
ĠFlor ida
l ook
ĠS a
Ġmult i
ot a
Ġbec omes
Ġexerc ise
Ġsust ain
C H
Ġra re
Ġca used
Ġm att
Ġr out
i pe
Ġmon itor
Ġro b
um n
Ġ202 3
Ġst reet
Ġmanufact ure
Ġr ich
g ency
Ġmajor ity
Ġcon ference
Ġdi et
9 5
Ġele ments
Ġm aster
ĠCl ass
or ney
Ġpl aced
ĠA v
or ial
b ox
ĠTw itter
od es
Ġbr ight
w ith
Ġf an
Ġpresent ed
Ġdec isions
Ġindepend ent
3 8
row d
cri pt
ct ors
ĠB er
Ġest im
Ġ19 6
Ġret ail
oo per
ĠC am
Ġmention ed
ĠP ress
ĠW he
P A
P l
Ġview s
Ġpl us
ro s
Ġlo an
ul a
ĠIn s
amp ions
ĠB ay
ign ed
ĠI T
Ġle aves
Ġsex ual
Ġsc ore
Ġsc ene
Ġd ad
Ġwa iting
Ġ9 0
Ġcontin ues
Ġcent ral
ĠT O
Ġt ips
st ate
Ġ @
Ġg ain
ĠM iss
Ġpass ion
ĠUS A
Ġtechn ical
Ġwalk ing
ĠR ob
Ġcl osed
A b
Ġsol id
ĠL ou
ap ers
Ġtra ffic
ĠCong ress
os is
) ;
ĠEng land
Ġtri al
Ġbec oming
ĠCl ub
ick s
ĠM icro
ĠSo cial
ill er
Ġrele vant
ĠF ore
R A
3 4
ĠRo ad
ĠCh inese
ag s
ac ing
ab ilities
ĠH el
ĠS un
Ġli br
Ġthous ands
ant a
ĠS al
Ġsk y
Ġcr is
Ġs ources
Ġa ctions
at ically
Ġb ul
Ġleaders hip
f ree
Ġb on
f l
ĠTr ump
Ġpract ices
ĠT ime
Ġ$ \
i pp
Ġbehav ior
ĠP C
Ġcompet ition
Ġse ctor
ĠR ock
k in
Ġprep ared
ĠM ex
ĠB re
Ġcoun ter
ĠP et
Ġcof fee
m ark
ĠDevelop ment
Ġd rop
Ġf ol
Ġdire ction
Ġth us
Ġrelationship s
Ġlo ck
Ġep is
Ġthan ks
Ġvis ion
Ġfor get
ĠU nder
se mb
Ġkeep ing
ĠIn formation
Ġmanag er
ĠC ap
h y
Ġan g
i ers
ĠE ach
os ition
Ġra p
ro id
r or
ĠSt r
Ġappro x
Ġwel come
Ġgu ess
ir gin
i ency
Ġmem ory
Ġtest ing
Ġsh aring
a e
Ġide al
ĠR iver
Ġst ation
Ġvict im
ĠS ing
3 7
Ġe fficient
Ġtrans l
Ġcle arly
Ġn or
Ġex clus
5 5
Ġfam ous
ĠWind ows
in n
Ġcap acity
ĠAl though
Ġsen ior
Ġrecord s
Ġs ch
Ġwatch ing
Ġfore st
Ġspend ing
Ġdec ide
Ġse lection
Ġf ashion
Ġs now
az on
Ġofficial s
" ,
Ġseem ed
Ġpick ed
Ġt im
Ġf lex
m ail
um ber
Ġwill ing
Ġvide os
Ġcirc um
Ġrel ax
Ġcl imate
Ġr ule
ĠM al
Ġf ly
T im
ĠCommit tee
Ġag ency
Ġse a
Ġfil es
k a
ĠU se
Ġp us
ur ies
ĠOb ama
Ġdi agn
en ly
Ġst opped
ĠJ ournal
Ġfl u
Ġ7 0
Ġpres ence
Ġla unch
os h
Ġpolic ies
tern al
it z
in ct
ĠAr ch
Ġinc or
u el
Ġs pl
Ġcol ors
Ġfor g
ber g
Ġsp ring
ĠB ill
ĠGovern ment
L e
Ġsh ape
Ġnum erous
Ġpl ants
Ġ ign
Ġlink s
om a
az ine
Ġdefe nd
ĠAN D
est ic
Ġr ank
Ġmarket s
Ġdisc over
Ġ >
ed y
Ġg raph
ir us
is co
Ġch air
I A
Ġeven ing
ĠApp le
Ġfoot ball
4 8
go ing
so ft
ĠM at
ĠO pen
Ġb oo
ne ct
N A
Ġd at
ĠDe c
Ġadv ance
Ġart ist
ĠC r
Ġra ised
ger y
ri pt
f it
ul ed
Ġfocus ed
ic on
Ġteac her
Ġsym pt
C A
Ġhon est
Ġfriend ly
Ġm ort
Ġ200 5
Ġcon ven
n et
Ġsu mm
out hern
know n
ent ed
Ġend ed
ĠThe ir
ify ing
ĠM ake
fe rences
Ġsmall er
Ġr at
Ġsee k
Ġfund ing
ci ent
Ġded icated
Ġdes pite
ĠM il
ic ago
Ġle aving
st e
Ġbut ton
Ġtre es
is ation
ant ic
cept ion
Ġs ession
ĠSm ith
ad ed
Ġdri ver
Ġres idents
ĠL ike
Ġarch itect
ro y
oo p
ĠT op
ĠS l
A cc
ĠProf ess
ruct ure
Ġ3 5
all s
Ġcont ains
ĠB et
Ġinit ial
ili ar
ĠOn line
ll ig
B S
Ġinj ury
EN T
Ġpl enty
uc le
Ġrem ove
Ġhand le
Th ank
ten ance
A d
Ġexper ts
Ġing red
3 9
Ġv ote
ĠC amp
Ġcre am
ĠW ater
! âĢĿ
re hens
f ast
is hes
Ġappear s
ĠGe orge
3 2
C ont
ĠP ower
Ġoper ating
M ore
B A
Ġe ating
ar ge
Ġm outh
pos es
Ġf urn
Ġsu gar
Ġsepar ate
ĠFound ation
Ġclass es
res p
Ġwin ning
Ġsurpr ised
ĠPro ject
Ġopin ion
M e
Ġfl av
Ġun c
Ġm ail
Ġenvironment al
Ġfac ilities
ĠSt ar
Ġcl imb
Ġfre ed
Ġh urt
Ġco verage
ck et
M S
Ġdepart ment
Ġe gg
Â ®
ĠL ear
ĠA tt
Ġwin ter
Ġk id
Ġstart s
\\\\ \\\\
Ġthough ts
Ġwh om
Ġf ill
Ġw ine
Ġt on
Ġshow ing
Ġadd ing
Ġto w
O W
Ġmot or
ĠDem ocr
Ġf illed
Ġde pos
Ġad apt
am in
Ġsche dule
Ġdocu ments
Ġsong s
r ad
ĠC ur
Ġar m
Ġprev iously
n ight
as p
act ive
n o
Ġde lic
Ġconcer ns
Ġc rowd
Ġw edding
Ġrespons ibility
Ġcr im
Ġco ach
ĠM ia
ĠH am
ĠV is
ber t
Ġag reed
V ID
Ġdeb t
ĠA lex
Ġchang ing
un ction
Y our
ĠDist rict
ĠA P
ro g
p et
Ġ er
i i
Ġbe at
Ġr ide
ist an
4 9
Ġl abor
Ġc ore
p oint
ce l
Ġpro ceed
r d
Ġsh ip
Ġsit u
ree k
Ġcomp ar
ident ial
Ġvol unte
Ġevent ually
Ġpost ed
Ġdiscuss ion
Ġs orry
ĠS il
et te
Ġfeel s
Ġb rief
Ġprofession als
Ġr ise
h ow
ult ure
8 8
Ġt ask
Ġvis ual
4 7
Ġmeas ures
Ġbuy ing
ĠS um
Ġhe aring
l ife
b ut
c oh
fe ction
Ġcare ful
Ġcon text
Ġd inner
ĠD et
end er
Ġask ing
ĠL ake
Ġcra ft
Ġadv anced
ĠAmeric ans
Ġmanag ed
ĠB rown
Ġneg ative
B l
ĠM ount
Ġ200 0
Ġind ic
ĠCommun ity
ag ram
Ġencoura ge
3 1
ĠCar ol
ig r
Ġsound s
Ġexp ensive
ĠV e
Ġtyp ically
it ure
Ġwas te
ĠU N
Ġsm ooth
Ġart ists
Ġh ar
Ġt aste
p an
Ġconf lic
ol es
p ress
Ġ ur
Ġbo at
Ġth row
h t
Ġpur poses
ĠUn ion
e ction
c raft
ĠIs land
ĠG rand
Ġneigh bor
Ġinflu ence
ra ce
Ġteac hers
t ion
ul ated
w in
Ġimport ance
Ġadminist ration
l ast
Ġspe ct
Ġp air
g hed
Ġhelp ful
ĠCent ral
y a
Ġenjoy ed
ĠT imes
Ġse m
Ġv s
Ġgener ation
Ġaltern ative
ak ed
Ġjo ined
Ġlist ed
Ġproper ties
Ġt ight
ĠFr anc
0 1
ĠMus ic
ĠSo ciety
ĠBl ue
w ord
Ġtru ck
n el
f in
Ġcons id
ĠD iv
ĠEng ine
Ġb ought
Ġbu g
d oor
Ġinte llig
Ġbr ings
ol ate
Ġany more
Ġnot es
Ġconnect ed
Ġdec or
Ġm ur
Ġla un
Ġc ab
Ġselect ed
Ġcomm itted
ĠCon st
Ġsc hed
Ġput ting
f r
od d
Ġc ities
Ġd ance
ĠD i
Ġun less
Ġopt im
ĠH ill
ol ars
Ġprocess es
Ġcon cent
ĠJ o
Ġcomb ination
Ġart icles
t op
4 6
Ġupd ate
ĠM om
Ġassist ance
Ġexc iting
Ġdis p
Ġtemper ature
Ġk ick
Ġte ach
Ġspec ies
Ġa p
Ġfem ale
Ġtechn iques
A pp
an o
Ġent ry
ĠD own
g age
ĠL ove
out s
Ġsc ale
ĠT oday
Ġreturn ed
s pe
Ġsh opping
Ġth r
Ġex change
ĠSec urity
Ġacc ident
ĠD ata
ick en
i us
Ġse lling
Ġmin ute
roll ed
Ġc ake
Ġbro ken
Ġcult ural
Ġbeaut y
Ġd er
i xt
ĠW omen
wh at
Ġmost ly
Ġallow ing
Ġlead s
ĠH y
Ġh ug
Ġhold ing
Ġsur vey
Ġmar ried
Ġenh ance
à ¤
Ġcor ner
Ġappe ared
Ġe lection
Ġr ou
J ust
Ġoper ation
Ġlau ghed
ic ians
ĠCh icago
Ġfe es
Ġk illed
Ġem p
Ġess ay
Ġj oint
Ġqu iet
ĠF ood
Ġs itting
ul ate
Ġb an
Ġm ap
Ġcircum st
Ġb attle
u able
is her
How ever
e ed
Ġar rest
Ġclos er
Ġj u
Ġst y
Ġrestaur ant
Ġmar riage
Ġinterest s
Ġpost s
te red
Ġfe e
Ġaccom pl
Ġdist ance
h ab
Ġdef ense
ĠAfric an
Ġdist rict
Ġbe ach
ill a
s hip
Ġl augh
Ġrad io
Ġhol iday
Ġmet al
ĠAcc ording
i at
wh ich
Ġapp lied
ĠM ass
Ġsympt oms
Ġwebs ites
ĠAc adem
Ġst ated
wh ile
e al
Ġd u
Ġtrans form
Ġfu el
ĠN or
or ter
ort hern
od ies
Ġsh ut
R ead
Ġtra il
Ġacadem ic
Ġmin or
Ġve get
Ġ200 4
Ġal le
in i
g l
S A
Ġperform ed
ĠAm azon
Ġs outh
âĢ ĺ
Ġanim al
Ġval id
M ay
Ġcitiz ens
G et
Ġyou th
Ġabsolute ly
Ġqu ant
as ks
Ġdoub t
Ġb ound
c r
ri ve
ĠW ood
Ġpred ict
Ġsign ed
in ating
Ġsw im
Ġclass ic
I R
Ġmin imum
fort unately
os en
Ġour selves
Ġfor ces
ub b
Ġn orth
Ġcorpor ate
Ġnot ed
ĠD uring
ĠChe ck
ĠJ ud
ĠQ ue
Ġar g
ĠM ad
Ġbut ter
Ġp ush
b re
ear s
ĠC D
em ic
ĠFr ance
it utions
ĠLu cy
Ġwe ap
ĠY es
ci pl
omm od
Ġrese arc
at ures
Ġwrit er
Ġd im
Ġviol ence
ĠP ay
Ġp m
Ġse qu
Ġr id
The n
L C
Ġstrateg ies
Ġ4 5
Ġra ise
ĠLe ague
Ġman ner
ĠE lect
ir ty
ĠSc ott
ĠGerm an
Ġune x
Ġmed ium
S te
ult y
Ġconvers ation
Ġsurpr ise
Ġslight ly
idd en
ph as
ĠR oy
ĠM ain
if ts
Ġf aster
Ġbus y
Ġexpl ain
ĠE arth
Ġd yn
ĠC EO
ess ions
ĠT or
Ġf ruit
ĠM er
Ġpl ays
d en
ild ing
g ers
ition ally
Ġsp ort
ĠC ustom
Ġsy mb
Ġbig ger
a it
D es
Ġrelig ious
ĠP eter
ĠRe al
Ġm ale
Ġprocess ing
ĠL at
k et
ĠTw o
ĠGerm any
Ġe ffic
ĠWh o
ĠV irgin
Ġpack age
Ġb ond
Ġrep air
Ġcon sequ
f ol
un ning
0 5
Ġemploy ee
ĠF amily
C T
Ġroom s
ĠPart y
Ġfl at
Ġprom ote
and a
Ġcon v
Ġp al
Ġsee king
Ġm ent
rast ructure
Ġpropos ed
Ġcour ses
arr ant
Ġmot iv
Ġfac ility
Ġinte nded
Ġc art
E very
Ġturn s
Ġb rows
Ġp u
in os
Ġaspect s
Ġc aught
Ġocc up
og rap
Ġbel ong
Ġph il
ĠA ward
o om
omet imes
os es
Ġass um
Ġfam iliar
ĠSpe cial
Ġtell s
rel ated
Ġspecific ally
Ġsa v
ĠJ im
Ġsu dd
Ġread ers
Ġchem ical
ri er
Ġdeterm ined
ig an
Ġy es
ĠW estern
ĠRober t
7 7
r ical
ester day
ĠJ oe
ĠIt s
ot ic
Ġt ail
Ġcomp rehens
Ġthem e
Ġintern al
ĠMed ical
U N
Ġs ister
e ah
I I
Ġp un
Ġmov ies
Ġconsum ers
Ġed ge
ce an
Ġdec ades
r m
Ġinst ance
Ġproper ly
Ġflow ers
ĠW il
Ġs oul
m es
Ġvisit ors
L ily
ĠF ort
Ġre ference
Ġel im
Ġj oy
Ġun iversity
ĠTechn ology
p ot
ĠT re
Acc ording
Ġk ing
Ġrecommend ed
Ġche ap
Ġmag ic
v an
ĠB i
Ġmain tenance
ĠCl ick
Ġland sc
Ġadult s
ive red
ob e
Ġaccount s
Ġtop ic
Ġfreed om
ck ing
Ġdet ect
ish ing
en a
ner gy
coh ol
w ater
iven ess
Ġset s
Ġcall ing
Ġsign s
L A
ad ian
ĠFr ank
ĠM useum
ĠH uman
Ġchar ges
Ġst re
A dd
Ġcris is
Ġserv ing
T om
ĠF ire
Ġv an
Ġgu ests
Ġfact or
Ġthe rapy
ĠMed ia
in ations
Ġm o
av ig
Ĥ ¬
Ġpr ison
Ġun its
ul ations
Ġfab ric
ĠOr gan
Ġse at
ĠK ore
Ġpre gn
ĠVal ley
Ġapprox imately
p al
ĠL os
ĠT est
ĠT ur
Ġst ret
Ġsm ile
Ġdes ire
Ġ5 00
ĠL ook
Ġam b
Ġrap id
l ist
Ġmiss ing
Ġre venue
ĠCol or
Ġd ie
ar io
y al
es ome
Ġ200 3
Ġste el
Ġca uses
} }
Ġtrad ing
Ġdec re
Ġarri ved
Ġcont em
Ġdoll ars
ĠB ack
Ġcal cul
ra g
P R
ult ural
Ġeduc ational
Ġm ir
Ġex ecutive
Ġfail ure
Ġt ough
Ġhous ing
ĠAt l
Ġintrodu ced
ĠTh anks
lud ing
Ġwe ak
Ġw ire
er ry
ol a
ĠE conom
ĠTe am
Ġdepend ing
ĠLou is
Ġf if
Ġconsum er
Ġemer gency
Ġl oud
ĠD ig
Ġdrug s
Ġbelie f
Ġconf idence
Ġw itness
Ġst ars
ri a
Ġincor por
c her
ĠO ffic
Ġg ather
z en
Ġro of
ĠSec ret
Ġcommit ment
Ġob lig
Ġfun ny
ĠL ong
Ġ Ã
ĠC ard
all ed
Ġtechn ologies
Ġthe ory
Ġfail ed
n oon
ro ad
Ġreal ize
Ġn ine
Ġprovid er
ific ations
Ġstand ing
b our
Ġmax imum
Ġstore s
as er
Ġsupport ed
7 8
Ġpan el
ĠM ot
Ġat h
Ġdang erous
I F
Ġparticip ants
b u
Ġprof ile
Ġdisc overed
ĠF il
ars h
Ġpl astic
Ġpro p
Ġdog s
Ġth ick
Ġfour th
Ġacc ommod
Ġappro ved
Ġcar ried
x i
Ġloc ations
Ph one
ĠM el
pr ise
Ġele ment
ot ed
b o
y an
Ġingred ients
el ines
oc ation
it a
Ġknow ing
O P
Ġdisc ount
L ook
e en
m et
Ġass ets
ĠF und
Ġd ur
oc olate
Ġsupp osed
ĠSh ow
u nder
ĠR ad
ĠN Y
Ġdat ab
ĠMin ister
Ġarr ange
b urg
ĠEx per
Ġher self
ĠP erson
ĠRuss ia
th at
ĠB ur
Ġsp ons
Ġannoun ce
ĠIn vest
Ġch at
ĠRep ort
Ġcomb ined
Ġdisc l
ĠW ord
Ġm ine
ĠR E
W ell
u ce
Ġclin ical
ir ation
Ġconcer ned
Ġclean ing
Ġunex pected
Ġremov ed
Ġposs ibly
Ġhy d
ide o
Ġfor ced
Post ed
Ġtele vision
Ġsw itch
Ġcircumst ances
Ġgood s
ĠThom as
Ġapp arent
Ġoffic er
ĠO ld
Ġa id
ic ian
Ġauthor ity
t ra
ed ia
ig ration
Ġn om
D F
Ġvol ume
Ġb urn
ĠM a
Ġpers pective
Ġveh icles
C E
Ġjud ge
Ġno ise
ĠHist ory
S P
Ġch ief
og ue
Ġc op
Ġdetail ed
ind ing
ĠBe ach
L ast
pre ne
Ġun s
ĠSt and
ĠI ll
Ġt ast
Ġbring ing
ot i
Ġwe alth
ĠTh ank
Ġdistrib ution
k ins
R es
Ġ Ð
ĠN ov
y ou
6 6
Ġed itor
Ġhe ro
Ġadvert ising
ok es
ĠC ath
Ġun ivers
ab et
il it
um s
Ġsqu are
Ġprep are
Ġsur gery
. âĢĻ
re prene
ĠRuss ian
oss ible
e per
Ġpo ly
ĠL and
Ġdes k
Ġf old
room s
en cing
nd ing
re f
Ġgreat est
ĠF ederal
urb an
ucle ar
Ġiss ued
Ġdel ivered
Ġtot ally
Ġpay ing
Ġcompon ents
ĠPro duct
Ġl it
ĠEn ter
Ġlaun ched
Ġany where
Ġfollow s
Ġfun ctions
Ġexpl ained
Ġaffect ed
Ġso le
Ġco ord
ĠO R
Ġb low
Ġsh ock
ĠA L
Ġboo st
ar p
A meric
resp ond
Ġt un
^ {
ĠAnge les
Ġmatt ers
c les
0 8
Ġr ing
Ġfil ms
Ġform at
Ġappear ance
Ġl unch
Ġident ified
y e
Ġbeg ins
Ġhundred s
ak s
Ġsignificant ly
Ġlibr ary
Ġser ver
os oph
er g
U T
Ġsu it
Ġag ent
Ġinst itutions
t r
ĠW all
Ġspe ech
Ġv ary
Ġsupport ing
ĠC y
ĠLe ad
ens ions
an ish
Ġadv oc
Ġimpro ved
ĠJ ose
Ġcomm and
ĠM ont
Ġemot ional
Ġcre ation
em s
Ġident ity
Ġredu ced
Ġo dd
ib ilities
Ġwor se
Ġres ol
ĠS ar
Ġup gr
Ġadv is
Ġem phas
ĠCor por
Ġcr ime
or ation
ĠI D
Ġconcer n
Ġt error
Ġupd ated
ĠY OU
Ġb ike
Ġtest s
Ġg rew
K e
Ġg all
Ġeffect ively
F r
Ġch oices
ĠL ibr
Ġconsid ering
mer ce
T r
ĠT ake
Ġcrim inal
Ġbro wn
Ġli ber
ĠO per
az z
Ġsh ares
ĠSer ies
Ġmil k
ĠS k
ck now
Ġfix ed
ĠI d
ĠGl obal
Ġapp s
Ġ rom
ĠS and
Ġve ter
ĠD en
ĠRe v
Ġkind s
Ġe c
Ġprovid ers
ĠJ ul
Ġse vere
Ġord ers
Ġscient ific
4 2
Ġrec overy
Ġli qu
ĠNet work
Ġsh ipping
Ġcompet itive
Ġk ill
ĠL o
e f
Ġtell ing
het ic
ĠC all
Ġinvest ors
ĠAr ts
Ġexam ples
Ġtrou ble
i est
Ġris ks
w o
ĠG en
Ġbatter y
Ġsh ap
h i
Ġh ole
c al
x y
ĠB oth
ĠAb out
Ġt all
ĠL ight
Ġt aught
Ġval uable
Ġh at
Ġag encies
O h
Ġco ast
are n
ĠAd minist
Ġclot hes
h and
Ġs ides
Ġrest rict
Ġst one
Ġcare fully
Ġd ial
ne ver
0 3
ĠPro te
m l
ĠL ast
Ġafter noon
c an
? ?
re al
Ġlic ense
Ġnot iced
Ġadminist r
c a
Ġcomprehens ive
ll a
Ġemploy ment
ĠH ave
Ġspe aking
ĠM aster
Ġinvol ve
Ġsecond s
Ġindust rial
F L
Ġh ur
Ġtre ated
Ġcomm ission
Ġhigh light
0 4
Ġhistor ical
D r
Ġinf rastructure
Ġregist ered
An other
Ġfav our
0 7
Ġsubst ant
ĠMex ico
Ġbuild ings
Ġrem ark
ost on
ĠInst ead
Ġrem ote
le ts
Ġcateg ory
Ġne ck
ir med
Ġprotect ed
Ġvac c
Ġmag n
ĠAs ia
Ġrecord ed
ĠCO VID
Ġis land
Ġdra ft
S S
Ġrep ut
ĠMicro soft
Ġm ut
0 9
Ġfl ight
Ġt ro
ĠM ike
Ġsal t
Ġte en
il ly
Ġequ al
Ġinvestig ation
erv es
com m
ĠC as
ĠIs l
Ġch ain
A G
Ġte a
Ġdef ined
Ġsymb ol
Ġregul ations
ĠT own
ic it
Ġconst ruct
Ġepis ode
0 6
F irst
Ġfor t
el ly
Ġgr ass
T e
est yle
Ġspirit ual
Ġw al
ar ian
Ġaccept ed
ĠT ri
tt ers
Ġinsp ired
Ġlab el
ĠV ict
t a
Ġpract ical
ĠMay be
Ġexpert ise
Ġrel atively
Ġwork sh
ĠOn ly
I nd
ow nt
p o
Ġparticip ate
ĠC at
Ġmen u
ĠCh ief
Ġre new
ĠK now
Ġ19 5
h ors
ĠC ir
ĠS to
Ġhold s
al ian
ĠInd ust
ĠJohn son
Ġwe aring
Ġreal ized
ĠPro v
Ġoffic ers
u ated
Ab out
Ġr ough
Ġper man
Ġfeed back
Ġl ux
ar row
Ġjust ice
Ġneighbor hood
Ġ200 2
S u
p ret
Ġhappen ing
Ġfield s
Ġreli able
at re
Ġt rib
amb ling
Ġoccas ion
Ġcrit ic
Ġw et
Ġpol l
or ough
I m
ing ly
Ġel ig
ĠI P
M ost
O D
Ġentire ly
Ġtop ics
ĠâĢ ¢
Ġin n
C he
Ġful f
ĠCon ference
ĠA my
ĠW here
M P
ĠB o
Ġri ver
Ġa cknow
ĠA T
Ġy ellow
AT ION
ĠG al
ĠJapan ese
ig ure
u a
ĠC up
Ġp ure
Ġfant astic
Ġfood s
ĠE nergy
Ġpull ed
S ee
e v
Ġfor th
ĠE U
Ġdesign s
Ġreg ister
19 9
i as
Ġm el
8 5
Ġwat ched
Ġs an
Ġmass ive
Ġfl o
Ġrem aining
Ġch art
Ġsc r
Ġn urs
Ġb en
ĠW ay
O C
Ġworld wide
4 1
he nt
oos ing
Ġconduct ed
Ġbre ast
E n
re te
ord ers
E E
Ġ200 1
Ġ3 2
ac hel
0 2
Ġinnov ative
Ġun f
ĠP enn
Ġimag ine
ploy ment
m osp
Ġrece iving
ĠAut hor
Ġreve aled
4 3
Ġs ick
Ġbas ket
com es
igh ter
Ġsl ot
Ġmot ion
Ġtw ice
Ġfight ing
ic ial
Ġen force
Ġhouse hold
A m
Ġs am
Ġcomp ens
Ġg rown
Ġphot ograph
Ġmed icine
et her
Ġch osen
Ġend s
Ġpay ments
Ġres ource
Ġhealth care
Ġra nd
A re
Ġbrand s
Ġplan ned
Q u
Ġelect ronic
Ġme re
w est
Ġab use
Ġresearc hers
ir ms
ĠL ab
-- --
Ġhor se
Ġrecogn ized
i en
ĠHe ad
lud ed
S ince
Ġmod e
og a
Ġt iny
h us
er ation
ĠD ou
g as
Ġproced ure
l ock
Ġaff ili
Ġregular ly
ĠAd v
Ġbird s
O r
Ġme at
Ġatt orney
ra q
ĠP an
Ġgl ad
Ġar ms
ĠMart in
Ġchar ged
Ġpos itions
ĠCh ris
Ġvill age
ĠL ist
Ġtick ets
Ġm al
ð Ł
Ġme al
Ġvirt ual
ĠMc C
Ġincred ible
} \
Ġ iron
Ġboy s
ĠSt art
p ass
s m
ĠVirgin ia
Ġb read
} $
Ġ error
Ġt ired
Ġen em
at o
ĠN OT
ĠCarol ina
Ġreason able
ĠM en
Ġinst itution
ĠO N
Ġmanufact uring
Ġmiss ed
ut s
Ġw arrant
Ġret ire
Ġex cess
ĠCan adian
i ors
re ens
Ġaccur ate
Ġengine ering
ang es
ĠG ame
Ġ3 6
ĠA rab
el ess
Ġinc l
Ġansw ers
w rit
ĠH en
E W
U s
Ġro t
Ġeng age
M any
Ġdis s
Ġmonth ly
Ġbelie ved
ĠL im
J ohn
Ġpark ing
Ġmom ents
Ġrand om
Ġfrequ ently
Ġproced ures
ĠSu pport
Ġto m
Ġv ital
ĠSec ond
Ġsh oes
htt p
ĠWe ek
Ġtalk ed
Ġsim pl
Ġaud io
Ġh un
M A
er ies
Ġdom estic
Ġal cohol
r ate
ĠJe ff
ĠTh ose
Ġn one
Ġen able
Ġconf irm
Ġ <
b ur
Ġupd ates
app y
Ġc ro
Ġcandid ates
ĠIr an
Ġli kes
ĠB as
Ġp ump
p erson
Ġauthor ities
ĠH aw
ang ed
ĠM ur
Ġext ensive
ani el
Ġgu ard
Ġautom atically
Ġhon or
ĠLe e
Ġcent re
M an
Ġadv enture
ĠAcadem y
Ġt ables
Ġcont ro
Ġreci pe
Ġdest roy
Ġaw esome
Ġport ion
ĠM o
ĠR ights
Ġj ack
Ġobv ious
Ġill ustr
Ġappe al
Ġprote in
ren cy
Ġsu itable
Ġs in
Ġcor respond
Ġreg ional
Ġy esterday
in et
Ġbon us
ĠCent re
Ġcar bon
ĠP ac
ter y
semb ly
ans ion
ĠPol icy
T A
ĠAnd roid
ric s
Ġafford able
ut ing
a id
ĠA ud
ĠB ible
Ġre form
or a
ĠDe v
ĠChild ren
Ġent ered
O ver
Ġattack s
Ġ ille
pa per
Ġhous es
ĠM iddle
ol ly
Ġv en
ĠC A
Ġexpress ion
Ġguarant ee
Ġaware ness
and emic
ĠT em
Ġpl ate
Ġassess ment
S E
Ġun like
n ic
os ite
Ġn avig
r ick
he red
Ġtax es
Ġcon clus
l ines
Ġstate ments
ost er
Ġcoun sel
ĠV iew
ĠPar is
al se
Ġconst antly
Ġlo ans
! )
Ġcount y
B D
ĠF ind
b al
Ġcommit tee
Ġpurch ased
ĠB ow
G B
um my
Ġsitu ations
Ġcamp us
cu it
ul ous
â Ħ
Ġown ed
ge nd
ĠT erm
Ġeffic iency
m ond
____ ____
U p
ab led
ĠI raq
h ost
Ġs ample
l aw
âĢĻ .
An y
ag on
ĠJ ones
ĠThere fore
ĠS ite
Ġbl ess
Ġc ooper
f low
Ġpl ug
w ing
P re
ĠB oston
b an
Ġprof it
ĠE nd
S C
Ġchalleng ing
ĠPol ice
Ġmess ages
Ġche ese
ang er
p at
Ġwind ows
Ġ3 00
P e
Ġcol our
Ġco vers
S pe
Ġcy cle
Ġinstall ation
om y
ĠL ink
Ġg ro
ens ity
ĠW ild
Ġcont rast
Ġbirth day
Ġcut ting
rom e
Ġmeet ings
ĠLibr ary
Ġinstall ed
el f
Ġearn ed
Ġass ign
Ġfact s
8 6
Ġslow ly
Ġv ul
Ġus ual
Ġmor al
Ġdi verse
v a
Ġmill ions
Ġconflic t
ĠH ospital
Ġan cient
Ġchann el
Ġt asks
O f
Ġp il
ĠSte p
ing u
Ġdiffe rences
Ġlight s
Ġdo ors
Ġpub lish
as tern
Ġsc ript
Ġtre nd
Ġneg oti
ĠBe fore
M ar
Ġte eth
Ġp ed
Ġgu est
Ġentertain ment
Ġi Phone
Ġat mosp
ĠChar l
Ã Ń
Ġdisapp oint
Ġpolit ics
Ġpriv acy
Ġappreci ate
Ġvict ory
Ġfell ow
ĠYou ng
Ġout door
Ġdiscuss ed
ĠGe org
S c
Ġlove ly
c ers
Ġincre ases
Ġad m
Ġkeep s
Ġl osing
Ġam end
el ine
is k
ĠG ra
Ġcru cial
Ġextend ed
Ġin put
Ġdelic ious
ĠC H
Ġsuggest ed
Ġo kay
um in
Ġmach ines
Ġcre w
ĠMan ager
ĠJew ish
Ġgr ade
Ġsett ings
Ġwith d
Ġperfect ly
Ġimp ossible
ĠC ode
Ġregist ration
Ġfac ing
ĠV er
Ġsch olars
Ġst uck
Ġvis iting
ot es
ĠTr ust
Ġde als
Ġtal ent
Ġlic ens
Ġaut hors
Ġdro pped
âĦ ¢
7 2
Ġb anks
ĠE qu
Ġon going
ic ing
itt y
Ġdeg rees
ĠAn na
d ate
ĠW al
Ġwall s
Ġcandid ate
ĠDe f
Ġdr am
ĠAustral ian
pr int
ĠI re
ĠWhe ther
Ġsurround ing
Ġstud io
Ġserv es
Ġtrans ition
Ġdist inct
Ġch apter
ok ing
E d
Ġk ne
ual ity
Ġres olution
d a
Ġform ed
Ġsp oke
Ġph ase
Ġwin ner
Ġrou te
ĠAn other
Ġexpect ations
Ġsol ar
ĠS qu
Ġsupport s
Ġse es
Ã ¡
Ġac id
ĠKe ep
Ġdel ay
Ġprem ium
Ġstand s
ĠG ar
ĠE xt
Ġpur su
Ġreport ing
Ġcook ing
Ġdatab ase
Ġlo ves
Ġdec ade
ĠK h
Ġpattern s
Ġwhe el
Ġfeat ured
ĠRich ard
Ġfurn iture
Ġtyp ical
Ġpro ve
Ġlo ad
Ġt urning
Ġun able
ĠB oy
Ġposs ibility
Ġfle w
Ġp in
Ġinde ed
Ġpartners hip
Ġre ward
xi ety
Ġwor st
ĠD u
Ġobtain ed
Ġa st
Ġplan et
bs ite
ĠSp irit
Ġrecogn ize
we ight
Ġang ry
g reg
y ers
Ġdri vers
Ġmus ical
Ġb odies
Ġshoot ing
ly mp
Ġinnov ation
ĠInt e
Ġdis h
he m
Ġsu c
ĠC ost
ĠS up
gy pt
Ġfil ed
Ġfeel ings
Ġconsist ent
Ġprom pt
t d
ĠTh rough
Ġc orn
u gh
m ar
ĠA ri
ĠSen ate
Ġreturn s
Ġex ternal
T oday
Ġrel ief
Ġch icken
Ġath let
ent le
Ġbro ke
Ġrestaur ants
ĠM att
Ġbow l
Ġh ung
Ġv ast
Ġsp in
ĠCol umb
ri ble
el lect
Ġpresent ation
ĠF estival
ĠPh ot
Ġrout ine
iver se
Ġw id
Ġag ents
S p
Ġnet works
Ġmount ain
Ġtr ig
Ġpers ons
ĠP R
Ġch ocolate
ĠE r
Ġyoung er
b ar
Ġn ative
Ġprom ise
. '
Ġent reprene
7 6
ĠF OR
Ġsub mit
Ġmix ed
Ġfol ks
O ther
ans as
Ġsk ill
Ġimpress ive
Al though
gr ad
Ġu pper
ĠP ub
il a
Ġfound ation
Ġsm ell
ĠSpr ing
Ġst im
ĠSo ft
ĠJ on
Ġg ender
Ġrefer red
Ġv it
ĠPl us
Ġfig ures
Ġcap able
Ġp od
Ġinj uries
ĠCont rol
Ġdeb ate
r um
og ether
v y
Ġlegisl ation
M r
ĠT our
ĠA D
in er
Ġdel ight
ĠR ight
ĠR est
Ġs essions
Ġlisten ing
Ġimprove ment
Ġout put
ĠĠĠĠ ĠĠĠĠ
Ġinstru ctions
ĠS on
ĠF ull
ĠF urther
Ġcollect ed
ag ues
Ġinv ent
b i
Ġn uclear
or al
ĠA ccess
Ġsp r
Ġy ard
Ġm useum
Ġem pt
ĠWilliam s
Ġult imately
ĠG all
Ġplatform s
Ġsuccess fully
U L
n am
ĠS ports
l ong
ĠMus lim
Ġorgan ic
I nt
abet es
c ar
Ġlay er
Ġl ady
ĠS et
ĠJust ice
ist ers
Ġmag azine
ĠOh io
ac he
ĠF air
Ġsched uled
Ġent hus
Ġsustain able
ĠDig ital
ĠS ign
Ġbreak fast
Ġ7 5
pro fit
Ġext ent
Ġgrad uate
Ġup coming
ĠEx ecutive
atur ally
ĠB ell
red it
ĠMich igan
ER S
Ġill ness
ĠE p
A A
T C
Ġm and
Ġdes cription
ot al
G o
Ġsuc ceed
r id
ĠIt alian
Ġar ts
Ġt ack
ĠL ive
Ġorig inally
pe l
st ood
Ġnear by
Ġdep th
ĠC reat
Ġt iss
Ġsus p
Ġinf o
Ġoper ate
u ction
Ġclose ly
Ġconf irmed
Ġ4 8
Ġinc ident
Ġh ate
Ġsur f
Ġp andemic
Ġle ague
al a
ĠFranc isco
Ġsu fficient
ĠSt at
Ġpain ting
Ġprinci ples
Ġorgan ized
ĠW in
Ġjump ed
Ġcra zy
Ġcook ies
Ġpro of
ĠCh air
Ġblock s
Ġinform ed
W here
Ġfac ilit
Ġ icon
Ġro w
Ġaccess ible
hold ers
ot y
h ire
ĠR om
ack s
ĠK en
Ġs ight
Ġed ition
Ġtick et
ou p
Ġhe ight
Ġn arr
ograph ic
ĠPri v
Ġcon ver
Ġinc hes
ĠSp anish
ind er
Ġfore ver
Ġsh ift
Ġstrugg le
Ġgu itar
ĠJack son
ĠU k
ĠB rand
it age
Ġbott le
5 9
Ġsy n
Ġtom orrow
ĠEn vironment
ĠHot el
Ġexp enses
Ġguid ance
Ġra il
ra id
Ġevery where
ĠL og
P C
ĠW alk
Ġre in
in em
ĠS af
l ights
res ents
al le
c ons
og en
s he
Ġexp osure
Ġh ook
ĠCath olic
Ġpre par
Ġcollabor ation
ĠH im
Ġatt rib
Ġsub sequ
Ġdeal ing
Ġ urban
Ġintellig ence
is ms
ĠG irl
Ġestim ated
ES T
5 6
ad ow
Ġstr ange
ĠVict or
st one
ĠA R
ĠIre land
: ||
ul ing
Ð ¾
ld er
ail ability
ĠD an
ĠL ittle
Ġint ent
ĠSu pp
Ġstrateg ic
Ġdi am
Ġbreat h
ĠI ss
ck ed
Ġph arm
ĠA ff
A Y
as hed
ĠGu ide
Ġalle ged
Ġimpro ving
ĠH and
Ġleg s
Ġresult ing
Ġle tters
ĠD om
Ġp apers
ampions hip
7 9
ĠH D
Ġsp aces
i h
Ġcontrib ute
ĠAr my
Ġdis cipl
ul s
ĠF ollow
ĠNe xt
ol ar
B I
ĠO lymp
ear ing
Ġser iously
Â °
Wh o
Ġlif estyle
Ġsuggest s
Ġphil osoph
Ġdescrib e
Ġ id
ce ler
st ream
ĠC ross
Ġliqu id
ĠP ak
pp y
ed ing
ĠM ic
le te
Ġp ill
ĠA C
Ġvul ner
fol io
z il
or b
Ġincreasing ly
f ra
ĠDo es
Al so
Ġsuff ering
ĠP age
Ġfair ly
Ġexclus ive
Ġbelie ves
Ġant icip
Ġexpress ed
Ġex ecut
E ven
Ġcelebr ate
Ġag es
es ides
a wn
a per
( \
ĠM id
Ð µ
ul f
cl ass
y ard
Ġcont est
D uring
Ġhum ans
r as
aw ay
8 9
Ġd ates
ra cy
Ġev ol
Ġth in
Ġargu ment
ĠR oman
ĠRepublic an
Ġh all
D S
Ġaut hent
se ll
Ġconst ant
Ġobject s
ĠT ru
Ġr ub
Ġperson ally
el come
Ġele v
end ar
Ġw arn
ĠIt aly
ut or
ian a
Ġimmedi ate
ĠChar les
et ime
Ġtra ined
Ġl ad
Ġconven ient
Ġinter pret
Ġlandsc ape
Ġforg ot
Ġprim arily
a is
Ġfl ood
an ing
ĠCont in
ĠC ook
Ġent it
Ġstret ch
] .
ĠE gypt
ony m
ourn ament
ĠT it
Ġwide ly
ĠSte ve
Ġrelig ion
Ġcr us
Cl ick
Ġconf ident
ĠFin ancial
ic an
ur se
Ġmonitor ing
Ġnecess arily
Ġtre nds
Ġst orm
Ġp hen
Ġrep resents
ĠRoy al
ain ts
ĠApp lic
ol it
f rom
ast ers
Ġdepos it
r ition
Ġwrit ers
ĠV an
Ġpercent age
Ġinvol ves
P M
ĠB al
Ġappoint ment
Ġact s
ĠSe ction
C O
Ġro les
ĠSecret ary
Ġlink ed
enn y
Ġso il
Ġhe ll
Ġpass ing
Ġf alse
Ġimplement ation
ĠAss ist
Ġb order
ĠS outhern
Ġdom ain
ĠProfess or
ĠO pt
ĠN ight
T ube
ra ge
V D
Ġmain ly
r ich
Ġh idden
ar l
p ay
w hel
Ġent r
Ġm ouse
Ġevery day
Ġsil ver
le vel
B u
Ġst ood
Ġresist ance
Ġso ci
ĠF ed
ĠD C
Ġsa ved
Ġ )
u ine
Ġadd s
Ġinst ruct
ĠP ack
opy right
Ġeng agement
Ġtest ed
cl ing
i able
Ġless on
Ġbas ically
Ġt ag
ĠTh us
ĠW atch
ut ch
ĠS P
Ġth orough
Ġord ered
last name
um es
Ġappro val
. |
le ments
Ġp ink
H S
H is
ĠD ie
Ġd uty
âĢĻ ,
C ol
Ġg olf
Ġag ric
Ġtw e
ĠCo ast
Ġcontem porary
Ġinstru ment
ĠCont act
Ġd ownt
Ġmanag ing
Ġcomp r
ly n
Ġstre ets
Ġsh iny
Ġex ceed
be red
Ġtr ick
% .
Ġfac ulty
li ament
Ġch oosing
Ġdirect ed
Ġmus cle
Ġfac es
Ġind ex
Ġw est
Ġcl ar
be gin
Ġinter ior
Ġapplic able
Ġtechn ique
ĠFor m
ĠLe g
ĠH or
ay lor
ber ry
Ġguid elines
ph a
ific ate
ab el
u ment
Ġfound ed
ĠM P
ĠPh ys
ĠAcc ount
Ġreput ation
Ġgener ate
Ġact ing
Ġaf raid
ĠC ert
Ġcreat es
Ġcommun ications
Ġsign al
Ġb are
ĠMed icine
Ġro se
Ġprec ise
Ġf asc
Ġl ucky
Ġha bit
am ental
!! !
omm y
t hen
Ġachie ved
o ch
Ġrec ording
ian o
Ġexpl ains
ell o
B ook
Ġan xiety
Ġpros pect
if ies
iss ions
ĠSc ot
Ġapart ment
Ġout standing
ĠSup reme
ste in
ĠP ass
ĠG ames
ath y
Ġamount s
Ġh ang
Ġeng aged
Ġelig ible
ĠInst agram
Ġex ec
or able
ĠJ un
ĠStud ies
Ġter rit
ĠPl ace
Ġconf ig
ĠH on
Ġinv ited
R S
ĠM S
Ġintegr ated
ĠA S
Ġbath room
ĠC ast
Ġ199 9
c ue
Ġl ie
Ġe ase
lud e
Ġless ons
Ġhe av
b el
ĠMarket ing
Ġnorm ally
ĠS ometimes
A B
Ġte ch
ĠAnd rew
Ġpus hed
Ġobv iously
Ġtal ks
Ġ err
ĠJer sey
Ġsupp lies
Ġbe er
Ġ3 3
ĠGeorg ia
Ġlaw yer
RE E
Ġtransport ation
Ġdefin ition
Ġmov es
Ġattend ed
Ġflow er
ĠDiv ision
ĠÂ »
on ed
Ġp p
Ġw ise
Ġbrows er
Ġsol ve
Ġp ra
Ġphot ograp
Ġstay ed
et ry
Ġ199 0
ĠPr ice
am ber
Ġsudd enly
Ġacc ord
ĠH ard
Ġsa uce
ĠUs ing
Ġy ards
p ack
ple te
w orth
Ġfind s
Ġdraw ing
Ġrem em
Ġch ose
pp ers
qu ality
Ġfin ance
Ġaut o
ixt ure
Ġco ck
ĠM ult
H i
Ġg ambling
Ġp ipe
ĠP oint
ĠHol ly
in ent
ĠPre m
Ġfeat uring
Ġqual ified
ĠK n
L Y
Ġre action
ne ys
ĠU t
ur l
V iew
6 4
Ġcontrib utions
Ġatmosp here
ĠH oly
Ġsl ide
Ġmort gage
ann a
Ġw ave
Ġas ide
ĠColor ado
Ġve nd
te en
is a
ob s
ĠN on
Ġexper iment
Ġclaim ed
Ġsc ored
Ġdepend s
Ġperform ing
ĠY et
Ġprofess or
Ġple ased
Ġshe l
ult s
Ġcons cious
P er
V E
Ġst ake
Ġweap ons
ĠC re
Ġhop ing
t le
im ents
Ġbr idge
Ġ3 8
ĠAg ain
Ġs izes
Ġi P
gh an
ĠC a
z er
Ġpar am
Ġrem ained
Ġkn ock
ĠF arm
o ir
Ġpot entially
un ny
Ġn ob
ark s
Ġh ire
Ġdra g
ĠM ov
ĠW rit
Ġvictim s
Ġlarge ly
3 00
er ate
c ase
Ġb orrow
Ġredu ction
Ġsome what
on na
Ġsome where
ri p
Ġread er
en ger
co in
olog ist
Ġth read
ĠF our
Ġt ank
ĠHel p
ot he
z ing
we et
ĠIn f
d es
qu ir
Ġsus pect
Ġconsider ation
Ġshe et
Ġille gal
Ġlim its
Ġg aming
ĠL td
ĠE ll
Ġrepe ated
Ġperman ent
y stem
Ġy ield
fr ont
Ġmembers hip
ĠK im
ast s
ĠO il
ĠT ax
Ġpur s
Ġdo ctors
ĠS her
Ġt ap
Ġsw ing
Ġcons erv
P r
ĠPac ific
Ġch ances
Ġsub mitted
Ġcompon ent
Ġl uck
int on
F C
in te
um ps
Ġf irms
Ġd ivid
to col
enn is
Ð °
ĠCon f
Ġsav ings
Ġunder stood
ig er
og y
Ġvis ited
R I
Ġform al
t ers
ĠF ather
Ġhas n
Ġredu cing
Ġhard ware
ĠZ eal
Ġobs erved
Ġexist ence
Ġro ot
rent ly
ĠP ot
âĢ¦ .
ree ment
Ġh ide
Ġ era
m aking
Ġmur der
Ġinter face
Ġhead s
Ġpro ven
Ġhistor ic
Ġoccur red
ellect ual
ure au
l ive
ust er
Ġdise ases
Ġover whel
Ġca using
Th anks
st ra
Ġp ond
Ġflex ible
ĠV ideo
Ġrecommend ations
Ġj ur
ci a
Ġempt y
Ġtrad ition
T ER
inc luding
Ġweek ly
id ays
Ġdream s
Ġb at
Ġrev olution
Ġre ject
Ġpo ker
g or
art ers
Ġcoun cil
Ġthink s
Ġair port
ĠP ract
Ġsurpr ising
Ġsu f
Ġn arrow
Ġcapt ure
Ġinter act
ĠAdminist ration
Ġh its
ĠKe y
ĠC ra
Ġg entle
ĠWe bsite
Ġbed room
Ġz one
Ġscient ists
se ction
Ġtw enty
ĠS anta
Ġf ro
Ġext ract
Ġtrans p
m arket
Ġprogram me
r an
Ġf lying
Ġsearch ing
Ġse ed
ĠC e
Ġfish ing
Ġany way
Ġdest ination
ĠB udd
Ġcry pt
ĠL in
Ġcateg ories
Americ an
Ġcur ious
ĠDown load
as ant
ion e
al ysis
Ġreg ions
ĠJose ph
Ġdrink ing
ĠM ach
ĠĠ Ġ
Ġne ither
m ade
Ġindust ries
Ġretire ment
Ġple asure
p ir
ĠR ose
Ġpl ot
E P
Ġenforce ment
ĠB on
b et
ĠEngine ering
Ġc able
Ġrecogn ition
st ers
Ġfind ings
Ġcontinu ing
Ġg ifts
ur a
5 8
Ġco al
Ġatt ached
ĠAs ian
Ġaccompl ish
ĠF riend
c ific
Ġcompl iance
ĠZeal and
Ġsupp lement
Ġliter ature
Ġreplace ment
le ep
Ġprot est
ĠF red
ĠD og
Ġag gress
rie ved
ĠE s
Ġd ining
Ġev il
Ġclot hing
P ub
u ct
Ġhost ing
Ġg od
ink ing
B ec
ĠDis ney
Ġal ive
ĠYou Tube
) (
be ing
at i
Ġa wards
Ġbl ank
Ġvac ation
Ġopp osite
Ġe ast
ru ption
Ġbeh alf
ĠCorpor ation
ĠF ar
Ġwithd raw
Ġben ch
ĠH a
Ġun us
ĠSystem s
Ġbroad cast
ĠB ox
ph y
Ġbr ill
Ġconsequ ences
Ġ1 50
Ġrec on
ĠMe et
Ġposs ess
ĠB ush
6 9
ad el
Ġg iant
Ġh ill
ES S
Re g
oun ter
Ġplan e
Ġsend ing
ĠP sych
Ġpro sec
Ġout comes
V ER
et ary
ad ium
Ġoff ices
ou red
Ġrent al
ĠStud ents
Ġpublic ation
Ġshould n
il st
z ona
Ġaward ed
Ġrepl aced
ĠKing dom
Ġper mission
ĠS n
Ġg ay
Ġgrant ed
ĠCl in
Â ·
Ġph r
ound ed
Ġgen uine
Ġinsp iration
Ġhop es
Ġpropos al
it als
Ġattract ive
uff y
Ġt ur
F ree
Ġj ew
S ub
5 2
M L
Ġt ab
f oot
ĠEx pl
Ġwhe never
ĠL ow
ivers ary
ra ine
Ġfirst name
Ġvers ions
Ġwere n
friend ly
r ated
Ġincred ibly
ann ed
the w
Ġregard less
ĠH arr
Ġlight ing
Ġfil ter
Ġ3 4
Ġf estival
Ġstrong er
Ġcons ent
ĠCol l
less ly
es sel
Ġc os
vent ional
Ġorig in
Ġstruct ures
E A
Ġg ear
Ġout come
ĠP o
Ġ3 7
ou ch
ov ed
ins on
Ġd ust
ate ful
Ġport folio
ĠL iber
ĠBra zil
........ ........
ĠJ ac
Ġpro hib
Ġexp ansion
Ġad s
on to
nd a
ict ed
Ġfl our
Be fore
ĠO k
Ġj e
ac le
Ġat e
ĠP en
Ġtreat ments
Ġconsum ption
Ġsh ots
Ġcl ock
Ġcont rolled
b a
C D
Ġp itch
Ġdiv ision
amp ion
ig en
Ġin ner
Ġv irus
Ġ199 8
Ġcommon ly
ĠD aniel
Ġfra ud
Ġp ounds
ir al
ac c
6 8
P art
ĠAs h
Ġo ven
Ġl ies
Ġfavour ite
ĠMr s
Ġend ing
Ġcompens ation
Ġmem ories
l ers
it is
Ġhapp ily
Ġcap abilities
Ġspl it
ĠN ote
Ġequ ival
ur ation
c ular
Ġlux ury
Ġtrack s
Ġframe work
ĠSp ace
ri ers
Ġdevelop ers
ut er
ĠHe art
ress ed
Ġfit ness
st ar
pl ate
ĠSe a
st ery
Ne xt
Ġr ig
Ġp it
Ġsche me
Ġfund amental
Ġcompar ison
Ġas ks
Ġprior ity
ĠEvery one
Ġexcept ion
Ġw ra
Ġ4 00
Ġalong side
Ġunder t
Ġarchitect ure
miss ions
S ec
ath an
ll ed
H ome
_ {\
Ġinvol ving
Ġegg s
Ġsp ark
Ġcommun icate
G u
Ġwor ried
ĠS U
ie ce
Ã ¢
Ġhard er
p age
Ġre ar
Ġsh arp
co ver
ig ation
ar ry
v i
ĠBl og
ĠN ever
Ġdyn amic
u ing
Ġsubs crib
Ġ3 9
AT E
ĠL abor
O K
ic ide
im ize
R ep
Ġr ating
Ġr ising
Ġmo ist
Ġsty les
Ġun w
ĠC ond
ĠAre a
Ġass ume
ĠJ ane
Ġp ace
Ġwas h
Ġres idential
5 7
ĠFor ce
oc racy
S m
ĠQu est
Ġpres ents
ino is
Ġf o
ĠTh ree
ĠD aily
ĠC ivil
ĠPerson al
Ġstri ke
Ġr u
\\\\\\\\ \\\\\\\\
ĠS us
Ġconne ctions
it i
ĠF re
Ġbr anch
Ġput s
Ġp ig
Ġfall ing
bl og
Ġfl ash
Ġt ip
Ġcont ained
H ave
Ġb act
Ġn aturally
ĠOr der
Ġliter ally
Ġman ual
ĠS ky
ik i
Ġcarry ing
Ġpoint ed
ĠTra vel
Ġdri ven
an es
iz z
T V
Ġdeb ut
ĠV ill
Ġintrodu ction
Ġst rict
br idge
ik es
5 3
Ġb oss
erm an
Ġb ab
in ity
Ġs oph
ers hip
ce ived
Ġsens itive
ĠWor ks
av ed
Ġun com
Ġprodu cing
un a
ĠD ub
av a
ĠM ill
ĠHen ry
Ġz ero
ann y
Ġc oc
Ġdesign er
ic ity
d is
ĠS H
H er
ĠSt an
ĠPer form
ot ton
Ġdes ired
Ġin fection
let ter
ur ities
ur d
Ġrec over
ĠN orthern
ain e
Ġcopy right
Ġemploy er
s we
ĠR ay
il ty
Ġd ump
Ġesc ape
Ġneigh b
ĠU lt
ia h
. ;
Ġmin i
ĠJ r
ĠTh ough
ĠE nt
ĠDis c
M ed
Ġinvest ments
um a
Ġst ead
t ics
Ġc ute
Ġult imate
Ġsa ving
Ġk m
Ġunc ertain
Ġconcer ning
Ġmark ed
Ġdep ression
in ch
Ġentit led
Ġjo ining
Ġhe aling
Ġl atter
Ġadv ent
Ġfac ed
Ġexpl an
ĠD ate
Ġbra ve
ĠD id
Ġens uring
Ġrequire ment
ten se
ĠF ox
ge l
u ous
Ġis ol
5 4
Ġdra wn
6 7
Ġb one
he mat
Ġthan ked
ĠIns urance
ĠR am
b ow
Ġins ight
Ġevery body
Ġsubject s
ĠR yan
P ress
Ġun known
Ġf ing
G ood
ĠE ss
Ġbl ind
Ġgener ated
Ġm ob
Ġcons ists
Ġparticip ation
ab eth
Ġrel ative
ut ies
iz er
Ġav ailability
ĠH ope
Ġelect ed
Ġjud gment
J o
Ġre act
Ġun ion
um m
ĠKore a
Ġperson ality
ĠR on
C S
Ġcontrol s
ĠT er
ĠP op
ĠBrit ain
Ġmanag ers
ĠCon nect
Ġm ole
Ġnew ly
Ġch arm
Ġapparent ly
Ġconc rete
Ġprefer red
Ġopp on
Ġadop ted
b orn
Ġme als
van ia
ĠW H
Ġst able
am ps
Ġhe aven
ĠK ent
ha ust
ĠAdd itionally
int s
ĠS earch
ĠTra ining
Ġappro aches
Ġcrit eria
ĠSh ould
F ollow
Ġju ice
ĠS uch
Ġdis pos
b ury
A ut
Ġbet ting
Ġassoci ation
iam i
ĠAg ency
ap ore
Ġtrans action
Ġprepar ation
Ġbre aking
us al
Ġal t
Ġscen es
ĠSar ah
ĠL LC
Ġpub l
Ġgovern ments
Ġleg it
Ġrequest s
az e
t es
is er
Ġexp osed
Ġdef ault
ĠA wards
Ġmanufacture r
8 00
Ġencoura ged
âĢ¦ ]
us ive
Ġdi abetes
Ġpow ers
Ġpow der
Ġm ood
ĠH un
Ġdiv or
Ġr ural
oc ated
Ġac celer
C o
Ġ ?
ens us
is d
ĠSp ain
an while
ĠM A
ĠF ord
Ġchann els
Ġarri ve
Ġbag s
s ub
ĠT urn
Ġmaintain ing
cl aim
Ġla id
W he
ĠF act
Ġarrest ed
h o
Ġqu ote
ĠF ield
z ed
Ġcent ers
Ġton ight
Ġle ct
ru its
Bec ause
ro ke
ll s
Ġacqu is
ou ston
Ġcolle agues
ĠT aylor
iz za
Ġenter prise
Ġcompl icated
Ġprov ision
ĠA I
ĠP ut
ĠOffic er
Ġre ly
Ġsa cr
Ġs ought
ĠA venue
W ill
d f
Ġeval uation
â Ĥ¬
ĠFin ally
Ġmat ches
ĠArt icle
Ġtit les
ad or
) $
w an
ul um
Ġn ic
Ġad equ
Ġrec y
Ġd iversity
B en
Ġdeep ly
M om
re ction
ĠWh ich
Ġcert ified
Ġiniti ative
ili pp
Ġ ðŁ
ĠB a
Ġli ability
ant ed
ĠA p
is dom
Ġpass word
ĠL y
rem ony
Ġcharacter istics
st s
Ġ( $
ick et
Ġ ;
Ġf inger
ĠPro per
ask a
ĠSm all
ar on
Ġla pt
Ġra w
ĠC ON
ok en
udd enly
w ar
Ġin tense
Ġelectric ity
Ġst unning
Ġhy per
pend ing
ort ion
Ġsuf fered
Ġobs erv
ĠBu ilding
ent h
Ġl ake
Ã ¼
Ġlo yal
Ġocc urs
ĠT reat
Ġcomp are
Ġsy nt
Ġair craft
ĠS at
Ġmark s
th is
i ac
Ġob st
F A
Ġmer ch
J an
Ġcal m
Ġfor um
ĠPr ime
Ġcut s
Ġev olution
ĠQue en
Ġw ins
Ġcontro vers
ĠC R
Ġsuff er
Ġphot ography
i ary
ĠE th
Ġprint ed
w ords
Ġrepresent ed
ist ed
Ġstr ing
Ġ198 0
ĠIr ish
E G
5 1
Ġg ap
Ġst ored
Ġrespect ively
Ġcour ts
ra ction
Ġconclus ion
j o
Ġdisc rim
Ġor ange
Ġcol on
ĠRes p
Ġcol umn
r un
st al
Ġopin ions
Ġsing ing
ĠAri zona
gor ith
Ġv ent
ĠE st
Ġext ension
nd ers
Ġwrit es
orm al
b ell
Ġflav or
Ġto x
ĠM ir
L ike
Ġenjoy ing
j a
Ġprogram ming
ĠR a
ro gen
ĠComm on
Ġmanufacture rs
Ġw ake
Ġn ations
ĠPak istan
Ġg ained
Ġmist ake
Ġdem ands
g ent
sy l
ĠV iet
ĠL i
ang le
Ġo cean
Ġ( âĢľ
Ġt ub
Ġse asons
ĠCap ital
p ed
Ġclass room
ĠO S
Ġpri ze
Ġinj ured
Ġcover ing
c m
Ġnews paper
Ġelect rical
Ġ4 2
Ġstay ing
Ġvis ible
8 7
ĠRe f
Ġgra ce
} {
ĠSaf ety
Ġbasket ball
ĠB all
ĠG arden
Ġfunction al
ord an
e pend
ĠSt ore
ĠE D
Ġphen omen
Ð ¸
che ster
} ,
M C
Ġinit ially
ĠBro ad
Ġn ose
ri x
Ġdec ent
v ard
Ã ³
In st
Ġpo cket
ik ing
ut ors
Ġt act
Ġtrou b
el ing
20 13
n ce
Ġde eper
Ġc ow
ht ml
Ġfr ustr
ĠC ase
Ġhand ling
Ġobject ive
ĠP rom
ĠHolly wood
ĠG reek
Ġm ile
ĠIll inois
ĠM D
Ġthous and
Ġmere ly
Ġstrong ly
Ġ4 9
Ġind icate
Ġen ables
ĠCar l
ĠM ess
Ġl ift
Ġ âĢĻ
AR T
Ġb ills
aint iff
Ġhead ed
Ġus age
Ġtrans actions
Ġsp okes
Ġchild hood
Ġemot ions
er ts
ĠLear ning
Ġ199 7
Ġclos ing
Ġsh ops
ĠAg reement
nes ota
Ġg ate
Ġsl ots
Ġcon vin
ul ating
ĠLear n
ĠRe qu
itution al
Ġlo ving
ial s
ĠE astern
Ġv ibr
Ġse ats
ific ial
ĠTy pe
b oy
Ġt ie
ĠL ind
Ġv essel
Ġmin ister
Ġh am
ĠL ocal
f all
Ġequ ity
AN D
ĠD O
Ġt one
T wo
B est
Ġse ctions
ĠSto ck
un icip
um er
ĠRo om
Ġaccord ance
ĠR od
ĠT able
Ġtravel ing
% ,
ĠC ru
ĠSt ill
T ra
N ote
Ġact or
Ġlist s
Ġconc ert
Ġb unch
syl vania
Ġr ice
Ġ6 5
Ġgr ateful
Ġrepresent ative
al i
Ġfif th
Ġm ixture
iz abeth
il ton
ĠP RO
ate ll
Ġst ages
ac her
Ġpray er
Ġtiss ue
H A
Ġrapid ly
Ġass et
Ġle ts
Ġfall s
T R
Ġcan n
Ġtra ve
Ġent ering
ol is
ĠII I
Ġbox es
ĠPol it
Ġb ars
R em
Ġstud ied
Ġexhib ition
Ġab and
Ġpurch asing
ĠB ang
Ġfore cast
Che ck
Ar t
ep ing
Ġfr anch
ĠC N
Ġdoll ar
ĠSoft ware
Ġsubstant ial
Ġsc an
Ġret urning
ĠS av
ĠK at
ĠL ew
ĠPal est
Ġsm oke
G E
se ct
Ġgot ten
Ġche st
j ection
Ġex ists
Ġres erved
br id
ĠSen ior
Ġsent ence
20 12
ĠD ar
Ġle ather
ĠM os
d ated
ĠN umber
Ġk iss
Ġfl ag
Ġremov al
Ġinst ant
Ġsp ots
Ġb att
Ġt or
Ġup load
ĠU r
Ġshow er
i ot
c ut
Ġcontrib ution
le ctions
he ast
Ġeng aging
Ġcal endar
ĠDav is
Ġrestrict ions
ir ts
ĠAd am
Ġv ice
ĠTe le
Ġveget ables
if fe
Ġconcept s
Ġ5 5
ĠMount ain
Ġl in
ab b
ĠCount ry
ll er
ann el
ĠM ah
Ġm ac
Ġar my
ph ia
' '
ĠD un
ĠT ry
Ġlangu ages
Ġf rog
ĠSum mer
ic ious
et ers
Ġassist ant
Ġint ellectual
ps on
Ġsam ples
ĠC BD
F i
Ġunus ual
er as
Ġ199 6
Ġch ronic
v as
ĠF all
Ġadvant ages
Ġsubs id
ĠSw ed
ĠF oot
ĠC redit
Ġintegr ation
Ġshould er
S im
ĠDemocr atic
al og
Ġapp lying
w art
Ġsur ve
Ġd ental
C omm
Ġequ ally
ĠN ic
Ġfocus es
Ġf ur
Ġ[ âĢ¦]
Ġloss es
z es
at ers
Ġperson nel
4 00
i our
Ġsh out
ck er
C L
ĠM obile
Ġsuper ior
bur gh
L ear
Ġsc ope
Ġass ault
ĠN FL
b ro
if er
Ġme ets
Ġt ournament
Ġind icated
Ġimprove ments
Ġbase ball
= =
Ġthe rap
Ste p
r ite
Ġopp osition
% )
on ic
Ġfocus ing
book s
Ġequival ent
Ġgreat ly
look ing
Ġint ention
Ġswim ming
et ies
Ġatt itude
Ġstudy ing
C ons
Ġrat io
j e
Ġwe ird
Ġph ones
cc er
Ġt ape
ĠF un
ĠNe ed
and y
Ġattempt s
Ġhug ged
adel phia
Ġgu ilty
r itten
ĠTe ch
ĠD am
ĠGu ard
ĠR os
Ġprom ised
ĠT al
Pe ople
ĠD NA
H ello
ch ild
or ous
W or
Ġex haust
Ġlog o
g ov
B ack
Ġm ad
bb ed
Ġ Î
Ġess entially
Ġw arning
ĠR un
Ġre aching
Ġse eds
al ty
p any
Ġtrack ing
Ġt um
ER E
Ġcont aining
ĠUn fortunately
Ġdis miss
in als
ĠH old
int age
reg on
Ġco at
ĠA ge
ing ton
ne ll
w as
at hered
Ġstrugg ling
ĠC P
ĠColumb ia
ĠMin istry
ĠC ro
ĠH aving
ĠD VD
ĠFil m
Ġcontract s
ĠA ction
ĠR en
Ġm m
oun ce
Ġst ir
ĠBr ad
ĠB it
l ink
mm a
ard ens
ffect ive
if orm
Ġinter action
Ġt ied
Ġele g
Ġop ens
Ġsp ray
Ġfarm ers
Ġrequest ed
D P
ugh t
Ġim per
O ct
Ġn erv
ĠPro du
Ġvot ers
isc al
Ġbuy ers
swe red
Ġprep aring
6 3
Ġreve al
ph ones
ĠD rive
Ġappoint ed
ĠE mer
Ġtem porary
ĠStud ent
Ġor ient
Ġpod cast
ĠS ales
b its
Ġwant ing
ĠSt ory
Ġperiod s
wor ld
Ġsuggest ions
ĠDes pite
Ġequ ipped
elt a
U M
Ġem ails
Ġcomp at
Ġinst ruction
Ġpriv ile
ĠM ember
al o
Ġto oth
ĠHar ry
ĠProte ction
Ġper mit
ĠLat in
ĠRad io
ĠSil ver
Ġfound er
ist ent
Ġg ym
Ġbut t
ĠWith out
rodu ction
Ġref und
Ġsecond ary
Ġra ising
R C
Ġfew er
ĠVe gas
ĠS S
ĠM s
ĠM iami
d ays
Ġrel ation
se x
Ġb omb
Ġacqu ired
ĠF ac
Ġcomb at
Ġsold iers
Ġemploy ers
Ġle gend
Ġper m
U D
Ġbu ll
ĠN ame
Ġaim s
ĠM iller
in ator
Ġphilosoph y
ors es
Ġdec line
Ġprov isions
y es
ĠE ric
Ġaccur acy
Ġcas inos
pro of
ĠC ub
ĠF a
ĠB ru
Ġsc ores
Ġvolunte ers
se ason
ch ar
ow a
or gan
the less
Ġh osp
Ġins ights
Ġjew el
ĠS EO
6 1
Ġexpl oring
all as
Ġk illing
Ġroad s
ĠL as
ĠBu y
G A
ak a
Ġhung ry
Ġlif etime
Ġorgan is
Ġmar gin
ap ed
li ers
ĠCh ange
ĠRet rieved
ĠSci ences
ĠL A
uck s
20 14
ĠSing apore
Ġgar age
ol id
Ġenthus i
ĠS C
ĠH ouston
ĠP DF
ĠO l
L S
ro t
ĠBe ing
p ower
ĠPenn sylvania
Ġle af
Ġmin imal
Ġcas ual
Ġtele phone
a pped
ĠE vent
Ġdang er
Ġregul atory
Ġintrodu ce
Ġcomput ers
ĠL ine
Ġopp osed
are t
Ġsurv ive
ĠK ong
7 3
Ġinterview s
g i
Ġne ut
if ting
rib e
qu is
m akers
aw a
ĠMem bers
Ġf iction
Ġpe pper
Ġinvest ing
Ġapp le
Ġs ke
Ġerr ors
Â ©
Ġpromot ing
v ol
Ġprinci pal
angu age
Ġhost ed
he im
ĠAf ghan
i pt
ĠMin nesota
s en
ul pt
Ġal arm
20 17
Ġspeak er
Ġh oney
or ic
Ġbenef icial
Ġ19 70
Ġal ter
Ġce remony
Ġdescrib es
Ġun iverse
Ġjur isd
Ġwat ers
6 2
Ġlicens ed
Ġbrill iant
ov es
ĠÂ ©
Ġpre tend
ir a
f ers
ĠP u
Ġmaintain ed
F inally
Ġmist akes
Ġpregn ancy
m od
ig g
ĠSm art
re ts
Ġ199 5
roll er
as hes
Ġworksh op
Ġsun ny
ĠOr ig
U nder
em ed
ĠB rian
Ġdownt own
ĠDie go
ĠD ark
ag raph
ick ing
g ener
Ġdemonstr ate
St ud
Ġpost ing
fra c
Ġst om
Ġdrink s
Ġpric ing
Ġdef ine
Ġemploy ed
Ġmed ication
Ġacc used
Ġl oose
ĠPro cess
ĠTor onto
add y
Ġdisplay ed
Ġd irty
Ġr iding
k o
ĠN atural
Ġse gment
7 1
ĠTerm s
ĠB ern
Ġj un
ĠN O
w ich
ĠC ab
Ġowners hip
Ġperform ances
Ġ ~
Ġdis pl
Ġin ch
Ġst ations
Ġref uge
m ates
Ġconst it
Ġrespons es
Ġsatisf action
20 16
Ġal gorith
Ġspecial ist
il er
ĠP A
Ġpro tocol
ĠAn th
ric ulum
mon th
9 8
Ġreci pes
Ġcomp rom
os pel
ĠBook s
Ġad mitted
Ġres ident
Ġan swered
orge ous
Ġra b
ĠS ir
ver ty
ĠO K
our se
F ind
ĠL iving
Ġreg ulation
ĠBro ok
Ġpl ain
ĠK enn
ĠWil son
Ġcur rency
r ary
ĠProfess ional
re r
Ġs outhern
id en
ĠN ick
ĠV ice
Ġenem y
Ġhead ing
Ġprinci ple
ĠP S
st ep
ile y
Ġant ib
Ġman if
ĠKe vin
ĠPart ners
ĠSte el
Ġvis its
omet hing
Ġar ray
Ġrepl ied
Ġcir cle
Ġde ploy
Ġt ill
az a
Ġn odd
v ious
ĠM other
ĠStud y
s ite
ib l
ord inary
ĠCas ino
Ġass igned
Ġbrother s
up id
Ġele ctions
Ġfrequ ency
ke l
ass ion
Ġmind s
w l
Ġto mat
ĠH as
nov ation
âĢ¦ âĢ¦
Ġg ene
Ġpo verty
Ġflex ibility
st yle
Ġcheck ing
a fter
B O
Ġemer ging
Ġtre m
Ġdr ama
Ġl y
st ract
Ġatt ach
Ġord inary
Ġm oon
ud es
Ġheart s
ed ge
in tend
Ġpr ide
Ġtri ps
T op
ĠW i
ĠB ul
s a
ĠPer haps
Ġrel ating
ĠO x
Ġsome body
Ã ¶
ra pe
achel or
E ach
Ġex port
zz le
Ġiniti atives
if ted
ĠCont ent
end ing
Ġpr ime
Ġnight s
s is
Ġremem bered
Ġsing les
20 18
ĠS ara
Ġemot ion
Ġrec re
Ġad mit
Ġstat istics
m o
Ġins pe
Ġheav ily
Ġk it
Ġpurs ue
ĠCl inton
A ug
Ġimplement ed
Ġdiscuss ions
ĠCustom er
ĠGold en
t ical
f ly
Ġp ul
7 4
iat ric
ĠR og
ĠB ad
ut en
Ġto ler
Ġwond ering
Ġexpl o
ĠS ally
th rough
Ġgra b
Ġdivid ed
Ġmass age
Ġsing er
Ġres ort
c or
Ġprodu cer
G l
20 15
Ġpack ed
M ax
oc key
ĠD ream
Ġtarget ed
ĠPh ilipp
Ġacknow led
u ating
Ġter rible
i ences
E X
v ation
C ar
Ġform ula
il arly
od ge
Ġsome how
Ġm ild
Ġstru ck
ĠÂ ·
ĠO ak
Ġw estern
p y
Ġest imate
Ġpil ot
Ġd ent
Ġsol o
Ġunivers ities
an th
onym ous
a pping
et ts
Ġfact ory
Ġcelebr ation
Ġtrans mission
Ġvolunte er
Ġin fect
ĠTr ade
Ġdiv ide
Ġhad n
Ġst ability
Ġpro port
ĠH IV
Ġaddress es
ĠThe atre
c ite
h our
Ġem issions
Ġaddress ed
Ġexcept ional
Ġlaw su
Ġaccount ing
Ġ1 20
Ġtest im
lud es
Ġann iversary
Ġr um
âĢĿ )
Ġattend ing
ch arge
ĠC apt
Ġra cing
20 11
Ġover come
Ġdis order
ĠMore over
Ġenc ounter
ach us
Ch rist
ĠD ri
Ġcompet e
Ġinc ent
Ġdecre ase
ac on
d s
Ġgraph ics
ĠSh op
, âĢĻ
Ġmy th
Ġnerv ous
ĠStep hen
Ġelect ron
ĠPhil adelphia
Ġparticip ating
ĠN ations
Ġv oc
Ġdam aged
ĠP ur
Ġresult ed
Ġen orm
Ġdistrib uted
ĠBar b
Ġsatisf ied
Ġp orn
] ,
ĠI ce
Ġconsult ation
Ġm it
Ġsh irt
ĠH ong
ĠTh ings
Ġhapp iness
ĠI de
Ġhot els
Ġha z
Ġdiagn osis
Ġcr ash
v iously
Ġres idence
Ġc m
ĠO regon
Ġstreng then
ag an
ĠE state
Ġf its
Ġe lder
Ġt ut
Ġphotograph s
ĠE X
Ġyour s
ĠAd vis
Ġhigh lights
Ġprint ing
wh o
R L
Ġor al
ang ers
Ġover se
ĠF REE
Ġpregn ant
ĠAnn ual
Ġf est
ci ence
ĠEconom ic
Ġdeliver ing
ĠCan cer
B M
Ġd il
aw s
ĠDemocr ats
ĠJ ordan
Ġde ck
Ġinter active
Ġwire less
av al
IL L
Ġout s
ĠMet hod
Ġprov ed
Ġlist ing
ĠG row
G ener
en ess
Ġcampaign s
le ft
viron ments
igr ants
Ġbank ing
Ġ4 4
E F
ĠT ony
Ġupgr ade
IT Y
Ġimm une
Ġad j
ĠJew s
Ġcou p
Ġal ign
Ġdom in
Ġexpand ed
Ġreci p
u ana
8 4
Ġcorrect ly
old s
l og
Ġw isdom
ĠM oney
Ġpromot ion
Ġcon ventional
ĠCh all
Ġodd s
Ġl ens
v als
enn es
ĠAn g
ĠRes ources
Ġapp lies
Ġcy ber
ud i
Ġy oga
Ġdist ingu
ĠDon ald
Ġwor ship
ĠUk raine
Ġexperi encing
Ġnurs ing
Ġdecl ared
in cess
ĠSe x
ĠEl izabeth
Ġro ots
od ing
at in
ĠW as
Ġdis hes
Ġsett lement
Ġvulner able
ĠT ool
achus etts
H T
ĠMat thew
Ġrare ly
ĠCl oud
Ġj ail
Ġth rew
ĠChrist ians
le e
ra ctions
ab il
ĠIsl am
Ġoff ense
ĠCh apter
Ġconvers ations
les h
Ġtarget s
Ġr ug
ĠS em
Ġhe s
Ġannounce ment
D is
Ġarg ue
Ġthem es
Ġmin ing
ag ers
) |
Ġnodd ed
Ġmus cles
i ro
Ġentr ance
ĠG M
Ġhor iz
Ġres id
âĢ ³
Ġpe ak
D own
Ġsubst ance
Ġrespect ive
Ġp ic
Ġh iring
P D
in th
Ġcreat ivity
pl ed
op her
ĠSt one
Ġdifficult y
Ġra c
x x
Ġtemper atures
ĠBro ther
Ġoffic ially
ĠFore st
ĠSe lect
ow ed
ĠSe attle
us hing
Ġup set
Ġdis aster
ut ter
g ments
h an
Ġcompl aint
ĠAir port
erv ice
Ġspeak ers
Ġcheck ed
ĠD oc
ig ious
ĠG ro
Ġearn ings
Ġground s
Ġmove ments
Ġshap es
op er
Ġwh ilst
Ġn est
u an
Ġin du
ĠStand ard
Ġsur ge
om atic
Ġobject ives
Ġb aking
Ġdro ve
Ġaim ed
ay er
Ġaccess ories
Ġdes per
Ġsafe ly
Ġcam eras
ter ior
ig ma
Ġn orthern
m ble
ĠQ uality
Ġ vert
Ġy ummy
ur ches
Ġcop ies
Ġhol idays
F eb
Ġthe rm
Ġbreak s
Ġrec ruit
Ġt ort
ĠDe ad
Ġk il
8 2
im ental
Ġ6 4
aw are
Ġcir cuit
Ġpack ages
isc ons
ĠP ers
ĠM u
' .
im a
Ġdam ages
ĠP ow
Ġden ied
Ġb id
ĠB and
Ġble nd
Ġexam ine
Ġg athered
re p
ĠO wn
Ġg onna
Ġdeath s
Ġtri es
ĠSqu are
Ġwork place
Ġc ul
8 3
Ġs ed
Ġch a
iscons in
Ġsumm ary
Ġtal ented
Ġb ands
Ġh anging
ck ets
ĠScot land
Ġ199 4
ĠK ansas
Ġarri val
Ġmeas ured
Ġclub s
ĠPh oto
ĠV ery
Ġpus hing
Ġm ath
Ġbo ards
ĠMag azine
Ġsign ing
Ġlet ting
hy th
Ġab road
Ġcomb ine
o cc
el ve
EC T
it ative
h op
j i
Ġrepresent ation
Ġsubsequ ent
the re
ĠChe m
Ġref used
Ġeval uate
h igh
ab is
olog ists
Ġd uties
cy cle
ĠL ED
Ġsp a
Ġguarant eed
Ġcra ck
Ġsleep ing
fe ctions
Ġsc ary
Ġadministr ative
ĠCons ult
ĠSe ason
Ġf ruits
Ġtow er
Ġdisc overy
Ġact ors
ĠC ome
T ake
Ġab ilities
Ġgener ations
Ġmir ror
A F
ĠJ osh
Ġrel ie
ĠN AS
Ġs ne
Ġm g
i ag
Ġa er
ĠI mm
Ġven ue
' ,
cript ions
Ġnarr ative
9 6
c hers
Ġform ation
Ġf illing
pt on
o en
ĠSt ation
Ġpassion ate
Ġcomple tion
am ics
Ġvers us
Ġlisten ed
Ġmeaning ful
ĠLe vel
Ġsc ar
ish op
Ġimportant ly
Ġc odes
Ġlot tery
ors hip
Ġabs ence
ĠV en
ĠJ enn
Ġdi pl
p ers
arent s
Ġcom pe
ĠD ad
a o
ĠS ep
20 19
AL L
Ġcert ificate
Ġh orm
D av
Ġestim ates
Ġorgan isation
ĠAtt orney
Ġsole ly
ĠEnvironment al
Ġsc rew
Ġg orgeous
c alled
ax y
Ġconsist ently
Ġse vent
ĠL ady
Ġh ip
p ing
Ġs our
ĠSte ven
d ri
AN T
ol n
un es
ĠJ ay
Ġcontrib uted
Ġbr ush
p ire
Ġelse where
ĠBe aut
ĠF L
hes is
Ġcontinu ous
Ġre ven
ĠD ave
Ġhol es
) ||
Ġc ogn
ĠRem ember
co pe
S am
a ire
Ñ Ĥ
Ġco aching
9 7
e q
Ġ2 50
ĠAust in
Ġexpl os
Ġfing ers
d ney
ĠL ic
Ġtrust ed
Ġse ar
om ed
man n
ĠK ar
Ġoff ensive
Ġabs orb
a ul
Ġen vironments
Ġdist urb
ĠS aint
ĠC ry
Ġvot ing
Ġimm un
Ġw aves
ĠAn aly
** **
lim ited
Ġt ube
Ġlo b
F e
20 10
Ġstock s
Ġact ively
Ġview ed
ĠE N
ĠProduct s
. ||
Ġtrad em
l ined
Ġrepresent atives
Ġf ib
. -
ĠT en
ĠUS B
Ġcon vert
ĠS M
ĠSh are
ĠG reg
ĠMon th
Ġhe ating
o ked
Ġwe igh
w ear
ĠUs er
Ġb old
M ake
in st
grad uate
C ur
Ġcolor ful
a un
ick ed
Ġinstru ments
Ġroll ed
m ic
Ġsurv ival
Ġthreat s
ĠH ay
Ġexc ite
ĠRepublic ans
Ġcooper ation
ish ment
Ġproduct ivity
Ġrepe at
ĠR ub
Ġrom antic
ir rel
Ġacquis ition
ch ing
ust ration
ĠD allas
Ġrespond ed
ĠTrans port
ĠBr idge
un ate
Ġtri als
Ġlaw yers
Ġt ons
ĠUn ivers
Ġchar ity
ĠO nt
Ġlow est
Ġc ats
Ġpain ted
ĠFurther more
Ġqu e
l abel
Ġun cle
ĠB ull
ater n
ĠMod ern
Ġkne e
Ġmy ster
ĠSc he
am i
Ġf ake
Ġref ers
eng ers
Ġar bit
Des pite
ro it
Ð ½
g iving
ric ted
Ġrab bit
ag en
pro f
Ġdestroy ed
ĠC reek
r ine
ĠAtl anta
Ġball s
arr ing
ĠMass achusetts
ac les
Ġt err
ĠB ed
t ail
20 20
Ġpack aging
ig ence
Ġentreprene urs
Ġbehav iour
Ġsem i
Ġdemonstr ated
Ġgold en
Ġterrit ory
Ġg am
Ġli p
Ġsequ ence
Ġc ups
Ġwork er
Ġdis ag
Ġne uro
Ġlapt op
Ġinv ention
ĠRel ations
Ġm ask
Ġrec all
Ġmin istry
ult ane
Ġdesign ers
Ġb es
itz er
Ġvirt ually
8 1
ous es
Ġdri ves
Ġ4 1
itar ian
Ġimp ression
ĠMem orial
Ġpass es
ĠC L
Ġimm igration
row se
Ġb ite
ot ion
Ġa x
Ġbu ff
ap se
av or
Ġcor on
f a
Ġexam ination
Ġage nda
Ġd irt
by e
part y
ond er
Ġeng ines
ce nd
ĠLim ited
Ġwal ks
Ġexp ense
ĠBe h
Ġlay ers
ĠLew is
Ġhosp itals
P P
Ġrock s
Ġbelief s
Ġdire ctions
W elcome
ĠB ase
Ġsal ary
Ġpre ced
Ġfranch ise
ĠC S
ĠReg ist
Ġâ Ĥ¬
ĠN ig
at ile
Ġautom atic
Ġview ing
Ġstom ach
ĠW ars
ĠA h
ĠEx change
Ġpet ition
Ġf ool
sc ale
Ġmechan ism
Cont act
ĠHaw ai
ĠAr m
Ġtrans formation
ol i
Ġfin ancing
Ġ9 5
Ġprof its
ĠI owa
ĠB at
O ut
ĠTur key
el a
Ġexplan ation
ĠJ ason
ol t
Ġch ampion
Ġto ile
Ġpublish ing
Ġ4 3
Ġcert ification
ou ri
ij uana
Ġsc ulpt
Ġreview ed
Ġcab in
E l
p ost
ict ions
Ġamong st
Ġdivor ce
Ġf iber
Ġflu id
ol s
b ra
Ġcollect ive
d ep
R el
Ġb ass
Ġdis ability
Ġc her
Ġdr um
Ġfunction ality
id ers
Ġcomp os
ac ular
Ġs li
Ġsk illed
Ġf ert
ĠAff airs
rou s
Ġo ught
Ġgen etic
ĠM oo
Ġun em
ĠK itty
ĠPa per
ĠFin ance
Ġman ip
C R
Ġelim inate
or neys
ĠInd epend
p ool
Ġimpact s
u is
ĠM ajor
ĠR ome
Ġdis orders
es h
Ġsign ature
o ons
Ġunder lying
Ġre fe
es y
Ġposs ibilities
it ate
Ġweap on
Ġab und
ĠMod el
Ġmount ains
Ġw ider
c est
Ġwh is
M on
Ġgl obe
ro ph
Ġcred its
ĠSh ort
Ġpen alty
ĠPr ince
Ġdevelop er
Ġacqu ire
ĠFor um
Ġprotect ing
Ġdevelop ments
on ing
ĠM aterial
Ġprom inent
Ġrepresent ing
at al
ĠPr int
Ġphys ician
Ġfrequ ent
the y
v ity
Ġadvert ise
ĠF A
ĠIsl amic
os ystem
6 00
Ġinv ite
A ct
Ġha bits
Ġro lling
it o
Ġag ed
Ġ19 60
Ġbur ning
ĠiP ad
ĠM oon
Ġse ctors
Ġf ed
ĠGall ery
ut ical
Ġl es
Ġathlet es
Ġcom edy
Ġc rown
ag ged
ĠJ am
Ġdram atic
Ġtro ops
Ġle mon
Ġspec ified
Ġphys ically
Ġgall ery
t ains
Ġcr imes
OR E
ain less
ok er
Ġpan els
Ġconven ience
ĠO cean
ap ing
gg ed
or i
Ġacc um
f ound
Ġcou ples
inc oln
Ġs oup
Ġindic ates
cu se
Ġsett led
Ã ¤
Ñ Ģ
Ġadop tion
Ġres ume
ĠW isconsin
Ġvot es
Ġ5 2
erv ing
Ġset up
U se
Ġh orses
u ates
Ġdo se
Ġsubs cription
Ġvot ed
Ġpick ing
ĠEx am
crib ed
Ġrough ly
T O
Ġremark able
Ġinter vention
ĠT alk
ĠP ast
Ġv enture
ers ion
Ġret ired
Ġal leg
i ate
ĠC ooper
Ġfulf ill
G e
Whe ther
ĠEx press
Ġh itting
we ek
Ġp ills
Ġoper ational
ent er
Ġprev ention
a ver
Ġoper ated
ĠAuthor ity
Ġunlike ly
Ġcapt ured
Ġfa ult
f unction
ĠMary land
un n
Ġe ager
li x
l ah
Ġbact eria
ĠIndust ry
Ġs od
ĠÂ §
Ġgro cer
Ġr anging
unicip al
Ġwood s
Ġconf used
ĠB E
ĠK elly
Ġpar agraph
ĠAm ong
iffe rent
Ġsure ly
Ġsc reens
ĠG ree
ĠR us
ĠEm ploy
ĠB ry
M M
Ġs que
Ġtrem end
ĠG ive
Ġemphas is
ĠIsrael i
Ġdiam ond
ĠAn alysis
Ġutil ize
1 50
Ġut ility
Ġconcent ration
Ġinvent ory
ĠO p
oo f
aut hor
Ġex ch
f ire
ĠSol utions
Ġintegr ity
G oogle
w ill
ĠM ade
ĠFr ont
r at
Ġed iting
Ġtr im
xy gen
Ġf iscal
Ġ9 9
H igh
Ġlad ies
Ġscen ario
ĠCol lection
Ġcomp osition
ĠW ould
Ġch ips
Ġstop s
av irus
Ġpublic ly
ĠN ob
Ġenorm ous
ĠConst itution
W ow
Ġconvers ion
Ġrespons ibilities
ĠS ound
Ġinvolve ment
ĠBu ild
n ie
ĠT R
ft en
win ning
om ic
Ġdial ogue
Ġh ub
Ġsy nd
ĠM ind
Ġd ies
Ġpopular ity
T y
f ish
et he
H L
arr ass
ĠG i
Ġdes erve
Ġsoph ist
ĠJud ge
B N
Ġbel t
Ġsqu irrel
v ia
Ġpresident ial
as ion
o a
Ġwa ited
Ġbo ot
ĠIm pro
d on
ast ed
ĠP itt
P L
ĠTh ink
Ġhard ly
ĠEvery thing
Ġde fect
Ġins ert
Ġd ual
Ġconserv ative
Ġv ine
ĠF uture
ĠH om
io x
Ġst upid
Ġconc luded
ĠD rug
ĠAl bert
us hed
Ġin hib
Ġs orts
Ġfollow ers
ist ing
Ġexerc ises
Ġshe ll
Ġmy stery
ĠS elf
Ġre verse
Ġdef ensive
Ġresol ve
Ġdirect ors
h ome
Ġwin ners
Ġp izza
ĠPat rick
Ġd ancing
Ġthe ater
Ġse am
Ġexpand ing
min ute
ennes see
Ġ4 6
ĠB h
IT H
b ed
Ġcur riculum
Ġ199 2
Ġc ried
Ġwhere as
id th
Ġorganis ations
Ġres erve
Ġsc oring
IS T
Ġ1 000
ĠB ody
Ġreg ime
ab out
Ġsm oking
Ġwarrant y
Ġaccom pan
Ġc otton
Ġrest ore
i ology
Ġinfl amm
Ġper mitted
ĠAL L
Ġ0 1
re nd
ĠN ature
igh th
atell ite
ĠIndian a
Ġnut rition
alle l
Ġal ert
Ġscreen ing
ĠDe ath
Ġsupp liers
Ġgather ing
ĠSt aff
F l
Ġcomp an
Ġpurch ases
Ġrob ust
asc ular
ĠPalest in
ir k
Ġsk i
im p
N et
Ġst ack
Ġprocess ed
Ġa est
Ġr uling
Ġnut ri
act er
Ġ199 3
P s
co very
ab ama
ast y
ĠWord Press
Ġin quir
v o
math cal
Ġdra in
Ġcontain er
Ġwood en
Ġpass age
atch ing
ĠMar c
Ġas sembly
Ġth ro
ist a
ĠViet nam
Ġnob ody
ĠIm p
ĠD I
Ġextra ordinary
Ġl aser
ĠO s
Ġacknow ledge
ĠVill age
y d
ĠAnd erson
Ġgraph ic
sc reen
Ñ ģ
Ġprodu ces
ĠK ids
Ġaffect s
Ġ8 00
ĠW inter
ĠR oll
Ġeth nic
ing ham
Ġm old
Ġrele ases
Ġestablish ment
W ork
ĠDef ense
Ġm ic
Ġleg acy
ĠS ong
g ame
ar at
Ġstream ing
ĠAtl antic
Ġsmart phone
T ime
ĠFore ign
ĠWork ing
i y
ĠE T
Ġcheck s
g ly
Ġref err
ĠCl ark
Ġadequ ate
Ġser vers
D id
ĠExper ience
qu arters
Ġret ain
ĠK ind
Ġt ears
m ate
o z
rop ri
ĠGovern or
Ġdefend ant
ace utical
Ġdocument ation
Ġfant asy
Ġbare ly
Ġpsych ological
Ġhope fully
C al
ĠMot or
Ġoverwhel ming
Ġm aps
Ġcon vey
em an
ĠR ou
Ġst em
Ġinvestig ate
Ġbr an
Ġs ink
Ġg al
ĠAnt on
ust ain
Ġsim ultane
Ġover s
ĠB ureau
Ġent ity
Ġnetwork ing
w all
ab ling
ous ing
Ġcomp assion
Ġinn oc
Ġrank ed
Ġenh anced
Ġ0 9
IV E
2 50
r ont
ĠRead ing
ĠAut o
Ġchemical s
Ġke ys
r us
Ġexcite ment
ĠN ut
Ġlimit ations
ĠT oy
Ġ4 7
Ġsurround ed
Ġl ung
ch o
ĠGr ant
ay ing
Ġinfl ation
est ed
Ġra ces
Ġun iform
Ġj ury
ĠA li
ĠPlan ning
el le
ret ion
$ ,
ĠL yn
Ġcon j
Ġo x
ĠWe ight
ĠAv ailable
Ġassoci ate
Ġin ev
Ġimpress ed
Ġworksh ops
Ġmag ical
ig s
Ġhop ed
E ng
back s
ĠReg ional
Ġviol ent
Ġcelebr ated
St art
a a
Ġfasc inating
D ay
ĠMed ic
Ġgener ous
ĠDo ctor
Ġdifferent ly
ĠS ize
Ġg ang
ĠP ict
ĠSy dney
Ġsus pend
Ġmet ab
ĠAll en
Ġmod ified
F T
Ġbook ing
ĠEd ition
Ġbab ies
Ġp or
ĠR oss
om in
er k
Ġle an
Ph oto
Ġenc ount
oun ced
ĠL uc
Ġsign als
gr ade
Ġagree ments
Ġhar vest
fort able
b f
Ġcont ents
in ar
ot ive
ian ces
Ġcan cell
ĠS ant
ĠE asy
Ġcomple ment
ĠR ick
Ġposs ession
sp ot
Ġcou rage
200 9
D R
ĠW W
Ġphr ase
Ġdem ocracy
Ġeffect iveness
U C
g ra
P N
Ġre ferences
Ġpre cious
ob b
Ġens ures
ĠComp uter
for ward
g ree
re tt
Ġencoura ging
A v
G reat
Ġbl ame
Ġgra bbed
Ġrad ical
Ġbur den
Ġc ust
Ġaggress ive
ĠA st
ĠS ix
ĠAssist ant
Ġc inem
or se
igen ous
Ġh ired
se a
ĠD rag
ĠY eah
ater al
9 3
w a
Ġauthor ized
ĠHe ll
Ġf ired
ĠStud io
ap h
He y
Ġinst antly
Ġemb arrass
umin um
off s
ĠA k
Ġw ishes
bre ak
Ġre hab
Ġemp ower
iz ations
Ġ0 8
Ġqual ify
ĠN avy
c ore
ĠC ore
Ġnews letter
ut her
Ġquant ity
Ġdis rupt
Ġ urg
if ier
on ly
Ġt u
ĠOnt ario
Ġhost s
Ġrep ly
N S
he alth
w alk
ĠC ell
Ġh unt
Ġadop t
ĠC F
Ġinter actions
p iece
Ġsupport ers
Ġp iano
Ġgrad uated
ric ts
$ .
Ġart ificial
Ġrob ot
M arch
ĠC ut
ĠPar liament
Ø §
IC E
ĠS E
Ġblog s
Ġjewel ry
t w
est y
est ion
Ġhome own
E m
ĠInte rest
Ġprodu cers
ay a
Ġ6 00
ot ing
Ġher itage
ĠM arsh
Ġspect rum
h ol
L O
Ġy e
P res
M I
Ġw ing
ĠCle an
Ġbuy er
Ġi OS
Ġspeak s
Ġpract ition
ag a
Ġauthent ic
ĠB ird
9 2
ist ical
Ġann oy
ĠI V
ocr atic
ĠVictor ia
ĠL es
rape ut
Ġbe ef
. [
he art
re c
Ġre cept
Ġepis odes
ĠPe ace
os it
Ġland s
es is
Ġgr ants
Ġca f
s uch
V is
Ġmed ications
ĠB lo
Ġan gle
bour ne
ĠEd itor
C opyright
J u
ĠS ale
Ġveter an
Ġvacc ine
Ġbal anced
ĠT am
Ġold est
Ġclick ing
ot te
Ġres cue
Ġt ong
Ġmatt ress
Ġpl aintiff
S ource
Ġp our
Ġshort ly
Ġdesk top
ĠH R
Ġarrange ments
ĠAfghan istan
Ġcons ervation
Ġoper ators
ri or
ĠA z
Ġbeg un
ĠCon c
re ll
ĠS O
ick ets
Ġhy p
ĠE ag
Ġt ent
T E
Ġcar pet
TH E
ĠCor p
ro x
ĠRec ords
Ġinterpret ation
e z
ĠSy m
al m
ĠTh ird
Ġmat hemat
Ġtem pt
Ġcult ures
lah oma
ĠT rib
9 4
Tr ans
vent ions
ure r
O kay
Ġconstruct ed
ĠApplic ation
ĠB arn
Ġfacilit ate
pl ant
Ġtack le
Ġch urches
a ud
Ġgr at
it ches
b ound
ĠD ise
Ġsp oken
ell ing
Ġcent uries
Ġed it
ĠJe an
Ġident ification
Ġprom ises
Ġfund ed
ĠS ov
ĠRep resent
ĠPriv ate
Ġpres cription
Ġtrail er
ĠPh arm
Ġste pped
m n
is hers
ĠPerform ance
Ġ 00
inte rest
Ġliber al
ĠAs sembly
Ġdepend ent
Ġhuman ity
Ġcomp ly
ĠKore an
ĠB an
k ind
Ġdesign ated
ĠN C
Ġe ars
ow ered
Ġreve als
H el
ĠEd ward
Ġl one
Ġan ger
Ġcult iv
ĠB BC
Ġdo zen
Ġdifficult ies
comm un
et a
Ġaccompl ished
em ail
Ġpark s
Ġcompet itors
Ġsudd en
ĠâĢ Ŀ
s ung
m ind
b est
K E
ation ally
Ġsc ream
ĠB C
O s
ĠR s
ĠHarr is
ĠH ind
ov ing
Jo in
Ġl ying
ĠA G
9 1
Ġg ross
op t
Ġar med
ĠBow l
ĠS ure
Ġdest ruction
Ġgen re
ĠC li
ĠT ennessee
Ġre ception
ier ce
ĠT ai
Ġfil ing
b d
Ġtable t
Ġp ets
Ġn urse
id al
ĠElect ric
Ġpat ent
ĠH ills
it ivity
W H
Ġtransl ation
ĠArch itect
ol en
Ġpeace ful
nt il
Ġover night
Ġqu otes
ap es
Ġoper ator
Ġde leg
ĠL incoln
ĠD J
Ġfl ights
ĠInd ones
Ġfall en
tr ans
so le
Ġth y
ĠCom ments
ĠEx p
reed om
M od
az ing
ĠB enef
ut ive
Ġcook ed
Ġunivers al
Ġcom ic
Ġnavig ate
air y
Ġfinish ing
Ġsh ips
ĠPh D
ĠYou th
ĠSy ria
Ġ199 1
Ġarg ued
Ġpo etry
Ġcolle ctions
Ġproduct ive
Ġste am
May be
Ġtext ure
Ġwhe els
de f
ĠH art
Ġconnect ing
ĠDet roit
Ġoblig ations
ov a
ĠSci ent
Ġmechan ical
Ġdispl ays
Ġv oices
Ġthorough ly
els on
Ġremov ing
Ġg ains
in ction
Ġdur ation
Ġact ress
Ġattempt ed
Ġart istic
Ġvend ors
pl ing
Ġ: )
Ġaccommod ation
ĠS now
Ġec osystem
, \
ĠAg ric
on ut
Ġmatch ing
Ġof fe
ĠContin ue
Ġdefe at
ĠLe gal
Ġtransfer red
ĠHow ard
Ġad mission
c ure
ĠVis it
Ġfem in
Ġw rap
Ġdocument ary
Ġaff airs
Ġweak ness
Ġhor ror
Ġfund ra
Ġparam eters
ĠB aby
> >
ĠB alt
im m
ĠMic hel
Ġh al
Ġmake up
Ġf ence
ĠP H
Ġtown s
Ġjun ior
Ġpur ple
Ġg ently
oc ur
ĠCh ampionship
ĠInte gr
ĠCreat ive
ĠB ased
ĠF low
ĠAl abama
Ġign ore
Ġcand y
ĠEn joy
ĠAd vent
Ġsa il
Ġdiscrim ination
Ġ8 5
Ġg low
ĠEm ail
ple x
in f
Ġhun ting
Ġd ys
ah a
Ġche aper
Ġdro ps
Ġwor n
at oes
f ather
ĠE arly
Ġadd iction
ĠH T
ĠM ove
H z
Ġgovern or
Ġd ough
Ġd uck
Ġd rew
il ation
ĠInt ell
Ġexclus ively
u um
Ġw ore
ĠMach ine
Ġrec ru
ak h
Ġbank rupt
Ġcon sec
h ist
Ġw ings
Ġpl acing
op en
Ġconsider able
Ġlock ed
u ke
c ard
Ġc ig
Ġsh adow
Ġtre asure
ĠB ab
ĠMoo re
Ġtou ched
Th ose
200 8
Ġdeterm ination
New s
Ġcl oth
Ġte asp
ap olis
ĠReview s
Ġsu icide
R ed
Ġrep airs
ra it
Ġsett le
m other
Ġdepart ments
att an
Lear n
Ġso ccer
Ġst amp
Ġmet ers
Ġrub ber
Ġlay out
Th rough
ĠSim on
Ġe uro
per t
Ġviol ation
d em
Ġcar ing
ĠAnth ony
ad er
Ġt ours
ac co
Ġwild life
Ġmusic ians
ĠM ap
Ġdisappoint ed
Ġte nder
Ġcook ie
Ġoper ates
Ġmon ster
ĠCommun ications
ĠH u
V I
Ġs lic
Ġaud iences
ĠM ort
Ġinspe ction
Ġsustain ability
20 22
Ġw ished
Ġl ion
ne cess
Ġoccasion ally
ĠYear s
Ġpass engers
a us
Ġoblig ation
g ain
be an
ĠBl u
ĠBer lin
if ice
ĠP L
ĠH P
Ġadv ised
P at
Ġf t
d ale
se lling
or ical
ol ph
Ġland ing
Ġdeli vers
Ġcon ce
B oth
ĠChair man
Ġengine ers
or ious
z ens
Ġal ike
Ġb ene
st ic
Ġlegit imate
ĠR h
Down load
Ġl oop
ĠI ron
Ġdur able
ĠR ail
Ġintellig ent
and al
ĠOrgan ization
Ġindepend ence
ĠOx ford
Ġo xygen
ĠF ive
Ġloc ally
Ġse al
Ġany body
Ġcomple ting
ĠD utch
F OR
D C
Pro f
ĠBre ak
tain ment
Ġcol ours
Ġbe ll
Ġpar ad
ĠH ur
ic ating
Ġbreat hing
B B
Ġm ature
Ġjurisd iction
ex p
ound ing
Ġgar lic
Ġc ater
Ġli ver
D ate
ĠL O
C or
ci p
ĠV eter
ĠMor gan
Ġpublic ations
Ġt ension
Ġconf ront
Ġargu ments
Ġsal ad
ĠL ess
Ġaffili ate
Bl ack
Ġcompl aints
Ġover view
Ġkn ife
ĠMiss ouri
Ġdead line
Ġun lock
à ¸
Ġm os
US T
ik a
Ġtreat s
Ġs ons
Ġpop ulations
Ġ7 2
Ġb unny
ĠAm end
Ġclimb ed
Ġf ought
ĠP oly
Ġco aches
ail ing
ĠPl ant
ĠSam sung
Ġce iling
th ur
ph an
ĠT an
Ġcritic ism
ath on
se mble
Ġsp o
pr ises
Ġg reet
ĠP ed
Ġoccas ions
g ood
Ġp up
ĠJ ess
irl ines
ub ble
pl o
ĠB uff
ĠProper ty
ĠMal ays
ĠPort ug
Se pt
ĠH um
Ġess ays
ĠA ve
Ġmed ic
Ġsil ly
Ġpain ful
do ors
w ed
Ġlast ing
Ġr hyth
ĠGr ad
or ms
V A
oen ix
J une
au g
Ġexpl icit
Ġrequ iring
M et
Ġth rown
Ġhe al
Ġmar ijuana
Ġwork force
? )
B el
ĠComp et
O ff
f ig
G od
Ġbran ches
Ġrece ipt
ĠInd ex
Ġpolit icians
Ġagric ultural
Ġsle e
ĠW ales
Ġtrig ger
Ġneighb ors
Ġdev ast
ĠLe on
Ġeleg ant
ĠBl ood
Ġaccept ance
Ġse min
v it
A pril
Ġth irty
ĠL ib
Ġsh o
t able
Ġconvin ced
Ġf ancy
iv a
ak i
Ġref rig
Ġa ver
ĠAr k
ow een
ĠM ust
ĠDe an
Ġspecial ized
ĠE ve
ĠF ast
ĠMex ican
ĠD ays
Ġbar rel
Ġgun s
ĠKent ucky
Ġ5 1
ĠT ro
ĠUt ah
ĠB urn
ĠG h
ĠAlex ander
Ġde emed
Ġapp et
Ġ !
er ior
Ġac res
ĠLa ure
Ġche f
Ġshel ter
ĠU C
Ġspect acular
T P
Ġwork out
ix ed
ĠC ov
A c
Ġpres erve
Ġachie ving
as m
ĠOlymp ic
ĠS D
ĠP y
ĠCh ampions
it udes
Ġexec ution
writ er
Ġtut orial
Ġc ord
Ġan ch
Ġin sect
Ġidentify ing
ĠBet ter
Ġsens or
ĠM oh
ĠMan chester
F F
Ġaccompan ied
ĠF inal
ail ed
O b
ĠQu ick
Ġachieve ment
Ġex it
ow ing
Ġemb race
ock s
ĠL iter
Ġhy brid
te ch
uss ion
ĠId ent
w he
ĠE ffect
Ġple asant
Ġv intage
un ct
Ġtour ism
ĠNig eria
rop ical
ob by
ĠAn ne
ĠCont ract
Ġtime ly
H aving
ĠPr im
Ġchair man
hold er
Ġenjoy able
Ġass ert
Ġann ually
ĠI M
M ich
Ġrece ives
Ġstead y
ĠS ac
l aim
Ġgl ory
Ġaltern atives
Ġstra w
Ġbe ans
p apers
Ġdes ert
y our
ĠRev olution
Ġd ict
ĠE ver
ĠL aur
Ġenem ies
Ġev ident
new s
Ġinc om
Ġ rib
nd ry
ĠIn side
Ġaccept able
gu ard
Ġimpl ications
Ġgr ay
j ud
G r
Ġreal istic
Ġinsp ire
a ft
ĠG ene
ĠAnd y
othe rapy
per form
Ġconfig uration
Ġappreci ated
Ġbro ker
irt ual
In tern
ĠD ur
Fr iday
Ġo live
Ġlawsu it
Ġcl ip
ĠS ide
Ġcompat ible
Ġad verse
g ie
Ġforgot ten
ch ain
S ign
ĠCon vention
B L
ĠN BA
ĠS port
Ġelder ly
Ġefficient ly
Ġreject ed
Ġreflect s
Ġphotograp her
ĠMan ufact
Ġch ampionship
St ar
Ġ5 4
equ ation
Ġcap ability
Look ing
Ġtreat ing
Ġli ps
Ġprof iles
S U
il itation
ĠT ogether
ĠM uch
ĠM it
P G
ĠWrit ing
Ġharm ful
Ġaccommod ate
Ġchar ging
d og
Ġmod ule
ĠPri or
Ġbound aries
ĠC C
ĠNet her
Ġcry ing
li hood
ĠC rit
Ġpaint ings
Ġind oor
Ġconsult ing
Ġtem plate
Ġcomp act
Ġdeal er
Dav id
ĠSchool s
let te
Ġsell er
Ġbe ings
Ġder ived
pl us
Ġvit amin
Ä ģ
lect ed
Ġche er
ĠG olf
Ġcorrespond ing
ou ver
Ġnew est
Ġneut ral
C all
Ġbi ological
Ġfin est
Ġcitiz en
Ġatt orneys
Ġtem ple
Ġcast le
Ġdet ection
ĠH appy
t est
Ġview ers
Ġsex y
ĠAll iance
ĠDen ver
Ġimplement ing
ĠB Y
ĠL isa
Ġtax pay
Ġdiscipl ine
Ġsophist icated
i el
Ġsp ouse
ĠBit coin
Ġtim ing
ĠCom b
ĠG il
Ġbutt ons
IN E
ĠHar vard
Ġr ational
I ES
O rig
Ġdeli ber
} (
Ġgu ides
im ens
Ġcar ries
m ont
Ġs its
Ġbond s
ĠG re
Ġr ush
Ġdon ations
Ġv ocal
ĠLin ux
ĠPh one
ou b
Ġsix th
ĠD ick
ĠOr ange
Ġro yal
ĠMar ine
Ġimag ination
ĠMeet ing
M in
Ġbe aring
ĠOk lahoma
Ġmotiv ation
et ch
Ġpr on
c ur
Ġreb u
st ore
ĠPract ice
Ġassign ment
ĠJ ob
Ġtwe et
R et
ĠD or
Ġo h
ĠW y
D ec
le ans
Ġt urb
Ġmain stream
ar ation
Ġrid ic
Ġas semb
A ss
is an
} .
Ġend less
Ġobs erve
Ġdisc retion
sc ribe
Ġ( "
im ore
Ġcar rier
ĠI C
Ġfriends hip
Ġsignific ance
Ġmom my
ac ent
S M
Ġfast est
ĠP ain
S W
Ġin fections
ĠCh oose
Ġsee ks
Ġstruct ural
Ġdon ation
re qu
writ ing
ĠFoot ball
AR D
ĠN a
ĠC ulture
Ġstri king
Ġsupp lements
ord on
Ġicon ic
ph p
vis or
Ġint im
P T
ĠD ue
Ġcompl iment
ĠAdv anced
Ġwas hing
Ġback up
Ġg host
ĠB illy
Ġadvent ures
ost ic
ĠSo on
Ġab ortion
Ġch airs
os ph
ĠFriend s
ethe less
ass es
f irst
e em
Ġtit led
Ġb ot
D irect
Ġp atch
Ġdiagn osed
ĠN az
Ġp ants
c s
Ġinflu enced
Ġ0 7
B et
} ^
Ġdisp ute
Ġjud ges
Ġdiscuss ing
Ġt ear
Ġprogress ive
ĠAN Y
Ġtremend ous
Ġco in
ĠNot hing
Ġd ying
Ġt ies
Ġmanif est
Ġscholars hip
Ã ¨
ful ness
Ġhand ed
Ġw age
ĠH ost
P al
Ġdesign ing
k ers
Ġcare ers
now ned
Ġ0 2
Ġarrange ment
Ġhand ful
Ð¾ Ð
ed u
ĠS ug
Ġo z
Q U
r ange
Ġretail ers
Ġremind ed
à ¥
l u
Ġdeterm ining
ĠCh annel
Ġbul k
Ġtw ist
itt ers
im s
Ġpre ferences
Ġredu ces
L D
N Y
Ġsec ured
ab s
Ġoverse as
r idge
ĠSov iet
au x
Ġexhib it
ĠA th
ĠN ation
Ġp ione
Ġsh ame
Ġtechn ological
Ġ198 9
Ġcorpor ations
Ġattempt ing
ĠAs k
ĠPh ill
Ġrel ate
Ġcontact s
aught ers
ĠE C
ĠG as
Ġprecise ly
Ġpull ing
aren cy
ĠMay or
Ġcolle ges
Ġpersonal ized
Ġsn ap
ĠR and
m outh
Ġsp ir
are st
Ġb in
Ġb oring
Ġas h
Ġle ase
Ġwarn ed
ĠTe xt
J e
anc ouver
d i
ĠV in
ipp i
Ġthe atre
Ġoffer ings
Ġcomp osed
cl osure
ĠEm pire
ip es
olit an
er on
ĠUS D
ĠN E
Ġaddress ing
Ġtoile t
Ġ5 6
m g
ĠEx cell
lish ing
he rent
l ar
oc a
Ġproceed ings
Ġ5 3
I B
pl ates
Ċ Ċ
ĠH al
Ġfear s
au c
ĠAl tern
Ġir rit
ĠB ol
Ġthrow ing
t own
!! !!
ĠL anguage
Ġbed s
Ġâ Ĩ
Ġhe nce
ul in
s l
Ġgood bye
Ġpoll ution
ig e
Ġt ale
iam ond
m atic
Ġengine er
Ġcogn itive
D oes
ĠRet urn
Ġcal ories
Don ald
ĠP ear
20 21
u h
Ġsurf aces
ĠTra il
Ġsh ade
Ġass ured
ing e
i ar
c ount
Ġj ar
Ġa uction
200 7
Ġentreprene ur
Ġtru cks
spe cific
Ġshe ets
alt ies
Ġhand y
Ġincorpor ate
ĠPr inci
Ġwe lf
Ġconf idential
w ind
Ġcollect ing
Ġint rig
Ġbel oved
Ġw are
ĠE mb
O pen
Ġvert ical
Ġmechan isms
al pha
vel and
Ġstake holders
am ous
ĠC ow
Ġdef ic
Ġch ip
Ġcle ver
Ġcab inet
Ġ19 50
Ġy eah
Ġper pet
He alth
Ġsub tle
or ia
" )
Ġlaugh ing
st op
ut ers
ell a
AC T
Ġpropos als
Ġmeasure ment
I O
Ġwelf are
Ġt ire
est one
Ġad min
Ġfeed ing
Ġla wn
ĠS A
ĠIs lands
Ġport ray
Ġgirl friend
ĠRes erve
---- ----
ess ed
Ġv ib
ades h
L ife
ĠM ission
Ġsp an
Ġend e
Ġclin ic
Ġh iding
Ġexpect ing
Ġfro zen
Ġso ap
Ġanaly ze
ĠBe at
Ġelect ro
ĠP ick
M c
ik ip
ĠM O
Ġinst ances
Ġtr ash
ĠD ra
of fee
ĠInd eed
Ġcons olid
Ġstri p
Ġh arsh
it ations
ĠGirl s
ĠG ab
Ġvibr ant
ry ing
o vers
Ġuncom fortable
Ġt ang
em ption
Ġexpl oration
ĠTit le
ĠK y
Ġed ges
ĠO sc
ep s
b urn
Ġsa c
Ġwra pped
} )
Ġthe ore
ĠA B
Ġj azz
ĠF lo
Ġbatter ies
Ġent ities
Ġagric ulture
Ġent ries
Ġd ensity
Ġg ut
Ġtestim ony
Ġd ivers
Ġr ated
Ġd ess
Ġ0 3
Ġoil s
d am
cent ly
ĠU RL
i very
Ġst roke
Ġc ave
W atch
apt ers
rib ution
ĠEnter tainment
Ġdev oted
Ġcann abis
Ġreg ards
re ach
Ġs isters
Ġpro pri
ĠNether lands
H D
Ġnut s
Ġback ed
ĠT ree
ĠH ad
ĠC and
Ġt une
sec urity
Ġspecial ists
Ġland ed
Ġre vers
Ġsil ence
Ġpe er
ĠK itchen
on ia
Ġen roll
AC K
ond a
ĠR ap
Ġwhere ver
Ġfle et
Ġsqu ad
n ormal
t age
un s
Ġprof ound
Ġlob by
ĠC ape
Ġanal ys
Ġparticip ated
P ol
r ison
ad vant
Ġrat ings
ĠB ron
Ġc ited
Ġsurv iv
2 000
ĠCre ate
Ġm ud
ĠMiss iss
Ġentertain ing
ï ¿
Ġdis abilities
Q L
child ren
Ġref res
Ġ %
ir able
ĠTem ple
Ġgr id
ĠJ en
Ġleg ally
Ġgrad ually
arn er
Ġcalcul ated
Ġcompet ing
Ġto ss
Ġlabor atory
Ġre wards
Ġseem ingly
Ġveter ans
Ġcool ing
Ġqu it
Ġri val
ĠOr leans
Ġpar allel
ĠUn it
ĠS ource
J ack
Ġflo ors
Ġprov ince
Ġfig ured
Ġmod erate
ĠSing le
AS T
Ġh orn
ĠFl uffy
be at
Ġult ra
ĠN EW
ct ic
Ġlo aded
Ġb ark
Ġspons ored
Ġste re
Ġexcess ive
ĠPri ze
Ġshe lf
ĠSer ver
B ig
Ġtem por
Ġcontract or
Ġb udd
Ġam en
Ġdress ed
Ġautom ated
Ġen abled
ĠYOU R
ill ance
Ju ly
Ġam pl
ĠC hen
ĠE le
Ġag greg
Ġtour ist
Ġopt imal
Ġw ard
Ġpow ered
usal em
ĠAut om
Ġsupp lied
Ġmoist ure
bo ards
M us
ĠV A
Ġthere by
ĠDel hi
ĠWh it
Ġsh ake
Ġqual ities
ĠB ear
er als
p read
ĠFranc is
id ity
Ġp add
Ġmut ual
Ġw ides
Ġb ones
Ġfu ck
ĠClass ic
Ġart work
ĠC ash
, '
ĠSpr ings
Ġanaly tics
ĠB attle
ĠR aj
ĠR ound
pos ition
ar ia
Ġexcell ence
Ġdecl ined
Ġhom eless
ikip edia
Ġinvest ed
} _
ie re
edd ed
iag ra
Ġsh orter
Ġbott les
Ġmotiv ated
Ġprospect s
ĠL ot
ĠIn n
ĠRober ts
Ġcount s
oun ge
Ġvari able
ĠH an
Ġgl ob
Ġnot ion
Ġemb ra
Ġcount less
Ġun necess
ĠBel g
Ġdo zens
Ġres erv
in ates
com merce
ĠCour se
Ġgener ic
Ġemer ged
Ġsil ent
In c
n ut
ĠB ond
ph ant
Ġsimultane ously
Ġb ust
Ġapp l
Ġenjoy s
ĠI L
Ġconst ra
Ġpick s
Ġstim ul
Ġ( @
Ġsupp lier
b rew
Pub lished
Ġo k
ĠR ain
ĠTru e
ĠR O
ĠN urs
ĠS ab
ĠPort land
Ġall erg
Ġout er
e rest
Ġ \\
Ġ3 60
Ġg re
Ġb icy
ĠKenn edy
ĠMedic are
Ġjo ke
ĠGree ce
Ġsh y
ĠFollow ing
ĠCam bridge
M onday
b age
ĠN ear
Ġtast y
L ove
Wor ld
umn i
Ġrecommend ation
ĠF le
Ġdis abled
ĠG ary
Ġ ..
ĠSa udi
Ġtrad itions
ĠH em
Ġlog ic
St ate
pect ives
Ġsp are
Ġread s
p res
Ġsl ip
Ġen abling
ĠAm b
ĠTur k
Ġcl im
Ġadvoc ate
Ġsn ack
ĠO cc
Ġanticip ated
ĠDe b
Ġwond ered
Ġhy pot
ĠEv ents
ĠG ulf
Ġfail ing
f lix
s ized
ĠConst ruction
as ures
Ġin k
Ġliter ary
ĠCom pl
Ġrest ricted
Ġcru ise
w idth
Ġprocess or
ĠHam ilton
ĠA F
Ġear ning
Ġc ous
Ġsu its
g on
ĠSu ccess
Ġper ception
ic ut
ĠW ITH
Ġshap ed
ID S
ĠH ERE
Ġc um
ĠT el
Ġb other
ĠS ave
ĠCh amber
ateg ory
Ġadv ise
ĠF DA
Ġjack et
ail and
Ġrelax ed
Ġthe sis
am ine
Ġcomput ing
ir ates
Ġmin im
h ard
Ġdif fer
L a
Ġst rain
ĠSc ript
e ven
Ġrom ance
ĠLu ke
h ot
Ġg rain
Ġround s
Ġc ub
Ġvis a
Ġcompe lling
Ġpre st
ĠW E
Ġsh oe
he ld
h ave
ĠD E
ĠD iet
Ġin her
Ġincl usion
art s
Ġex pend
end ed
Ġbene ath
ĠE sc
v ada
Ġpers u
ows hip
ĠK ings
Ġ `
ĠSpe ed
Ġsque e
Ġfol k
Ġdist ricts
ty pe
own ed
Ġw and
Ġinv al
Ġsh ore
ĠCons ider
li est
Ġbless ed
Ġsh ipped
ĠT ips
cc a
Ġhand led
ĠS uddenly
ĠBru ce
Ġsh ield
umb ing
ber ries
Ġg ig
at ar
Ġconsult ant
Ġgrocer y
Ġplace ment
n atural
Ġestablish ing
Ġaud it
Ġtox ic
Ġ0 6
ĠS ony
Ġ0 4
Ġassum ed
iv ities
Ġtong ue
ĠBrook lyn
oy d
s ome
Ġcor ruption
Ġan x
g ic
ĠCom ment
Ġvol unt
ĠB rew
Ġmem orable
ĠChall enge
g ence
ather ine
pt ic
ĠMc K
it ual
Ġst ones
Ġf ails
Ġcrypt ocur
Ġc rop
Wh ich
Ġsatisf y
Ġbroad er
Ġmyster ious
Ġclass ical
Ġpl ates
Ġp ile
Ġsurv ived
it ched
Ġsh it
ist le
ï¿ ½
Ġacc idents
Ġscr atch
Ġcomplex ity
Ġorgan ize
Ġst opping
Ġ vel
Ġref lection
Ġworth y
Ġf oster
ch i
Ġbug s
Ġmarket place
Ġap olog
ĠPriv acy
ĠA qu
Ġinvest or
ĠIm age
Ġce re
che ll
Ġre actions
Ġdelight ed
S aturday
Us ing
ĠB irth
ĠT ell
ĠLook ing
Ġag ing
Ġeth ical
Ġaccom pany
ĠMar ia
Ġin hab
Ġkey board
blog spot
Ġr anks
G R
B ased
ĠSt adium
Ġprevent ing
Ġint u
ĠJer ry
S L
Ġunem ployment
ĠB iden
Ġr uled
g am
Ġapplic ants
ĠLead ership
Ġthreat ened
in ery
On line
ĠC T
Ġbo ots
Ġco ins
In ter
ã Ģ
or ient
at tered
st ruct
ĠHall oween
ag ine
Ġteac hes
Ġreported ly
Ġre n
ug g
? !
Aut hor
ĠBl ock
ĠAl aska
Ġrad iation
ĠIndust rial
Ġexper iments
Ġking dom
u z
Ġspe ll
ĠStr ateg
Re view
Ġab stract
Ġhar ass
ast ing
Ġst olen
Ġeas tern
ĠS EC
ĠCapt ain
Ġincorpor ated
ĠB M
Ġperm its
Ġsepar ated
m ay
Ġarr anged
Ġde ar
Ġhonest ly
ĠWalk er
Ġgen es
ĠInvest ment
Ġport able
Ġinsp iring
Ġconf usion
ĠF ab
u ations
ĠC ool
be y
Ġclaim ing
Ġar ise
Ġc ure
Ġconsec utive
Ġint ensity
Ġsupp ose
p ur
B R
ĠH op
Ġres erves
Ġra cial
Ġdim ensions
Ġinter pre
Ġs atellite
Ġ6 6
rapeut ic
ĠM ail
Ġan cest
az y
Ġpo em
Ġdiscount s
Ġcam ps
ane ous
Ġvari ations
f und
ĠR ather
Ġbeautiful ly
Ġgrow s
Ġproport ion
iss a
ĠPitt s
Ġp ays
ĠL ock
Ġt ennis
Ġre nder
Ġcorpor ation
el and
sh ine
ĠCent ury
ĠT otal
ĠY an
Ġutil izing
Ġdiscl osure
Ġaband oned
ĠJer usalem
Ġselect ing
D I
le nd
ĠM ars
M s
ĠW ire
Ġregard ed
Ġsu ite
Ġnegoti ations
Gener al
itzer land
Ġconscious ness
Ġdemand ing
Ġtra uma
Ġnon profit
Ġsur g
Ġm akers
ĠPrem ier
oty pe
Ġke en
m ad
Ġshe ep
Ġglass es
Ġvar ied
Ġsh r
Ġb io
Ġv ig
ĠD yn
Ġsymbol s
c ow
Ġ0 5
Ġdri ed
Ġ1 10
get s
ĠVol ume
ĠHer itage
ĠE V
ĠC orn
c ap
ke e
Ġun fortunately
oth y
ĠDe ep
ro duct
Ġbon uses
Ġwides pread
Ġcontrib uting
ĠL ater
ĠCast le
ĠSe veral
ric ane
Ġ198 8
Th ough
r ons
Ġaffect ing
ic op
ĠL am
Ġprom ising
ĠInst all
Ġst ays
ĠS W
ĠN ik
Ġbr ut
is ure
ĠRest aur
Ġcontract ors
Ġir re
en ged
Ġpass enger
ann ah
ant e
GB T
ĠJo in
Ġint ake
Ġj am
Ġhum or
Ġrepeated ly
Ġmar ine
Ġshe d
Ġattend ance
Ġb its
Ġfold er
ĠCom plete
op les
ĠRus sell
ĠPhilipp ines
ĠC rim
Ġass ists
ĠCharl ie
ĠSa fe
Ġj et
Ġdec iding
Ġbur ied
ĠG O
ic ular
igr ant
Ġb inding
ĠCo le
ic ts
d ers
Ġbo ats
Ġmeasure ments
Ġident ical
ĠCo ach
Oct ober
Ġd ive
me ga
Ġrout es
AS E
Ġown s
ĠM aking
ing le
Ġrank ing
ĠJ oy
Ġbar riers
Ġg ardens
ĠN ash
Ġsec urities
row ing
Ġ5 8
Ġw rest
Ġnice ly
us cript
ĠAss ess
ĠK ate
Ġbr ick
e ffective
hy d
ĠPh oenix
ĠJac ob
Ġfab ulous
Ġreven ues
Ġh oly
Ġr ust
ĠA BC
Ġver ify
Ġsh ine
ĠVal ent
Ġreflect ed
ĠW at
ce ive
200 6
Ġconcent r
N C
~ \
Ġcry stal
ĠL ane
Ġam id
Ġpra ise
Ġtw elve
ĠV ancouver
s k
________ ________
Ġbre ed
Ġcustom ized
Ġcelebr ating
Ġsc al
Ġcor rel
Ġbre ach
Ġprote ins
che stra
Ġtext s
Ġep ic
t ic
I AL
ur ious
le ading
Ġess ence
Ġexper imental
ĠGal axy
Ġed ited
Ġsecret ary
work ing
ĠQuest ions
re ated
Ġ5 7
Ġemb od
Ġpo ison
ru e
Ġn ap
Ã ±
Ġb inary
Ġm arch
Ġf ut
Ġout doors
Ġinstitution al
ĠF ish
Ġprotect ive
Ġa qu
S H
am ents
Ġbe aches
\\\\\\\\\\\\\\\\ \\\\\\\\\\\\\\\\
ĠDu ke
Ġrenew able
m ers
Ġwid th
Ġint imate
Ġtransp arent
Ġun p
pl an
Ġprior ities
ĠCle veland
Ġg est
ĠSch olars
v able
od ed
Ġal ien
ĠFr an
b es
g ate
ĠD ak
Ġgovern ance
out heast
ĠB apt
Ġst er
Ġlab els
c d
ĠC ann
ĠGl ass
Ġgu ided
sh ore
Ġblank et
Aug ust
Ġcloud s
Ġminor ity
z o
ĠMississ ippi
ĠComp anies
Ġappreci ation
ol k
ĠG race
ĠA pr
Ġread ily
Ġg rey
ĠG ib
Ġcond em
Ġre aches
Ġreferr ing
Ġsa ke
ape l
Ġtour ists
Ġmother s
ĠAl ways
Ġloc ate
ar o
ur red
Ġal uminum
Ġoppon ents
Ġu gly
Ġfar mer
Ġsusp ension
Ġfl ags
Ġutil ized
ĠJust in
qu er
Ġrep orter
C le
G en
ange l
ĠB ath
ĠSur vey
ad i
Ġjournal ists
Ġsub mission
Ġsitu ated
at on
Ġcreat ures
ĠC ou
ĠUn like
Ġtable ts
Ġins pect
Ġble w
P ublic
ol as
ĠUr ban
Ġclass ified
ru p
Ġwh oles
cept ions
ĠN ative
are r
Ġco pper
th od
ĠD ance
P E
az ines
Ġr ings
Ġch opped
Ġuncertain ty
n i
Ġne at
ĠM E
Ġclimb ing
ĠJon athan
Ġjournal ist
em et
pt ions
Ġrep rodu
Ġdark ness
Ġnation wide
Ġsynd rome
ĠH o
Ġcontrovers ial
ĠSwed en
g s
vern ment
Ġfo am
im mer
IT E
EL L
Ġfoot age
ĠB esides
ĠN ich
ĠF reedom
h r
Ġex terior
ĠSt ay
s chool
ar ity
ress ing
Ġre ct
ĠPer fect
ĠF at
enn a
Ġle ak
Ġconver ted
Ġpot atoes
ĠAnd re
ĠC old
Ġret reat
com ed
M ark
ĠL arge
ĠWith in
he w
ĠB uck
OR T
ĠW olf
ĠB B
ĠAl an
b ig
Ġel ite
g oogle
Ġd ash
e y
i ov
ĠC art
ug s
Ġcont rary
Ġlab our
ĠC opyright
Me anwhile
Ġacc red
ĠMag ic
Ġexam ined
ĠF alls
S ometimes
ĠH ig
Ġcat alog
ĠN ort
s ur
B ar
Ġshould ers
Ġcourt esy
ĠPro p
Ġaccept ing
Ġres on
st ruction
w hen
p i
ib bean
oc ate
Ġrelax ing
ĠInc re
ĠCe lebr
ĠR ow
Sept ember
Ġt att
On ly
arm a
ĠE aster
Ġch amber
Ġstri ve
Ġper ceived
Ġmed itation
ĠSus an
ĠC her
b ird
er ator
ĠDise ase
An na
RO M
Ġref use
ĠR ace
pro du
Ġaddition ally
ĠMc G
h ar
Ġwell ness
Ġg aining
e ared
ĠB ah
Ġteasp oon
ĠV it
m itting
. :
Ġbu nd
Ġball oon
rol og
ĠCom mercial
Ġclean ed
7 00
w er
Ġany time
Ġte ens
ĠE mma
Ġover look
ĠC os
ĠM R
ĠThom pson
fl u
ĠCom merce
n ote
k m
Ġprev al
Ġreason ably
Ġappro ached
Ġisol ated
ĠC ould
Ġm um
Ġte nds
ol ine
Ġav o
ĠP il
Ġtra ils
Ġcos m
Ġep id
Ġsupport ive
ĠMel bourne
Ġgr an
st ock
Ġm unicipal
iz able
ĠTr ad
um ing
ch air
ĠAmend ment
Ġnot able
Ġwhe at
Ġcur ve
ĠS om
Ġhe m
j ack
h as
Ġdo ct
ra ham
Ġsacr ifice
er ver
ĠDom in
L ist
ens ively
ĠExpl ore
ĠJim my
Th ursday
Ġpros per
Ġign ored
Ġ6 2
ĠP ath
w ick
Ġlegisl ative
Ġre nowned
Ġpsych ology
bre aking
ĠMuslim s
c os
Ġst ainless
ĠAnton io
Ġrem ed
ĠT X
h ou
Ġenc ry
ĠM L
ĠB us
ĠOther s
OR D
is ons
ĠMar g
Ġstrugg les
Ġtr icks
Ġbankrupt cy
Ġoppon ent
c at
ĠSen ator
Ġpros pective
Ġsty lish
Sec ond
G M
Ġover t
Ġ5 9
Ġdelic ate
pe red
Ġjump ing
Ġcollabor ative
Ġfair y
ĠD er
Ġmoment um
Ġstraight forward
ĠIs a
Ġhyd ro
Ke ep
Ġpe ers
Ġmeas uring
Jan uary
Ġly rics
Ġrest oration
ĠBalt imore
bel ie
Ġboy friend
Ġt orn
iction ary
ĠC M
Ġr ally
Cont in
Ġcar b
ig ue
h ill
Ġapp les
ĠDou ble
l an
ĠSim ply
Ġac ute
Ġpubl isher
ĠHawai i
ĠM un
Ġexecut ives
Com p
ĠTreat ment
u i
ĠE R
Ġm aker
Ġphenomen on
ĠTh ailand
Ġremind er
Ġkil omet
Ġimm igrants
Ġconduct ing
Ġcapt ain
Ġs ang
Ġn ail
D ep
ĠShe l
ĠL ad
ĠCl imate
ari os
Ġmanufact ured
Ġis lands
Ġphys icians
Ġsem ester
ĠH ung
ĠHigh way
ĠS i
Ġconst itutional
ĠLe ave
C ome
Ġd aughters
dri ven
Ġlike wise
is ers
amb da
Ġattack ed
Ġreli ability
ĠT oo
Ġtouch down
app ropri
ort ed
medi ate
ĠConnect icut
Ġn it
Ġdif f
Ġlo ads
Ġpartners hips
ah oo
c op
Ġf lesh
p df
h attan
Ġint r
Th ree
ĠR ule
ĠP as
Ġval ued
Ġm art
ais y
ĠR ules
C ustom
am on
Ġalbum s
Ġmus h
Ġn aked
ĠP ant
Ġout fit
Follow ing
ic he
Ġbad ly
ard less
ĠB or
Ġnovel s
Ġcross ed
ĠS ustain
ĠMe anwhile
Ġcoron avirus
or ph
ĠG ordon
Ġfa cial
b n
P aul
Ġre vel
Ġpri est
Ġb er
Ke y
Ġrecip ient
ograph ical
Ġconfirm ation
ĠLouis iana
Ġhighlight ed
ĠL iver
oo ps
Ġ198 7
ĠG iven
Ġintern ationally
Ġhead quarters
CA A
et ics
Ġ10 1
clus ive
ĠTechn ical
ĠEnter prise
emet ery
Ġind irect
Ġvari ables
am ins
Ġl ately
Ġon ion
Ġshow case
ĠM agn
l on
p in
pr ing
Ġut ter
Ġcust ody
ĠCir cuit
Ġbutter fly
Ġpresent ations
ĠLaw rence
Ġ198 6
Ġdes ires
ĠH it
ĠK it
Ġw ages
Ġli able
ĠLeg isl
Ġexpl aining
Ġ à¤
ĠScott ish
Ġclos est
Ġbehav iors
Ġcontact ed
Ġp y
Ġpres um
m u
Ġfunction ing
ĠCons erv
Ġfavor ites
Ġhon ored
sh ot
ac hers
Ġunder ground
Ġrece iver
iv als
ĠRec ord
ĠAr gent
ur u
ag ger
Ġsuspend ed
ĠPlay er
ĠBe ck
ĠM and
ĠClin ical
ĠIntell igence
V P
Ġflav ors
um ble
Ġsurg ical
Ġattract ed
Ġdiv ine
Ġha ck
do i
Ġpar liament
= "
ĠS ri
ĠSw itzerland
ĠG P
Ġunt o
B ob
W S
Ġpoint ing
Ġappe aling
Ġan th
cy cl
ĠRes ults
Ġlog in
for ced
ĠF ant
T uesday
Ġfl aw
S en
C P
Ġpri zes
Ġcont roller
Ġpresent ing
ol ves
ass ador
ĠIndones ia
Ġglob ally
ĠF ile
ĠH E
ĠAnge l
ĠReg ion
N ovember
Ġded ication
ate ur
amp a
ĠAl ong
ĠIm ages
ag u
h at
Ġcrit ics
Ġbet s
ĠG ate
ac o
F igure
Ġmod ify
m aker
ĠChrist opher
Ġw oke
Ġcan cel
Ġsuper b
ĠTH IS
Ġvessel s
ĠD iamond
ĠJenn ifer
Ġdisapp ear
am el
w oman
Ġvac uum
Ġdraw s
Ġwel comed
ĠS ER
Ġpat ience
ĠCommission er
Mich ael
uss y
ĠP ric
ĠIm port
Ġunnecess ary
Ġv ir
w estern
Ġnutri ents
ĠF BI
Ġfre el
W ednesday
Ġworld s
Ġlit igation
ĠM B
ĠPart icip
Ġmagn etic
Ġste ep
Ġhaz ard
S earch
IG HT
Ġwealth y
ĠAd ams
N ational
|| $
Ġalleged ly
Ġorient ation
Ġgr ades
v ised
Ġpath s
i op
ĠP resent
Ġsy mp
Ġp ension
Ġdecre ased
ĠE P
Ġvend or
Ġneigh bour
Ġwarm ing
re amed
Ġp unch
tra ck
Ġeconom ics
Ġsubsequ ently
Ġmob ility
an ne
ĠA part
Ċ ĠĠĠ
Ġsubst itute
ar ious
Ġf itting
Ġro pe
Ġbu zz
200 5
p g
Ġintegr ate
ĠMain e
S outh
oc y
Ġprivile ge
Ġlo vers
Ġfree ly
Ġend orse
dep th
Ġshout ed
Ġflow s
spe ed
Ġsepar ately
ĠMov ie
ivid ually
ĠEconom ics
Ġkick ed
ask et
Ġro d
ĠTechn ologies
Ġ* ||
Ġsw ord
b ian
Ġlone ly
Ġ3 50
Ġadjust ed
Ġbit ter
ĠImp act
S unday
ĠRe lease
gl as
Ġthe ft
ĠN elson
Ġterror ist
com pass
Ġtransp arency
Ġpartic les
P oint
worth y
D et
Ġstick s
Ġsec rets
IC K
W est
Ġn a
Ġh ockey
ĠO bs
ky o
Ġchall enged
ĠDirect ors
ĠNet flix
ĠR oc
ul u
Ġobtain ing
Ġcontinu ously
Ġshow c
Ġdeal t
F S
Ġh iking
Ġequ ality
L ink
v ance
Ġinflamm ation
. ),
us er
Ġr itual
Ġclar ity
Ġ6 3
Ġdrag on
Ġcost ly
Y eah
Ġvers atile
Ġlight weight
Ġsepar ation
w en
Ġpre view
Ġlegend ary
Ġatt ractions
ĠM ix
ĠW ant
Ġautom ation
Ġcomm od
Ġdepart ure
Ġco inc
Ġback yard
Ġstrugg led
Ġtransform ed
Ġaccur ately
Ġwithdraw al
ĠM as
Ġsuggest ing
ĠH ug
Ġterm inal
ĠG A
f ight
OU R
Ġcon ferences
Ġbar rier
B usiness
Ġmix ing
Ġfun eral
ĠPol and
Ġdis advant
ĠWay ne
ĠP od
a ired
Ġb ay
ĠCo ver
. ]
Ġ198 4
Ġpen et
in ance
Ġdist ract
ĠR u
e ous
ĠSte wart
Ġdraw ings
ĠW orth
Ġmand atory
s um
all ing
Ġr ic
pos ed
Ġrespect ed
l arge
Ġvari ation
Ġw ars
Ġcoc onut
ĠSt op
Ġrepl acing
ĠB R
ĠAP I
Ġprov in
Ġdump ster
Ġlin ear
oll ar
ĠL GBT
Ġdis k
ĠSt yle
Ġblock ed
Ġpu zzle
ĠMalays ia
ĠDe al
ĠS weet
ĠV i
ĠH ousing
Ġre nd
Ġaut on
ĠCar ibbean
Ġmod est
Ġindepend ently
j u
ĠAssoci ate
ĠCar ter
Rem ember
Ġc ush
ĠW right
Ġdram atically
al ia
Ġapplic ant
Ġform ats
Ġle verage
ist ant
ĠIn novation
ĠF ell
Ġdiam eter
Ġsust ained
id ges
Ġcon vention
Ġcou ch
ĠAdminist r
ĠB oo
Ġprop ag
Ġbe e
Ġform ing
Ġun pre
ĠSt ra
Ġun limited
cont ent
Feb ruary
Be ing
Ġpro l
ur ring
Ġsubscrib e
Ġinf ant
Ġencoura ges
F urther
Ġcomb ines
Ġloyal ty
Ġp ant
as ury
Ġspecial ty
Ġlibr aries
ĠS in
Ġthe ories
Ġdisag ree
ĠNe vada
Ġd ated
Ġalleg ations
a fe
Ġchart s
Ġamen ities
Ġp ine
m al
Ġw ines
V C
Ġtrave lling
d y
l ay
m aster
er gy
Ġpu ppy
D el
edd y
ren cies
ure rs
Ġstrength s
ist ance
ĠW oman
. ).
ĠLink ed
ar ound
Ġtravel ed
s ervice
U K
je ctions
Ġpart ial
Ġr ubb
ad ows
Ġthank ful
Ġch ains
os a
ã ĥ
A nt
ĠCharl otte
qu es
on i
Ġevol ved
P erson
ĠBet ween
Ġpredict ed
Ġm aj
Ġmerch and
umb led
qu al
Ġfr ames
Ã §
ĠQue ens
Ġden y
an cer
Ġmin eral
Ġactiv ists
rop olitan
Ġb ol
Ġsu ited
Ġtarget ing
t wo
Ġf er
che ck
M at
rit is
arch y
Ġb ored
Ġth umb
ĠR isk
is ode
Ġfr ight
ym ph
ĠDub ai
ĠSch olar
Ġamend ment
f are
Ġunder graduate
Ġtradem ark
ap or
ĠBarb ara
Ġclos et
Ġdef ence
Ġathlet ic
on ge
ĠL em
Ġhealth ier
Ġsen iors
ĠUp date
Ġst adium
Ġnurs es
ĠIss ue
h u
ĠFe atures
ï ¼
Ġopt ional
ĠE S
ĠApp ro
Ġmin imize
Ġthr illed
ĠPitts burgh
st age
ĠS alt
r in
Ġex cuse
I E
Ġphys ics
Ġcon gress
Ġmount ed
P H
chn ology
ĠF igure
Pres ident
Ġinte nd
ĠInd ividual
Ġtra ged
ĠFl ash
a ci
Ġp ose
Ġpric ed
ist ically
ĠP ope
Ġg au
Ġchem istry
ĠCo ord
S ur
R ec
Ġspokes man
Ġch ampions
Ġ198 5
ĠR ot
Ġimm ense
Ġlau ndry
ne red
Ġcontro lling
ĠHy d
pro duct
Ġmag azines
ĠFed eration
Ġl ap
ĠDet ails
M art
ose x
ĠChe l
Ġsa fer
Ġ18 0
ĠZ e
Ġbul let
eral d
Ġobserv ations
ã ģ
Ġt ar
Ġc ree
Ġr amp
Ġshock ed
Ġto b
Ġas leep
Ġsurve illance
Ġdomin ant
ĠIn iti
Ġinf ring
ĠH A
) \
c led
heim er
Ġb orders
Ċ Ġ
Ġsm iles
Ġcharm ing
ĠN J
b ably
Ġimp osed
ibl ical
ĠThe rapy
ro be
Ġrad i
Ġmon etary
Ġg rip
Ġn erve
Ġexecut ed
ĠE lement
ft y
Ġelectron ics
ĠPalestin ian
Ġunderstand s
Ġcrus her
ze ch
Ġth resh
Ġfrustr ated
Ġdist ant
Ġneg lig
omet ric
ĠT ommy
Ġcap s
n on
E uro
ĠM C
Ġprint s
ĠVal ue
Ġsc rap
at ility
ĠSc reen
Ġvisit or
F ull
ĠG ov
Ġinstruct or
Ġearth qu
Ġp ix
Ġg el
Ġpr inter
Ġde lete
Ġpast a
g reen
Ġinnoc ent
ĠFa ith
ol ester
Ġlif ted
ri ving
ĠCh i
ĠB aker
De cember
Ġnavig ation
ĠT ower
Ġprof itable
Ġf ate
ĠMan hattan
ĠAr thur
Ġcompl ain
ĠG R
J ul
ren a
ne ath
ĠMin i
bu ilding
Ġspeed s
re lla
Ġgener ating
Ġdyn amics
ĠW ine
Sh are
Ġbre w
urch ase
Ġmil it
Ġqu oted
G S
L u
Ġste al
Ġsevent h
Ġprohib ited
con f
ĠAnt i
Ġdig est
Ġstart up
Ġinfect ed
Ġb ump
Ġdirect ory
ĠB art
Ġswe at
Ġnews papers
Ġstri kes
ĠSol ar
ĠTai wan
Ġvol umes
Ġtal ents
Ġviol ations
ĠL uther
m ary
ĠCra ig
Ġexp ed
it utes
ĠThanks giving
ĠF ocus
Ġdes p
ve ment
Ġa rom
Ġinc idents
Ġobs ervation
Ġpre ference
r ors
Ġ6 8
ol o
ink le
Ġincor rect
Ġpost er
ul ent
Ġsub t
Ġfil mm
Ġqu een
Ġpro x
Ġdest inations
Ġfound ing
Ġbe ating
u ced
Ġst abil
ont al
cipl inary
d ig
ĠB io
al so
G O
ĠRes ort
Ġpract icing
Ġhigh way
ps y
ĠCond itions
Ġim aging
Ġdem ocratic
st airs
ĠGra ham
Ġcirc les
ĠTransport ation
Ġveget able
ĠCommun ication
Ġj er
ĠH air
s im
M em
Ġfl ip
om as
u ity
conom ic
Ġcon tend
ĠEmer gency
Ġm ice
Ġpursu ing
ud s
ĠR at
Ġn od
Ġpromot ed
Ġsurve ys
Ġign or
Ġrel atives
ij ing
s ize
ĠP ent
ĠK rist
Ġle ver
Ġalgorith m
hes s
Ġb esides
Ġtw in
Ġdownload ed
ĠRob inson
Ġsol ving
Ġc ents
id el
M B
con nect
Ġconsum e
Ġinter rupt
Ġdefe ated
Ġtail ored
ĠTe a
ĠS ett
Ġm igration
Ġcomp ound
ve t
Ġmax imize
S ue
cent ury
Ġconflic ts
ĠMil itary
ĠTo kyo
Ġprogram mes
p her
Ù Ħ
Ġbuild s
Ġcount ies
Ġdis ci
P ay
R ight
Ġnow here
Ġadapt ed
Ġstress ed
Ġenhance ment
ĠC itiz
ĠStr ategy
We b
.. ...
ĠL ux
ĠFrank lin
St ill
Ġtrans it
Ġburn ed
Ġtra ins
ĠF resh
Ġdim in
ĠG a
F R
C OM
ĠR ab
l ie
u it
ĠT ob
Ġin equ
ĠCur rently
Ġsurprising ly
Ġcoll apse
Ġfil ters
Ġgr asp
en cer
ĠP ra
Ġw ound
ĠA aron
Un fortunately
ĠJ obs
Ġdro pping
ĠChristian ity
Ġfin an
anc ers
it le
ĠBel ow
em ade
Ġinstall ing
Ġquarter back
Ġproceed s
ble m
ru b
Ġscen arios
Ġt ens
Ġhousehold s
Ġappl iances
Ġwa ist
Ġadv ances
ĠEm ily
st an
st ick
ĠM all
ĠS ad
ourn als
th ird
ĠPat ri
ĠO tt
p ace
The ir
Ġch apters
Â »
Ġbur st
Ġ6 7
Ġachieve ments
ell ed
Ġdon ated
ĠCor ps
f i
ĠPre p
Ġk iller
ĠInt el
ĠD ating
gg ing
ond e
Ġde le
ĠCorpor ate
N D
Ġdistinct ive
idd ing
ĠF ine
Ġd ont
Ġtact ics
ĠHun ter
Ġacknowled ged
Ġoccup ied
B ER
ust ral
Ġmetab ol
Ġnot ification
ĠB O
Ġ> >
Ġfarm ing
Ġven ues
C ent
ĠWar ren
Ġ ]
Ġsn acks
Ġamaz ed
Ġsh ar
Ġcondition ing
Ġexist ed
Ġcompan ion
Ġspecific ations
Ġresol ved
Ġresist ant
âĢ¦ âĢĿ
ĠOper ations
Ġre nov
land o
ĠCle ar
ount ain
ĠCamp bell
Ġappear ances
ĠIndepend ent
Ġcol ored
P ar
Ġman uscript
ĠAn imal
Ġeduc ate
ĠF isher
ĠReg ister
ol ved
Ġind ividually
ias m
ĠCol lect
Ġre ass
Ġext rem
ĠCur rent
Ġwind s
ĠL ie
_ \
ke nds
ON E
Ġl ighter
Ġbrief ly
Ġprior it
Ġdes erves
Ġpo ckets
N orth
Ġorder ing
iff s
Ġsoon er
Ã³ n
Ġrecruit ment
Ġadvis or
ĠLaur a
ĠUs ers
P ER
Ġ6 1
ci um
Ġun ve
ĠLead er
arm s
Ġ {
ential s
Ġinflu ences
Ġcy cl
Ġincl usive
ank a
Ġvari eties
Ġlist ings
i aries
ĠF em
b ie
Ġprec ision
Ġpart ly
ĠJun ior
Ġlaunch ing
Ġpres cribed
Ġt ires
Ġinn ings
ph i
Ġb out
Ġreport ers
Ġtomat oes
form ed
Ġh ike
Ġeduc ated
Ġh int
Ġhome work
ĠH us
Ġar c
Ġcamp ing
ad ays
k g
ĠS ay
Ġsens itivity
ĠC ars
Ġen act
ar lier
Ġhe d
Ġappear ing
ĠLab our
ĠB eth
ĠMos cow
Ġavoid ing
ing ing
Ġintegr al
be c
yl on
ĠA y
ĠC offee
ĠT ar
Ġh ills
Ġcounter part
ĠP ink
Ġpen is
it ol
Ġprot ests
Ġpart ially
Ġur ge
ard o
Su per
Ġconv ince
ĠGu id
Ġconv icted
Ġattrib utes
Ġpipe line
j an
Ġthro at
ĠI RS
EN D
mark s
Ġdo i
iv ic
00 00
Ġsu p
Ġbi as
Ġpers pectives
ĠS oul
st ration
Ġcount ing
U I
u v
as ive
ĠArch ives
Ġlong est
Ġcro ps
Ġemb edded
Ġatt raction
Ġanaly sts
Ġline up
ĠR achel
Ġdim ension
Ġfat al
1 20
Ġport al
Ġremind s
ĠT arget
ĠBlo om
re ate
ĠC raft
am med
ĠK al
ass y
ĠMad ison
1 10
h h
Ġb ikes
Ġhomeown ers
Ġvis ibility
Ġbelong s
id y
ĠPolit ical
Ġbu cket
ĠSum mit
Ġo un
ig hed
ĠDrag on
ĠNY C
ag g
th an
Ġval ley
Ġcompl ications
Ġaccess ed
ĠE ST
ge red
Ġsens ors
ans hip
Ġout lets
ĠG er
Ġca ution
AR E
ĠL oss
ĠKh an
Ġcorn ers
Ġun h
ĠG PS
ĠE li
Ġdist inction
in yl
Ġde er
es ity
qu et
Ġorgan izing
ĠV ersion
Ġrefuge es
Ġb rowse
Ġcontin ually
Ġconsist ency
ern and
Ġpharm aceutical
K now
AS S
eb ook
Ġr anges
ĠV iol
C are
Ġeth ics
ĠDak ota
Ġeas iest
Ġf isher
ĠAdd itional
ĠCons umer
ip h
Ġlog ical
Ġdeal ers
Ġcross ing
Ġh ood
Ġpun ishment
ĠCert ified
ment ed
olester ol
Ġdescrib ing
ĠL uck
ĠH ans
ĠSw iss
ĠN at
ĠMor ris
Ġbr on
ĠS leep
Ġl un
ĠP in
ĠSt ars
Ġeditor ial
Ġf oss
S et
Ġdetect ed
f old
Ġdelay ed
J ames
S uddenly
Ġoccas ional
ĠGet ting
ĠCol omb
Ġsk ip
S D
Ġseason al
Ġstrict ly
Ġcont am
ĠOsc ar
ro se
Ġpan ic
e le
Ġt ags
Ġast ron
Ġman ages
Â £
e lect
pl ess
Ġcompar able
ĠComm ons
ĠF ashion
Ġ verse
Ġbas ics
ĠHol iday
Ġgrad uation
Ġspot ted
iz on
ĠProgram s
Ġmusic ian
Ã Ĥ
L P
Ġinv itation
ĠR ol
Ġcounsel ing
ĠUnivers al
Ġgrad uates
Ġorganiz ational
M E
qu ire
ĠB achelor
ĠNAS A
Ġanaly st
Ġcont rad
Ġdi agram
ĠPl atform
Ġreg ret
Ġel abor
ĠA le
Ġmed i
d irect
Ġsci ences
g un
Ġtem plates
V ol
w atch
Ġthe rapeutic
ĠW A
Ġb anned
Ġpress ing
Ch ild
ĠV irtual
Ġo d
ĠL arry
Ġdress ing
Spe cial
Ġhold er
W ant
Ġcomprom ise
Ġsubst ances
ĠCov id
Ġmet h
ĠPark er
Ġfu cking
m art
d ered
Ġrec overed
ĠSu ite
w ritten
ĠS ens
omet er
ac ies
ĠE ye
Ġappet ite
ĠSe an
ION S
ĠH ence
Ġmod es
Ġeval uated
n ings
he ro
Ġg ospel
Ġde ce
bb ing
str ong
Ġd ign
ĠGu y
Ġbe ars
Ġsh ook
DA Y
Ġfr idge
math bb
Ġnot ing
ĠBenef its
ĠSh ipping
ĠW onder
Ġpro st
Ġwal let
Ġpromot ional
Pl ay
Ġaest hetic
Ġp ad
ĠCo al
Ġimpro ves
ĠO ften
og an
Ġhero es
Ġconv iction
ĠUp on
mind ed
T ags
Ġp aste
u ments
iv an
Ġbus h
Ġsn ake
Ġcl ay
is p
Ġhel icop
ed ed
ir s
Ġmar ry
Ġ7 6
Ġj unk
ĠG round
Ġvol tage
ro lling
Ġrest ored
Ġtob acco
Ġb ases
ĠG B
Ġlo ver
Ġ7 8
Ġadj acent
Ġinquir y
Ġconsist ing
Ġac ids
OS T
ĠQ ual
Ġind ication
b ase
Ġair line
Ġpromot ions
Ġre un
om er
M R
Ġstat istical
c in
Ġintrodu cing
p ub
Ġdec ides
Ġexpect s
T w
Ġspons or
Ġanx ious
Ġprob ability
Ġconst itute
te es
Ġafter wards
T ech
ane an
ĠCoun sel
200 4
ach t
Ġsubstant ially
ud ge
Ġf et
Ġ9 8
ĠF u
m i
Ġsus pected
Ġgrand mother
Ġcon greg
Ġg em
Ġlo cks
Ġm ales
ĠK ay
Ġen zy
ĠD at
Ġ7 00
ĠT rain
ĠTr uth
an as
olog ically
qu est
Ġcontain ers
ĠW ard
Ġr ides
Ġbenef ic
ĠMet ro
ĠX box
Ġp airs
Ġtra ce
k ward
ĠAl ice
! ).
Ġconj unction
Ġdem o
Ġtransl ated
ĠR idge
Ġpray ers
Ġflo ating
ĠP ap
Ġn an
Ġbra ce
n or
ĠCr ime
Ġto ll
Ġmagn ific
S an
Ġst airs
Ġp ound
ĠG ift
wh ite
e ks
Ġe rect
sp ace
Ġcle ans
orient ed
um atic
th on
Ġdon ate
ĠBroad way
ens ed
Ġinvestig ations
Ġwas hed
ĠPal ace
tain ing
Ġpen cil
Ġtast es
Ġmay or
l am
Ġbase ment
ĠO d
in come
B ay
Ġpre lim
ĠY ellow
ĠM ath
g ans
ĠG ay
Ġsp at
Ġdig it
G reen
Ġra ises
Ġproject ed
Ġt ropical
ling ton
ĠColl ins
ĠBr un
OR K
AS H
ĠB L
f ive
ĠB udget
Ġaccording ly
o ks
Ġsac red
Ġcon sole
ĠF er
Ġopt ical
ĠD R
c am
ut ory
Ġ6 9
Ġ1 30
Ġinflu ential
ĠF ig
Ġre ign
ĠS omething
D ata
Ġrecy cling
Ġdistrib ute
ĠMult i
Ġbes ide
Ġsa ves
Ġp ale
Ġl amp
ĠD a
Ġl bs
Ġso vere
ced ented
Ġ ||
Ġblog ging
Ġad oles
Ġconst itution
Ġinvestig ating
te lling
Ġf itted
Ġprest igious
Ġra pe
g ins
Ġunder neath
} _{
Ġcelebr ity
if iable
ĠIS O
Ġingred ient
H ist
Ġenthus iasm
ĠMarsh all
Ġb ubble
ll ers
ĠB ou
Ġvary ing
Im age
Ġsport ing
ĠPal m
Ġloc als
ĠLic ense
we alth
Ġvan illa
Ġsuggest ion
ĠS el
ĠD est
ĠHe at
Ġw re
ĠF am
ĠA RE
M D
ĠHe nd
du e
ĠTurk ish
Ġenter prises
ĠBe gin
ĠCN N
ch a
Ġ198 3
ĠG un
Ġtrans cript
ĠW a
r ates
ĠT odd
200 3
Ġfirm ly
Ġwel coming
ĠBapt ist
Ġcomment ary
ĠBr ight
Ġw ax
Ġanim ation
Ġappro aching
Ġcoast al
Ġdead ly
Ġ7 7
Ġp udd
ee ee
c ules
ĠL if
Ġtherm al
Ġst ating
uis ine
Ġdef icit
Ġsend s
} ^{
ĠMon itor
Ġher bs
vers ion
Ġbo oth
Ġin ject
Ġdesper ate
oura ge
Ġf ox
Ġf are
B E
Ġt sp
li ver
B r
Ġd airy
Ġam bit
Ġs ized
ĠAth let
Ġrock et
ĠJ azz
Ġ9 7
ĠComm and
Ġadjust ments
ri v
Ġnic he
Ġf ract
ard ed
op ard
Ġthere of
Ġpen alties
ĠTH AT
Ġterror ism
j amin
ĠD im
Ġmotor cycle
ĠPer ry
ĠInd ians
Ġj aw
R ich
ĠA bs
Ġassoci ations
ro ck
ĠN ep
Ġpo le
Ġc er
Ġout let
ĠEd ge
ĠV erm
Ġreward ing
oub ted
ĠJ oh
) -
Ġfor ums
ĠPro s
as is
ĠV oice
ĠHe aven
F O
ĠJ ava
ĠDI Y
th a
Ġdepos its
ĠNever theless
Ġcharacter ized
Ġadvoc acy
ĠNe g
ĠResp ons
ie val
b ul
Ġwitness es
ĠR ES
Ġspread ing
d iv
ĠPost ed
Ġfra ction
Ġsp oon
Ġl ined
ĠSim ple
Ġbu ck
Ġsh ining
ĠMit chell
Ġmiss ions
sec ond
pir acy
ĠDel ivery
Ġch ick
ĠF if
Ġstruct ured
ĠS au
Ġhor rible
Ġfloor ing
ĠF ra
Ġp orts
OU T
Ã Ĺ
Ġtravel s
ion ed
el ed
Ġz ip
Pre vious
V al
ĠSt ories
Ġknowledge able
Ġsold ier
h is
arent ly
Ġb om
ĠN CAA
ĠRog er
ĠK a
Ġbr ide
ĠAn im
Ġaff air
S O
anc ies
cel ona
Ġscient ist
ind ex
Ġadvoc ates
Ġregul ated
st art
ĠF ro
ĠMur ray
F in
id o
Ġaw a
ĠAud io
d et
Ġtri ple
ĠL E
ĠR ing
ĠNot es
ĠI R
Ġdispos al
Ġdys function
br is
m us
Ġmem br
Ġaff irm
Ġtherap ist
Ġgl uc
ĠDe fe
Ġcost ume
Ġrhyth m
ĠPro gress
Ġse ver
Ġp el
er to
ĠR A
Ġcomp ounds
Ġsell s
Ġmod ules
Ġcreat or
Ġb ree
ĠI an
Ġappoint ments
Ġsumm ar
c ulation
Ġback ing
ĠBe ijing
ĠMor ning
W A
d ing
Ġapart ments
ĠA CC
ĠGrow th
ĠLe o
ĠArk ansas
ĠDou glas
Ġp ear
Ġadjust ment
Ġpress ed
P ort
Ġbackground s
Ġun re
Ġconsequ ence
Ġdis g
Ġbed rooms
i per
Ġpractition ers
U E
ĠV ision
+ +
Ġcons ensus
Ġrese mb
Ġoccur ring
Ġfem ales
Cl ass
Ġno on
U RE
Ġval ve
cl ick
Ġassess ed
b in
N ever
r itional
Ġe ternal
ĠK u
Ġex empt
ĠC ream
em pl
ĠWh atever
ĠC ass
Ġrev ised
Ġmem orial
S w
Ġnecess ity
S pot
ĠPart ner
Ġb ail
B re
ĠO pportun
et ooth
ĠOver all
Ġpromot es
9 00
Ġneed ing
Ġf ires
ĠC BS
Ġun ions
Ġwitness ed
ĠC zech
ĠY e
Ġbi ology
Ġfort unate
Ġro ster
ĠCol on
Ġassist ed
out ube
Ġfe ather
Ġclos ure
Ġpot ato
Ġautom otive
Ġsand wich
ios ity
Ġpe oples
ĠLet ter
Ġse gments
Ġwat ches
Ġarchitect ural
Prof ess
Ġcou pled
Ġdam n
ĠG ospel
ĠU A
ĠRe ally
Ġunf air
ĠN BC
Ġvill ages
ĠGr ay
ĠFr ame
ĠRestaur ant
ill o
Ġfund ament
Un iversity
Ġprem ises
ĠH ud
AC E
ab ul
Ġmain tains
/ .
c ode
So cial
Ġnom inated
ĠF R
ĠMet al
Ġpract ically
re my
AC H
ĠF al
Ġret ro
Ġoptim ization
pa id
r ant
Ġroll s
ĠK night
Ġsl ides
hed ral
Ġ198 2
ĠAgric ulture
Ġdisapp eared
e fficient
ob i
ĠT a
al ign
Ġfif ty
Ġle nders
Ġv iral
ĠOlymp ics
Ġz ones
ĠArab ia
ron es
ul ator
Ġfaith ful
ĠPsych ology
Ġmole cular
iov ascular
Ġp ist
ica id
Ġact ed
Ġear liest
= \
Ġdom inated
act s
Ġhum ble
Ġh o
l ad
Ġtum or
Ġparticip ant
Ġfarm s
Ġtrib ute
ro e
Ġund ers
Ġplant ed
ĠAn sw
ĠB os
w p
Ġlo ading
ĠY oga
Ġve gan
Ġencount ered
ĠPre vention
ĠG raph
Ġl azy
ĠPan el
Ġmid st
Ġbatt les
Ġ197 9
Ġobst acles
le tt
Ġconc lude
Ġtra p
Ġar ising
Ġan k
oubted ly
Ġaw ful
Ġed itors
ĠEv ans
ĠU ntil
Ġstat ute
ung le
im i
ĠF IG
Ġp ending
im edia
ĠW elcome
ch ron
ĠBoy s
Ġpe an
Pro duct
Ġb ureau
Ġname ly
on z
ĠThe ater
ĠN ap
Ġ8 8
Ġret ention
st ud
Ġlect ure
low er
Ġen rolled
Ġimag ined
d rop
Ġbet a
ĠT ow
Ġincent ives
Ġw aved
ĠCare er
Ġn urt
ri ors
rou ps
appropri ate
Ġforest s
ock et
ĠRob in
Ġst iff
ĠDep uty
Hel p
um bers
Ġthreat ening
ĠSh an
R ober
Ġpo et
Ġdemonstr ates
Ġhand les
ĠO ri
Ġgl ue
le ton
Ġtomat o
th ink
r ise
ĠG T
am an
ĠIS BN
ĠBrother s
ĠBudd y
L ong
Ġdel ays
ĠT ol
Ġkey words
Ġcreat ure
ĠJohn ny
p ically
S ure
Ġsm iling
Ġtun nel
Ġun ited
ĠBe yond
Ġz oom
ie ve
ĠCamp aign
A ir
ĠðŁ Ļ
Ġt urt
Ġexpl ored
ac re
Ġsan ctions
ific ates
Ġstream s
Am ong
Ġr ul
bs p
st ory
ĠC V
Ġ19 30
Ġconcent rate
Ġb ubb
ĠKen ya
Ġy arn
Ġth rive
Ġcor rupt
sh irt
Ġd ot
ĠPub lishing
Ġunpre cedented
ĠD al
ĠHealth care
Ġcomment ed
Ġspir its
Ġconnect ivity
Ġrespond ing
** *
Ġdiscl ose
ĠTri p
am as
iz ers
ĠFac ulty
or ig
ĠG ill
ĠM ason
h al
Ġbreak down
or ized
Ġhe ated
Y et
Ġambit ious
Ġfe ver
ĠB ott
Ġkne es
P I
un ge
Ġrespond ents
ra cle
ĠOpt ions
Ġdocument ed
Ġinev itable
Ġen compass
Ġarg ues
Ġelement ary
Ġdress es
Ġcha os
Ġmerchand ise
c ost
Ġwee kends
p op
Ġjud icial
Ġtu ition
ĠM asters
Ġb urg
v ar
== ==
Ġabs ent
En ter
Ġur ged
ĠR ice
Ġp ork
Ġg aps
Ġan onymous
Ġspons ors
Ġu mb
Every one
Ġener g
Ġtravel ers
ak y
Ġpill ow
Ġconstit u
rol ogy
N G
ĠAl b
ĠE SP
com p
Ġcy cling
Ġout look
Ġco zy
Ġmat ched
it err
ĠAg ent
ĠA w
Ġassign ments
Bu y
Ġb arn
ĠS ud
Ġfert il
ps hire
ab ad
Ġsacr ific
Ġfe as
Ġrespons ive
ĠBob o
Ġquiet ly
Ġser ial
ĠP ad
1 000
arn ess
Ġlight ly
Ġaw kward
ĠMaterial s
Ġcon form
Ġknock ed
Ġreview ing
Ġin aug
or us
ĠT u
Ġbless ing
N E
Ġag rees
Ġtend ency
h uman
Ġout line
Ġo wl
ĠâĨ Ĵ
Î ±
ĠE c
Ġle nder
Ġremark s
ĠD ifferent
Ġres ur
Ġdevelop s
our t
Ġatt ain
ĠBob by
ats on
Ġdismiss ed
Ġindic ating
Ġv iagra
T otal
Ġmind set
âĢĿ ).
ĠHT ML
ĠStr ong
Ġp anc
Ġcontrovers y
Ġimpact ed
ont in
Ġisol ation
ĠMar vel
Ġ9 6
Ġbl ast
ĠF an
Ġtraged y
Ġfundra ising
Ġf ond
ĠBeh av
re k
ĠLe ft
Ch ina
Ġch ase
Ġle isure
Ġf ierce
Ġtax i
Ġjournal ism
eal ous
umm ies
Ġped est
Ġqu ot
Ġrac ism
Ġreal m
Ġlim itation
Ġridic ulous
Ġbreat he
ĠAl t
Ġcle ared
ĠPhys ical
Ġprelim inary
Ġfra gr
Ġh ind
Ġri vers
Ġindic ator
o ft
Ġdess ert
Ġ7 3
Ġcirc ulation
Me et
US A
o is
ĠBar ack
be cause
Ġa ug
Ġmin erals
ĠRes ource
Ġmort ality
Ġassess ments
Ġchar ter
ĠN AT
Ġpack ing
ph ony
ĠBeaut y
ank ing
e u
Ġforg ive
ic ting
ĠTest ament
Ġdu pl
Intern ational
Ġrem edy
Ġsche mes
ĠR y
ĠSam uel
ip her
Ġdes criptions
Ġfin ances
ĠHe brew
A K
os ures
and ra
ĠSt orage
Ġm amm
H R
Ġse ating
ĠRegist ration
ĠAd vert
ĠCost a
Ġment or
Ġshare holders
Ġ7 4
as ma
Ġpursu it
Ġequ ation
Ġprem ier
Per haps
ĠB rain
sel s
Ġv iable
ili ence
ĠL l
ĠVis ual
eng u
Ġcomp aring
Ġsp icy
An n
M ENT
W ind
Ġall ies
ke eper
r ust
Ġinv asion
Ġprev ents
an im
the ning
Ġp itc
ll i
II I
Ġ19 20
Ġcatch ing
if le
Ġs q
Ph ot
Ġhere in
irm ingham
ĠP ier
ke eping
ĠP D
Ġtrad ed
ĠTim my
ĠH unt
iz ard
Ġavo ided
ĠB ishop
ĠI F
ist ence
Ġc yl
ĠP ul
Ġinhab it
ĠSing h
D em
Ġexec ute
Ġd ull
ĠLiver pool
Ġoff set
Ġmodel ing
ĠLiber ty
ĠOr lando
ĠT ouch
Ġhas s
Ġcell ular
Ġurg ent
Ġout lined
ĠG OP
ĠTool s
N on
Ġhes itate
T able
ah o
A tt
S ch
ĠDoc ument
) )
omet ry
Ġm elt
ĠS kin
Ġtow el
l ation
Ġtun ed
ĠR ange
id ency
ĠT ed
ĠL ang
ĠM ale
G H
ĠG rey
uck er
Ġrep ay
ĠPet ers
com fort
Ġi T
ĠJ oint
Ġabund ance
Ġrele asing
oot s
Ġfr ustration
ĠPhil ip
ĠS und
g irl
Ġpursu ant
Ġt anks
Ġw ool
ĠGr ade
ĠK id
Ġconsider ably
we b
ĠPrem ium
Ġclean er
ĠStand ards
ĠAb raham
ĠT ig
cer pt
N ov
Ġneed le
ur able
ĠMur phy
imens ional
Ġsent ences
ĠF ight
ĠH omes
Ġconf using
Ġland l
M en
Ġbo asts
Ġrel uct
20 23
ĠN i
Ġded uct
Ġalt ogether
Ġmeant ime
ĠSt ri
ĠStan ley
og ram
Ġatt itudes
Ġde ployment
ĠCl ar
Ġv inyl
ĠCl ay
h ma
t imes
Ġsear ches
Ġattend ees
ĠS L
ĠM ental
Ġinf in
ĠGr iff
ĠD elta
Ġf el
X X
Ġch rom
Ġdr unk
ĠE PA
Ġexpl ores
Ġfinan cially
Ġlike lihood
ĠL en
ĠN one
Comm un
Wh ite
ili ation
Ġnation ally
Ġresearc her
Ġhold ers
ĠK ath
ĠPr incess
iterr anean
Ġfat igue
ĠLe ban
ĠMichel le
N T
Ġsubscrib ers
um mer
em porary
Ġimpl ies
Ġbl ade
Ġbook ed
Ġill um
Ġlack ing
Ġtouch ing
cl osed
Ġmed al
h ole
Ġrefres hing
Ġinter ventions
ĠL ower
bor ne
Ġ198 1
force ment
ed e
Ġsatisf ying
Ġint ensive
ul ative
Ġarri ving
Ġprison ers
ĠKnow ledge
ĠF el
r ong
Ġpol ar
Ġmis con
ĠDub lin
Ġour s
Ġtrad ers
Ġlicens ing
il m
ĠNor way
Ġcomb ining
iox id
Ġle nding
Will iam
ĠHig her
00 1
Ġrem od
ĠTh or
Ġcool er
Ġintim id
H appy
Ġpal m
ĠM I
Ġsumm it
ĠR ent
place ment
Ġinterview ed
um ph
ĠJ ake
b one
Ch ar
Ġm i
ĠClin ic
ĠL oc
Ð »
Ġthresh old
Ġg rief
Ġvar ies
il ateral
Ġmedic ines
Ġaltern ate
Ġs ore
ch ant
Ġan gel
ener y
Ġsynt hetic
Euro pe
ĠThe ory
pro te
Ġsp ins
pe ople
Ġsh ifts
ĠE M
Ġback s
s ki
ĠS oph
ĠTh ai
Ġst ew
Ġvit amins
Ġoccup ation
Ġaccount ability
ĠAd ult
iss ance
Ġst arter
Ġspe cially
Ġemotion ally
pat ient
Ġcharacter istic
ĠOffic ial
ĠCon ne
ĠS pect
ĠAl f
Ġtrans fers
Ġgr ill
ed a
Over all
ffic ial
ud a
Ġkid ney
L ocation
Ġdest ro
Ġc ant
ĠR io
ra h
d el
Ġconsid ers
Ġanalys es
ĠU V
A f
ĠA id
ĠT erry
Ġelev ated
Ġm ock
Ġins ulin
ĠProdu ction
Ġarri ves
Ġthought ful
Ġre ck
Ġprotect s
Ġ ic
Ġamend ed
Ġne arest
Ġcan vas
Ġstr anger
ĠH alf
Ġdis charge
ĠD aisy
ll o
ert ation
Ġport rait
ĠV ac
Ġco pe
Ġextend s
em en
Ġadapt ation
ĠWal ter
Ġconsum ed
ĠAv oid
akes pe
Ġk its
Ġspa cious
ĠPlay ers
Ġ8 2
ĠB ag
C ount
Ġra ck
ĠZ one
Ġabs or
ĠC rown
ĠW edding
Ġillustr ated
ĠAct ive
? âĢĻ
Ġsh ades
Ġcom ed
w al
fe re
Ġfor ty
ĠOrig inal
Ġalgorith ms
ĠC ertain
Ġs ins
ene z
Ġeduc ators
Ġrot ation
ĠC ultural
Ġware house
ĠK aren
er ness
ĠC oc
ĠEqu ipment
Ġmit ig
Ð ²
e ment
Ġde bris
e xt
Ġdeploy ed
C ity
Ġindic ators
Ġfor b
ĠMed icaid
Ġperman ently
ĠG ot
ĠNot ice
Ġrid ers
ĠValent ine
Ġl enses
ĠMon te
ĠBuff alo
Ġfor cing
ĠVe h
ĠRich ards
Ġ7 1
Ġport ions
o ven
ĠRep air
Ġconsum ing
Ġinj ection
ĠW ikipedia
Ġsell ers
ĠO t
ie ces
ĠP oll
ĠHist orical
Ġth o
Ġg ri
Ġb ake
ĠT ampa
B T
Ġf ame
Ġacc ent
Ġg ad
op es
ĠStat istics
ĠIn sp
Ġgra ve
ĠLinked In
Ġtrain er
claim ed
ur i
Ġpr incess
ĠH ub
ĠP ic
ĠAssoci ated
ge ls
ĠN A
ĠGreat er
Ġtheore tical
k h
ĠS N
Ġcrypt o
Ġnew er
Ġgu ilt
Ġl id
s or
S orry
E s
Ġsoci eties
Ġcoal ition
f our
Ġbehavior al
Ġment ally
ĠAdvis ory
Ġmed ian
T ON
Ġexch anges
ĠCam eron
Ġcount ed
Ġres ign
Ġs ung
il on
ĠCy ber
Ġcinem a
Ġsuper vision
ĠK el
ĠMar ie
ĠSe ven
Ġm es
Ġpers istent
Ġanaly zed
Ġrel ates
M ain
ĠRom ney
Ġpo ems
V ery
se arch
ateg ories
ber y
Ġcar riers
Ġder iv
Ġare na
Ġassum ptions
Ġgo ver
Ġneighborhood s
ĠAgain st
erc ury
Ġtw ins
S I
quis ite
Ġautom obile
ĠS we
Ġnot ify
Ġart ic
ĠCamp us
P O
ĠAcadem ic
Ġextend ing
M AN
an ium
ĠG DP
Ġlog istics
ĠIniti ative
ĠED T
Ġunder m
Un ited
ĠProte ct
Ġch olesterol
Ġsurround ings
ĠAd obe
Ġinvestig ated
ĠA CT
Ġcalcul ate
ĠBar ry
Ġcru el
ĠRem ove
oc hem
ĠW ol
Ġpropri etary
ĠAssess ment
Ġv o
M icro
Ġpat io
Ġmethod ology
D ig
M ia
ou stic
Ġacc laim
Ġbicy cle
Ġt el
Ġm igr
ĠM ommy
Ġbel ly
um ns
oc ity
ĠD ry
z heimer
Ġshe er
ĠL ag
Ġm asks
Ġas pir
Ġso y
Ġtra ff
Ġuncle ar
Ġ8 4
ke ley
AR S
Ġroll er
Ġfrustr ating
ograp her
O H
Ġeconom ies
Ġath lete
ĠStud ios
an ia
Ġemer ge
Ġl ou
at ics
ĠCh oice
ĠF ame
akespe are
ĠðŁĻ Ĥ
m ill
Ġreform s
ĠT on
ĠW rite
ĠJess ica
Re al
ogen ic
ĠOper a
ot hing
Ġ Ø
re z
Ġanim ated
Ġcraft s
ĠI BM
ĠStan ford
ott age
Ġrecru iting
umb ai
inn amon
Ġdent ist
Ġinst inct
Ġfle e
ĠAdd ress
ĠBas ic
Ġeat en
Ġd ip
ĠSpe cific
Ġto ps
ĠN ancy
Ġ197 8
Ġbrows ing
Ġfoot print
Ġph osph
Ġaffili ated
Ġmess aging
A h
atin um
Ġgl uten
ĠM es
m id
ĠGrad uate
Ġpass ive
d r
thod ox
Ġdiscuss es
Ġ9 2
Ġbeat en
at ched
Ġjust ify
Ġcr icket
ĠV ent
velop ment
Ġind ul
Ġguarant ees
Ġconsider ations
arat us
h alf
ĠTra ck
ĠHam pshire
Re f
Ġpu zz
Ġdevast ating
Ġmet als
S ara
Ġself ish
F ort
Ġsmooth ly
Ġmet rics
ĠM aj
Ġpoor ly
Ġpubl ishers
Ð º
ĠF C
sh ire
ĠKe ith
Ġhun ger
Ġright eous
ĠSwed ish
Ġd ense
ann on
Ġnot ified
ĠT aking
ik h
Ġconnect s
Ġaccount able
ĠR V
A lex
Ġcustom ize
F our
che m
Ġfra g
ĠBar celona
Ġlif ting
Ġsp ite
ix on
cu its
ĠC AN
ol ving
Ġintu itive
Ġcar go
Ġsear ched
ĠP el
Ġball ot
Ġb atch
Ġlim iting
ro le
ĠF ly
Ġinc ons
Inst ead
ĠR F
Stud ents
Ġdefend ing
Vis it
d ed
Ġrank ings
el ong
ing o
Ġy og
Ġn u
ĠEn h
Ġbo om
Ġrep et
ine e
Ġrec ession
Ġaccess ing
Ġsl ave
Ġdiet ary
H ot
Ġhorm one
ĠCh ron
iot ics
intend o
ĠH at
Ġtrad es
Ġcl ips
Ġfr ank
Ġsw all
ĠLe x
oot ing
ĠRep orts
atter y
ĠR ivers
per or
Ġsp am
Ġcor rection
af ood
Ġkind ness
m are
ĠChel sea
Ġe ighth
T I
Ġmail ing
Ġm asc
ar re
ĠP red
Ġposition ed
Ġje ans
ĠH orn
ĠC arm
Ġannoy ing
Ġintent ions
Ġperform s
ĠĠĠĠĠĠĠĠ ĠĠĠĠĠĠĠĠ
ĠDes k
Ġmagnific ent
W ater
Ġb ounce
Ġun ity
Ġsal vation
ĠPark s
c amp
ĠSt age
Ġfort une
ĠSt orm
Ġ197 6
Ġr h
Ġlux urious
Ġ14 0
ĠTy ler
Ġ9 3
Ġwarm th
Ġpredict ions
ĠNurs ing
Ġd anced
od a
Ġcent res
Ġqu ery
Ġhabit at
e enth
Ġup s
Ġappro ve
ĠDemocr at
play er
ĠAnaly tics
Ġsan ct
$ \
Ġconclus ions
ĠMe chan
ĠRe covery
Ġc aut
G old
Ġcy cles
ĠBeaut iful
em a
row ave
Ġgood ness
Ġne ur
Ġrevolution ary
Ġcoll ar
Ġmach inery
D E
en z
Ġcoord ination
ĠBelg ium
Ġflow ing
ĠL ocation
Ġtempor arily
on ts
col or
Ġco ating
Ġsmart phones
ĠEs pecially
in is
ĠN iger
Ġsp ine
Ġevol ving
ĠS end
Ġcompet ent
ĠAny one
et on
ĠD raw
Ġfor k
Ġ q
Ġvolunt ary
Ġdiscl osed
J im
Ġfif teen
n ia
Ġ9 4
J un
Ġper fection
ast ics
Ġp ics
Ġexam s
Ġcl uster
Ġc uisine
ĠRe ci
ank ed
Ġrecord ings
^ {\
l ace
Ġlength y
ĠD ental
Ġst rand
V ideo
ĠJeff erson
ĠUk rain
Ġrehab ilitation
Ġ19 40
port ed
ĠSec urities
ke ys
ĠR d
Ġdisp utes
es pecially
ĠPolit ics
AR Y
at ured
N O
i pper
Ġphr ases
Ġcoll aps
ĠIde as
Ġadministr ator
ĠT un
Ġpro long
ĠM atch
Ġc attle
Ġb aked
inc inn
o pp
Ġsince re
ĠMad rid
ĠE L
ĠG host
Ġret rie
ĠColumb us
ild e
Ġcomb inations
Ġ19 75
Ġswitch ing
ĠMed iterranean
ĠC ris
S ep
S ever
E xt
Ġrun ner
Ġbo il
Ġactiv ist
ĠPu erto
Ġcustom s
ĠTre asury
ĠiT unes
ĠEx hib
S l
cons cious
Ġprogress ion
st orm
Ġmax im
Ġpump kin
Ġun su
ploy ed
ator ies
ĠF urn
Ġhospital ity
Ġsurviv ors
au kee
L og
ĠCl aim
c ond
Ġble eding
ĠWhe el
Ġsun light
w y
Ġp iv
Ġelig ibility
T M
Ġc it
ĠD A
ĠK l
AG E
g ary
Ġpat ri
Ġdisci ples
Ġdoct rine
Ġadm ire
Ġqual ifying
Ġless er
č Ċ
Ġl ane
Ġcont ra
ĠPhot ography
W ould
Ġsound ed
ĠMc Donald
Ġclass ification
sh aped
Ġtrad itionally
Ġpu pp
oty pes
ruct ive
reg ular
Ġg ast
ĠF O
ĠSug ar
Ġgr ams
Ġattrib uted
Ġtiss ues
Ġtra its
Ġnot ebook
Ġver ification
Ġ8 6
ĠWe ather
ac er
ĠDe pending
pro v
Ġshel ves
ĠLind a
amm ar
l adesh
Ġfest ivals
Ġtr illion
Ġsh ifting
ri k
ĠState ment
Ġt ile
Ġch ron
Ġsim ilarly
Ġd read
Ġpar ade
point s
ĠCrim inal
T Y
ĠBut ter
Ġcompr ised
Ġcryptocur rency
Ġlad der
E lect
Americ a
atern al
Ġinv iting
Ġhom emade
Ġher b
ĠRes erved
ĠD IS
ust ers
Ġenh ancing
edd ings
Ġc el
c f
iv est
incinn ati
ĠUs ually
ĠNash ville
ĠSt ream
Ġ197 3
Ġ {\
ĠP le
Ġformer ly
Ġw rist
Ġcoup on
ĠNe uro
ĠM oses
Ġu pt
ĠTe aching
list ed
Pol ice
ĠAb u
ĠS F
Ġtur key
200 2
ĠBen jamin
ĠBl ues
Bl ue
oh yd
ain ted
Ġb od
ĠB ot
ĠUs ed
ĠWood s
ĠP ages
Ġprotocol s
ĠH az
rim p
ĠR AM
ĠCert ificate
Ġresp ir
Ġ197 2
Ġgar bage
ĠPol ish
ĠSpe aker
Ġcat aly
Ġj ournals
Ġsl ice
Ġanal og
Ġd ia
et o
Ġqual ifications
Ġg room
ĠExt ra
ade qu
Ġgover ning
n an
ĠTe acher
Ġund oubtedly
Ġsched ules
Â ´
re nder
H C
ĠH ab
Ġcomm ands
Su pport
Ġb apt
Ġo ak
IM E
ĠSy rian
S chool
Ġjoint s
Ġorgan ised
Ġdiagn ostic
et ric
ect or
AR K
ĠFe el
Ġe co
Ġgrand father
I d
ĠSher iff
ĠPet e
ĠM ine
Des ign
Ġar th
Ġtra pped
Ġstrong est
Ġfail ures
Ġdecor ated
ows ki
ĠH app
Ġenthusi astic
ut t
br aska
bor ough
Ġch ill
w ic
W E
Ġad orable
reat ing
Ġbus es
Ġpool s
Ġmand ate
ĠUp dated
Ġpast or
ĠSp a
Ġincent ive
â Ĩ
em or
ĠWeek ly
Ġg um
ĠLink s
Ġprompt ly
Ġcra b
ier ra
ã Ĥ
ĠMove ment
ĠMarg aret
ar ium
Ġd os
Ġca res
Ġdistingu ished
EN TS
is ible
Ġdon ors
ĠT es
Ġgod s
Ġdep uty
Ex per
Ġadvis ory
Ġgl oves
ĠSy n
Ġesc al
ĠMan ual
Ġmuseum s
Ġimp rison
art en
cycl op
Ġj ealous
ab a
Ġfin ishes
n u
OM E
Ġmid night
Ġind igenous
ĠHor se
Ġfoss il
ĠEgypt ian
exp ensive
ĠB enn
Ġassum ing
Ġhapp ier
ĠL ost
Ġinform ative
Ġappe als
ron ics
Ġdis comfort
Ġcom ics
Ġtrick y
ĠTrans fer
ĠAssoci ates
Ġdes irable
Ġiniti ated
Ġres ervation
ĠArt ist
Ġrest ra
ĠGr an
Ġrecogn ised
ab lished
Ġmess y
v d
Ġfore x
ĠInter view
ĠDel aware
Ġ16 0
C ong
Ġsl im
ĠD oor
av ailable
Ġre imb
ĠB irmingham
Ġgrat itude
M arket
ĠQu arter
Ġwond ers
Ġdu o
ar se
Ġcraft ed
ĠE val
Ġpic nic
Ġdatab ases
ĠHud son
Ġp est
ĠGab ri
h ang
Ġh ier
pl ane
Ġanch or
p owered
ĠExper t
Ġmathemat ics
ĠIran ian
as i
Ġn ails
Ġrecre ational
Ġwh istle
Ġadjust able
tt es
cl ock
Ġj okes
av an
Ġcous in
iv ia
Ġint ra
ink s
on al
Ġh opped
Ġ7 9
Ġ196 8
c ott
ul atory
Ġpract iced
Res earch
Ġtou g
Ġgrand children
ĠToy ota
Ġharass ment
Ġmet er
ĠVeter ans
Ġman ually
B ro
Ġr ushed
Ġpl umbing
Ġl ug
u plo
Ġtransl ate
Ġcoord inator
ĠTurn er
Ġcap ac
ĠNorth west
Ġslow er
ĠL ar
ĠApplic ations
Ġcand le
ĠN HL
Spe aking
d oc
om ous
L aw
ul ates
Ġstress ful
Ġass ure
âĢĿ ),
ced es
Ġfree ze
Ġm a
re he
Ġk g
l ambda
Ġattach ment
Ġmat rix
Ġarch ive
Ġreve aling
Ġrecommend s
Ġoper a
Ġrelax ation
g roup
ĠK am
J es
Ġham mer
ĠCent ers
f its
ins p
ut o
us hes
ro ts
Ġadminist ered
Ġob esity
12 5
Ġinstrument al
v ice
or ie
art ered
Ġcirc ular
Ġun con
Pro v
rep resent
Ġg ly
ibl ings
f igure
ul ly
ĠCh ile
Ġdemand ed
Ġlic enses
IN D
ch anging
G C
Ġunw anted
App lic
Ġ8 9
Ġrenew ed
are l
Ġthick ness
Ġqu ad
ĠPot ter
enn ial
ĠK irk
atter ing
Ġcomp iled
H ope
Ġb achelor
Ġcompr ises
ĠAl zheimer
Ġsoul s
eth yl
ĠCh at
ĠPortug al
gi ene
po ons
Ġst ove
ke ep
Ġper f
er ial
w aukee
ot ional
................ ................
Ġele phant
Ġgenuine ly
augh ty
Ġregul ate
Ġmod ifications
Ġgu ards
Ġblock ing
ĠD anny
Ġconcer ts
Ġ8 3
ĠGuard ian
Ġsc andal
Ġhon ors
H ar
ĠGl en
rop ract
Ġlive ly
Ġtroub les
hes ive
Ġon ions
Ġimm ers
Ġinnov ations
Ġdemon stration
Ġjo ins
ĠMont ana
ment ioned
Ġl ining
Ġgener ator
ac cess
p ublic
Ġrain bow
Ġg rie
Ġdr ill
c ourse
ĠSim ilarly
Ġout reach
Ġunder go
Ġlay ing
Ġdur ability
ĠD M
sen al
Sh ould
Ġstat ue
Ġprompt ed
Ġdis par
ĠS K
ĠK r
Ġsub mitting
Ġpre jud
Ġqu arters
ĠR acing
Ġto dd
Ġth rows
Ġretail er
ĠAr n
S N
Ġoptim ize
Ġinform al
Ġdisc on
Ġtrans mitted
ĠG ardens
ĠPrim ary
bor o
ag ne
ĠCons ervation
u f
R ob
Ġf ights
ĠOak land
Ġpure ly
ĠRich mond
ĠCli ent
Ġoverwhel med
r t
Ġsol ved
ĠLo an
vel ope
om ore
ĠE dd
Ġcare g
Ġal tered
ii i
Ġbelie ving
Ġsex ually
W omen
Ġpack s
ĠN ord
Ġrun ners
Ġdiscipl ines
Ġpass port
ig o
U P
Ġdef ining
- \
Ġm all
ĠP O
b at
oster one
Ġgreen house
Ġnever theless
ge nder
Ġende av
Ġcrowd s
re ation
Int erest
Ġvir uses
Ġtou ches
ard ing
f amily
ĠInst ru
ĠNe il
ĠCr us
Ġd iving
Get ting
Ġexcept ions
Ġspecial izes
Ġprofession ally
Ġtrans mit
ven ant
found er
c orn
ĠW ILL
Ī Ĵ
om on
Ġprevent ed
I Z
ĠP s
Ġtatt oo
m ap
S un
ĠL akes
Ġfresh man
Ġquant ities
L ive
ang o
Ġdi ver
ĠMan aging
ĠCru z
Ġcompliment ary
ĠT ickets
Ġver ified
ment ia
ĠO liver
Ġw ounded
ĠC it
ĠU P
Ġneg lect
Ġ197 7
ĠQuest ion
ah l
Ġp df
ical s
Ġse aled
ĠOther wise
Ġins isted
ĠN orm
Ġcal cium
In vest
Ġorig ins
Ġbelong ing
Ġd amp
P ower
le vant
Ġsurge on
S k
Ġplug in
ĠW alt
ĠMont real
Ġant ioxid
Ġdef ines
Ġinter section
Ġor gans
ĠCub a
Ġwor ries
ĠR ate
Ġwork flow
Ġsent iment
Ġlaw makers
ixt ures
Ġcart oon
Ġ8 7
so ever
Ġcry st
Ġscr ut
ĠApp ly
Ġtr ump
ĠS old
as a
Ġal umni
anth rop
b ot
ĠCir cle
ed ar
ĠC u
Sever al
ress ive
St op
Ġmight y
Ġmer cy
Ġ197 4
Ġaccess ibility
p ath
Ġ196 9
Ġnut ritional
ĠUlt ra
Ġsim ulation
R uss
Ġharm on
ĠV PN
ge nds
Ġmom s
Ġass ass
ĠSac r
Ġemb ark
Ġgluc ose
b ott
Ġent ers
Ġblock chain
bl ock
Ġprop he
im en
ĠL ay
L ater
ĠFort unately
Ġpharm acy
N EW
Ġd a
Ġyoung est
Ġh ats
Ġtra gic
Ġvoc als
ĠP ool
a very
im ity
Ġdecl are
Ġb ind
Ġso fa
F ig
ĠP un
ĠIntern al
o T
os ity
Ġcr ust
Ġplay ground
Ġ12 5
Ġhyd rogen
ins ula
Ġbe am
fort unate
se en
ĠPh ase
Ġhe els
Ġgame play
bet a
Ġcast ing
ster dam
Ġshort age
Ġprem iere
Ġen rich
Ġas p
Ġearthqu ake
E st
ĠCl ose
ĠC amb
ĠI l
p arents
ĠBlu etooth
pr ising
ĠF ried
Ġinvestig ators
urd y
Ġquestion ed
ĠR ic
ĠW ang
last ing
Ġadministr ators
ĠRog ers
ur ate
A ccess
atern ity
M ac
Ġliber ty
c hen
E v
ĠRet ail
Ġcons piracy
Ġreal ised
Ġp ipes
Ġbl o
Ġopen ly
s ky
200 1
ĠD ow
ĠCompet ition
Ġansw ering
L ab
Ġn ucle
ĠL ion
ĠBr ing
Ġsod a
Ġelim inated
Ġre he
Ġcolon ial
ĠFe ed
Ġsw ings
Ġr ude
Ġsu cc
Ġp ussy
Ġimp air
ind a
m ain
ĠEag les
In s
G ive
Ġmag net
Ġe cho
ĠDen mark
Ġassum ption
ys ical
Ġgau ge
Ġstat utory
Ex pl
ĠÃ Ĺ
Ġsimpl er
S al
ĠA round
Y ear
ĠY ahoo
Ġoff line
ĠK yle
ĠK le
ĠU pper
ĠIn j
ris k
ffic iency
Ġtoler ance
Ġfire place
ĠSche dule
H ER
ter ies
Ġcur iosity
Ġenroll ment
ast ically
ĠReg ulation
Ġlearn ers
Ġdeterm ines
ĠAust ria
ĠB eng
ĠJ ill
Ġsun shine
Ġste ering
Ġt iles
Ġvacc ines
ĠPict ures
Ġtr ay
Ġhass le
Ġbl ues
ĠS lo
ĠM t
Ġcris p
Ġpol ls
Ġl os
Ġm ant
Ġconstra ints
ĠH ours
se min
ĠM illion
an or
Ġsk irt
Ġc age
ance ll
Ġmon key
Ġmargin al
ĠSome one
Ġnom ination
Ġmet ap
ĠCap itol
ĠH i
Ġso cks
Ġtechn ically
ĠIn come
âĢ ²
umb ling
Ġquant um
ĠHar bor
Ġcontin ent
l isher
Ġplant ing
er ie
fr ame
Ġcl apped
Ġhistor ically
Ġgl ance
Ġst ats
St and
olit ical
ĠK ir
Ġtra ct
ĠS ent
Ġsw am
.. ."
Ġtechn icians
ĠCh icken
ĠA irlines
Ġpositive ly
est on
Ġdele ted
ĠFor ces
ĠDou g
ĠSur gery
Ġupgr ades
m ir
ĠElect ronic
ip ed
ĠP erm
al ph
ĠSupp ly
Ġfound ations
Ġha un
any on
ĠJam ie
fe ld
Ġfl ed
Ġspl ash
ĠCommon wealth
Ġcivil ian
Ġperform ers
ĠZ oom
Ġsl avery
Ġpup ils
g ot
un ks
Ġsomet ime
Ġcock tail
ĠC IA
Ġgl oss
ĠSh akespeare
Ġexplos ion
ĠDe gree
ĠElement ary
it em
Ġout break
th al
ett es
P age
get ic
Ġhard est
imp se
ell er
Ġg y
ĠS outheast
Ġref resh
b ad
Ġlog ged
Ġvine gar
ĠArgent ina
Ġinter f
om i
N OT
Rel ated
ĠM ob
Ġflu ct
ĠEss ay
Ġqu eries
ĠWild life
ĠSur v
Ġb ent
ĠLabor atory
am bers
Ġl ymph
ĠESP N
Ġs lo
na pped
ĠW es
ĠR S
ri en
Ġnegoti ate
ĠDe fin
Ġdang ers
Ġactiv ation
Ġ' '
ĠPer iod
âĤ¬ âĦ¢
Ġcon gr
Ġterr ific
ĠF ROM
ĠJu an
b usiness
ab e
Ġmechan ics
In formation
Ġl ounge
in burgh
ol ve
Ġsent enced
ĠW arner
Ġreal ise
ide os
Ġmult ip
Ġstre ak
H P
Ġcar p
Ã© s
L ead
Ġcl ause
ĠR anch
c ra
Ġcollabor ate
Ġg rap
Ġsystem atic
ĠEd wards
Ġtrans plant
ĠS ites
M ary
ĠGro ve
Ġexpect ation
ĠL an
boy s
Ġin expensive
Ġres et
Bel ow
S il
ĠW atson
Ġdefend ants
ib les
re ne
ĠÃ ¢
e very
ĠPhot os
ial is
Ġcard iovascular
Pr ice
Ġbrand ing
ĠArt icles
ĠMar io
Ġv ag
ĠA A
Ġ8 1
Ġteen ager
Ġcol umns
m ile
ĠHarr ison
ĠE ither
ĠP ine
Ġbr idges
Ġterm ination
a que
Ġex otic
Ġcommit ments
ĠBell a
Ġsmall est
ĠW ash
Ġalign ment
Ġwe ld
M O
Ġpar ish
th ood
Ġhead lines
uk i
ĠHis pan
ĠBM W
Ġto e
pro cess
ĠInf o
f ull
Ġfl ame
ĠM Y
Ġcompet itions
Ġsol ic
Ġ196 7
Ġassemb led
pt ed
l it
Ġinc on
i w
ĠPlan et
ĠChe f
if iers
Ġbrut al
Ġmem or
Ġnot ably
Ñ ĥ
A my
ĠJe remy
ue z
v ine
Ġrec alled
Ġin herent
ĠG ard
sequ ently
ash a
Ġch lor
Ġf og
Ġpred e
ĠV ari
Sh ow
Ġst yl
__ _
ĠSER V
Ġdign ity
Ġquick er
ĠHealth y
bu ild
ĠBi ology
our cing
um per
ĠHon or
ĠB A
le m
er ick
Ġ197 1
ĠC ant
P DF
Ġdiscover ing
Ġnon etheless
Ġcitizens hip
p rom
ĠPay ment
ĠAr c
Ġpred omin
Ġstr ings
Ġappropri ately
Ġeval uating
irst y
ĠV I
ex per
it ime
Ġh obby
ĠB oe
Ġto pped
Ġrad ar
ĠDes cription
S y
Orig inally
Ġover head
f ocus
Ġpa ired
Ġtim eline
Ġsh irts
t or
op l
Ġdes cend
s ign
Ġst ro
b oth
Ġsun set
Ġh ilar
Ġtast ing
ĠM is
D ER
ĠWell s
am er
Ġteen age
ĠE gg
ĠIm per
Ġexc luded
ĠBer keley
Ġg inger
Ġapp aratus
ah u
Ġconcent rated
Ġbe es
ĠF M
10 1
d ict
Ġnum er
Ġsupp ress
Ġsens es
Ġc ort
ĠAct ually
Ġcontem pl
Rober t
ĠHol land
ĠDri ver
ĠDis cover
ĠEm ployment
g ia
Ġliter acy
Ġve t
Ġreason ing
Ġhoriz ontal
Ġam ateur
ĠSh ar
Ġan ten
flow er
is en
Ġsucceed ed
be cca
Ġaut umn
Ġattack ing
Ġspin ning
C ap
Ġactiv ated
Ġn ude
ĠT ab
math bf
Ġgen ius
Ġ9 1
Lu cy
Ġst atic
at able
Ne ed
ĠPub lished
z i
sc ape
ret ty
Ġcrowd ed
Ġd in
AN CE
Ġexpress ions
Ġsal mon
Ġbound ary
Ġst itch
Ġint ric
ĠF o
ĠBang ladesh
Ġwe aken
Ġb ang
Ġcan ce
m ons
ost al
author ized
Ġ9 78
D ue
ĠWe e
Ġfavor able
bl ack
Ġblog ger
i ological
e re
h ouses
Ġg ifted
d isc
ĠSo x
Ġsad d
ĠEp isode
< /
Ġex ports
ĠEag le
Ġr het
ar ians
Ġrespir atory
Ġsc ent
Ġbudget s
er able
Ġro ok
D isc
F ace
Ġrecy cled
ull ivan
lic t
Ġrecip ients
ĠC incinnati
Ġpr one
ĠMount ains
ĠVol unte
ĠEduc ational
ĠProf ile
Ġm apping
Ġhon our
Ġter rain
is y
ks hire
ĠH arm
Ġcat ast
Ġex empl
ĠCh ase
ĠCry stal
ĠBrazil ian
ĠV IP
ĠV R
Ġsw ift
ĠNe braska
ĠSn ap
Ġins ane
Ġwhere in
ĠOb viously
ĠArchitect ure
ul k
Ġmod er
ĠON E
Ġf ont
Ġspec ify
st ation
ĠSh aw
ĠM umbai
go vernment
Ġreput able
ĠOrgan ic
ĠCO MP
olute ly
ĠPut in
alk ing
he astern
Ġsh orts
Ġresearch ing
Ġst arring
Ġdisg ust
omet own
less ness
person al
ell ar
Ġdam aging
Ġin ning
Ġharm ony
ĠGi ants
ĠP oker
ĠH onda
Ġevol ve
f ood
Ġc oding
Ġgl impse
Ġh ose
ĠN intendo
Ġplan es
ĠScient ific
Ġaf fection
Ġev ac
atur ated
Ġelim inating
Ġsequ ences
Ġwhat soever
Ġam p
ĠBrand on
Ġdies el
Ġs iblings
Ġcra w
ĠAll ah
AT ED
Ġsens ation
ĠHill ary
Ġunf old
cast le
Ġmole cules
ĠT s
Ġoff shore
gh ai
Ġcommun icating
op ath
cure ment
ĠInvest ig
Ġbe ats
Ġdet erior
roduct ive
Ġl ime
Ġfrag ile
Ġp ap
Ġhoriz on
ĠP os
ĠSk ills
T erm
ĠRe comm
IS S
ĠInter ior
Ġprov es
ĠRe venue
Ġteen agers
AN S
Ġlect ures
Ġhed ge
Ġapp ell
O O
I ts
y on
ĠR ole
Ġch rist
f illed
Ġo v
ĠC ards
ĠD ress
Ġph ases
ĠO z
ĠFood s
m em
Ġhuman itarian
Ġsec uring
Ġd umb
ĠP arents
Ġm int
Ġf ighter
ĠRequ ire
Ġback pack
Ġargu ing
Ġsusp ic
Ġb iz
Ġhelicop ter
m ount
Ġd oses
3 50
Ġu k
Ġun fortunate
Ġpick up
ĠFlo or
Ġrefrig erator
- )
ĠScholars hip
Ġin ability
ĠId aho
ĠAl most
Ġmass es
ĠNut rition
Ġtaxpay ers
ĠO kay
Ġl akes
ĠM ack
ĠCh rome
Ġaccred ited
Ġnob le
Ġsevere ly
Ġhel met
ĠBase ball
ĠN HS
N ame
Ġupd ating
be it
Ġprosec ution
Ġwilling ness
ens ation
Ġconsult ants
ĠJ ama
ĠVit amin
Ġstr angers
ĠOcc up
Ġaband on
Ġsh aft
Ph il
ĠRon ald
Ġass urance
Ġplay offs
Ġbill ions
ĠT ib
im age
ĠHer o
Ġten ure
Ġpharm ac
ĠRe ed
ĠWorks hop
ĠPay Pal
Ġ 000
ĠFA Q
ĠF lex
ict ional
Ġscholars hips
ĠA V
Ġw olf
ĠW ords
et al
Ġk ay
Ġcelebr ities
M obile
pl aces
ĠA x
Ġpolit ically
Ġcent ered
Ġrecre ation
ĠD rop
K S
ĠH ack
Ġcontrib utes
b ank
ĠFin land
Ġs ights
AR R
Ġfix ing
ch at
Ġfabric s
Ġste pping
ĠEth iop
fl amm
Ġinv isible
Ġso cially
ĠUkrain ian
Ġsuper market
i otic
ĠCh ocolate
Ar ch
Ġf iring
Ġcancell ed
Ġcert ificates
it ated
Ġm as
yl um
Ġgra vity
st ru
Ġp oo
ĠE t
ĠL anka
Ġin adequ
Ġce ment
Ġc ared
C reate
Ġmetabol ism
ke es
Ġpres erved
ĠIss ues
ick er
ett a
Ġremain der
Ġret ained
L ocal
Ġmod ification
ĠProgram me
ject s
clus ion
Ġdistingu ish
ĠJul ie
l en
Ġpred iction
ĠD ennis
Ġro de
Ġtroub led
Ġwholes ale
Ġpro pose
ament o
uplo ads
um bs
abul ary
Ġmet res
Ġz oo
Ġtight ly
Ġd well
Pl us
le en
Ġc ough
Ġrel ies
m illion
Ġh arness
ah n
Ġ9 00
Ġarch ae
Ġward robe
Ġclin ics
C ON
ĠOff er
Ġcolle ague
ĠSand y
ĠRE AL
Ġth under
Ġcred ibility
ĠKind le
Ch ris
c as
Ġmulti pl
op ic
ĠPartners hip
p ol
Ġin box
Ġt ales
ĠD ent
Ġphotograp hers
M ult
N ET
ĠPhil osoph
ĠH erm
Ġsw itched
ne e
Ġmount ing
Ġdefect s
ĠC anyon
Ġtables poons
Pl an
Ġg erm
ul ously
m ia
Ġlast ed
unn els
ĠN ag
u ctions
ĠA rena
Ġsh ifted
Ġs ou
all ic
Ġc od
ĠPhill ips
C ard
f alls
L L
ĠHope fully
ĠPost s
re view
ĠM BA
ĠT ask
Ġhor r
Ġl od
Ġassist ing
Ġcheck out
ĠL odge
ĠD if
erc ise
se ud
Ġenthusi asts
Ġgrand ma
ĠVis a
uck ed
Ġref ined
Ġdist ress
ĠF itness
Ġres ilience
le ased
ĠS ter
aret te
Ġunder way
Contin ue
d imensional
on line
ee k
Ġreb ounds
ign ment
ĠO racle
ment ation
Ġfat ty
li ance
isco ver
Ġreflect ing
Ġsk etch
act ic
Ġten ants
ĠK az
role um
D O
ĠFl ore
her ic
Ġp ir
Ġsus cept
Ġhe ter
Ġtort ure
Ġm esh
ĠTh under
Ġexplicit ly
ĠUn iverse
m el
Ġinsect s
Ġsched uling
Ġprox imity
ĠF err
Ġar row
health y
M al
it us
Ġchar itable
osit ory
Ġcompos er
Ġv on
ĠVerm ont
ĠWork ers
im ated
um ar
ĠS pl
ĠR oth
ĠG y
u er
ĠN ar
Ġproud ly
Ġcreat ors
b ial
Ġenjoy ment
ig ion
we g
th ree
Ġbit coin
avor ite
Ġp oured
ph is
rist ol
ĠGo ing
Ġremote ly
ĠFin n
Ġc av
F ood
ĠP arent
Ġob ed
E U
Ġoptim istic
g reat
ann ers
Ġre novation
alth ough
ĠUlt imate
crib e
ab ase
âĢ ĭ
Ġyield s
Ġsp y
F ore
Ġexhib its
ĠH oney
out ing
ĠS aints
Ġsa iling
B as
Ġve gg
A gain
Ġcrit ically
Ġrecogn izes
ownt own
ĠA ld
Ġpull s
ĠQu ant
Ġstick ing
in stein
ĠN av
Ġb illing
res a
ĠN ice
Ġm uff
Ġsam pling
Ġv ague
ĠInt roduction
Ġst un
Ġd are
Ġsc attered
ĠSp ons
Ġplay off
Ġun st
Ġab normal
Ġal igned
urg ical
v oc
Cur rently
Ġblow n
ĠL anc
is ive
G iven
Ġlink ing
IN T
are ttes
su pport
S R
Ġstri ps
Eng lish
Ġblog gers
Ġtradem arks
I X
M aster
D ou
Ġlabel ed
ay ed
Ġcabin ets
Ġstreng thening
Ġsc are
ang a
Ġbuild er
Ġsequ el
OR S
ĠS QL
ip ing
C am
ĠPar ad
Ġhom osex
Ġcle aring
dis ciplinary
Ġcommission ed
Ġmarket ers
Ġm ate
Ġaccident ally
Ġcom merce
Ġk ills
l ining
ĠN OW
Ġn ick
Add itionally
h aw
Ġv ivid
Ġpaper work
M ag
Ġcher ry
ĠOF F
ĠAdvent ure
ĠUn less
Ġview er
Ġl aughter
Ġapp ra
ĠRe form
de pend
E mail
ĠCustom ers
ĠSt u
Ġ Ù
Ġread ings
ne x
Ġa pt
Ġsc ales
ĠHe y
Ġdownload ing
s ource
ĠS r
ĠPl ans
... ]
ĠBl ake
Ġm ph
Ġam ple
Ġimp ose
ĠM ut
Ġth ou
Ġreserv ations
ĠO H
id ering
n ames
Ġup side
Ġdon or
Ġce ase
ĠDe cl
Ġlast s
Ġsa ck
ĠR uth
ĠP interest
Ġbre eding
Ġo ct
ĠT N
Ġf ried
ĠM T
Ġcongr at
Ġsu ck
Ġf art
J oe
ĠK an
Ġfro st
p ical
ĠIn v
o i
Ġyog urt
ĠSu z
Ġspend s
ĠHel en
g om
Ġst air
Ġal mond
Ġdiss ertation
see ing
ĠHist oric
ĠResp onse
Ġp ause
Ġse wing
Ġch im
Ġexpress ing
Ġopp osing
ĠB anks
) ?
Ġen velope
Ġaccept s
Ġsurpr ises
qu are
M iss
ĠAlbert a
ĠB asket
ish a
Ġmon ument
Ġall iance
oot er
Ġban ana
ĠCh an
ob ic
Ġb acon
c ity
if i
Ġimpl ied
I RE
ĠBat man
ag ging
Ġin appropriate
Ġpres ervation
str ate
En joy
ox y
Add itional
Ġinv ented
M ike
Ġmiss ile
ĠUnder standing
Ġdeb ts
ĠHind u
Ġconvin cing
Ġcosm etic
Ġworry ing
b en
ĠR T
ĠW ays
Ġv oid
ĠBr anch
Ġtrig gered
Ġseam less
Ġdecl aration
Or gan
Ġbe an
ĠB ever
Ġsafe guard
P ut
ĠOr chestra
ig m
s ay
Ġsil k
Ġunc ons
Ġc akes
Ġrac ist
P eter
ĠJ a
Ġwell being
ĠL ions
Ġsli pped
ĠP att
ĠRou te
g raph
Ġfight ers
ĠS R
ic ates
Ġm asters
iz zy
D ear
Ġinter ference
ourn aments
ĠF irm
Ġsp ider
Fr ank
Book s
ĠB ass
ĠiP od
Ġimport ed
Ġthe at
ant i
Ġundert aken
ĠZ ero
Ġp ier
Ġrail way
Ġover ly
Ġcorrel ation
ĠCan on
IG N
ĠM i
Ġbeh ave
Ġins u
ri ages
as ers
ĠAm sterdam
Ġbal con
th s
ĠWire less
l ocal
ĠCam era
ĠC AR
Ġfl ies
Ġper ipher
Ġmar ble
ĠH ait
Ġhope ful
Ġo re
k n
re ctions
Ġimpl ant
Ġsimpl icity
g ow
Ġpl ed
Ġdipl om
ĠC urt
ĠTr ading
Ã© e
ac cept
ĠO m
For mer
ett ers
Ġpress ures
Ġw itch
Ġst ance
it ably
in formation
Ġterror ists
ĠEd inburgh
Ġqu art
ĠMil waukee
ĠP T
Ġillustr ations
ĠStat us
hel p
Ġcred entials
ĠAd just
ĠC inem
enez uel
i encies
P ack
R o
Ġdem ol
Ġal erts
Ġsh red
ĠGener ation
Ġflood ing
Ġch ore
Ġtherap ies
ĠNAT O
ĠBro oks
Ġsa us
Ġj og
T ry
cess ion
Ġen light
Ġpost ers
L at
Ġrob ots
c ertain
erm at
Every thing
ĠCh a
ĠGu est
ĠV ista
Ġille g
Ġfu els
ĠStart ing
ĠA IDS
Ġmark ers
Ġpath way
ĠFl ight
ĠWH O
iv ated
ĠIraq i
Ġt in
ĠMat hemat
ĠCON T
Ġprede cess
Ġsy rup
ĠC ad
Ġgl am
ĠFour th
ĠLO VE
Ġun belie
ra wn
Ġl uc
ĠTele vision
ĠEvent ually
ĠMin or
Ġcr ude
ĠPro ced
Ġexam ining
Ġc ables
Ġdoll s
Con nect
Ġaccompany ing
Ty pe
R ock
Ġve ctor
Ġanaly zing
gl ass
Ġdem ographic
T ag
AM E
Ġn ons
ĠIn it
ours es
ĠVin cent
Ġpay roll
Ġp ads
intend ent
Ġbr ass
Ġvis ually
ĠPoint s
Ġout rage
1 30
Ġquestion ing
Ġer u
Ġpor ch
Ġox id
Ġt ones
Ġacqu iring
Ġrenew al
Ġencourage ment
Ġintrig uing
Ġsc roll
ĠN T
ĠTre k
V er
Ġext ensively
og g
Ġic ons
Ġsur render
ĠF ellow
erv ices
Ġspot light
Ġfore most
] [
O k
ĠAssist ance
Ġd inos
is le
ĠB ud
Ġa meric
on ents
He ad
B ill
or o
Ġelabor ate
Ġank le
ĠF oster
Ġmembr ane
ai ro
ĠF itz
C y
ĠAsh ley
ĠG aming
H ouse
Ġa fore
ĠN S
Ġn ode
che t
Ġener getic
Ġe ld
Ġ196 4
Ġcontact ing
Ġacceler ate
p ic
ubb orn
Ġcont ing
Ġdom ains
Ġno ises
Ġmed ieval
Ġver bal
Ġaggreg ate
Ġconcentr ations
Ġrelie ve
hand ed
Ġk icks
b rand
ed uc
Ġupgr aded
Ġcorrespond ence
ble ms
ĠExcell ence
Ġfulf illing
ĠFant asy
Ġhur ts
ri um
ĠT iger
ĠC ities
Ġw ounds
Ġst rap
ne apolis
Ġsc am
Ġcoord inate
Ġshall ow
Ġsur pass
Ġtour ing
Ġreg ener
Ġut ilities
Ġexp ose
ar an
ĠBern ard
i eth
Ġparent ing
Ġd ug
het ics
ĠCond ition
ĠA W
Ġcancell ation
Gl obal
ur ally
Ġtub es
oo oo
ĠCh and
Ġcl ue
p oon
âĢĶ âĢĶ
ĠV o
Ġun for
ID E
Ġexhaust ed
Ġrend ered
ear chers
ale y
Ġgl orious
ĠEx cel
ĠEconom y
C ost
Ġv est
s cience
ĠR C
r r
Ġtre k
ur ous
Ġhorm ones
ĠGh ana
Ġlandsc apes
Direct or
ĠAl pha
er red
inf o
ĠTh an
Ġremed ies
Ġcrus hing
Ġden ial
ĠCar bon
Ġf ost
C AR
Ġinter ven
sh ow
Ġz omb
Ġadvertise ments
Ġsubsid iary
ĠHar per
AT A
ĠM ORE
ĠBehav ior
ĠEffect s
Ġa ston
Ġlight ning
Ġbe verage
ĠMo z
Ġundert ake
ĠCle aning
Ġdr illing
Ġdat as
ĠD raft
Ġbro kers
Ġdoub led
ern el
ĠCoal ition
sm all
Ġ19 65
ĠPict ure
Ġimag ery
ĠSustain able
amp oo
IS H
ight y
ven ile
Ġhe y
Ġang les
Ġform ally
Ġanticip ate
Ġmis under
ĠMem ory
de gree
Ġcommit tees
ĠD addy
ĠL ate
ĠMult iple
ĠCh ampion
d ec
ĠRod rig
tt i
reg n
Ġbet ray
P op
Ġrow s
Ġcon e
Ġgr inding
Ġsand wic
Ġstret ched
Ġscream ing
ric a
G L
Ġle ap
tend ed
Ġillness es
ash i
Ġsever ity
arm ing
ĠV ik
ford able
Ġim pe
Ġsod ium
unt u
count ry
Ġins ulation
Ġext ensions
ian e
ĠW R
Ġn ort
ĠIm agine
Ġinsp ir
Ġsk ull
Ġvot er
om o
Ġins ured
Ġl oses
Ġv ou
Ġarbit ration
Ġg ates
Th ings
al one
Ġh ott
ĠCitiz ens
Ġsl iding
ne g
Ġper sec
ot ics
ĠU g
P ac
ent ry
ir i
A ustral
ĠSU V
Ġav iation
ĠB le
app ro
Ġdisc ontin
L ittle
Ġpl ag
Ġbra ke
ĠPric es
ĠLuc as
ĠSc ar
Ġinhabit ants
ĠF it
St ation
Ġwas ted
Cl oud
red ict
Ġsad ly
cont rolled
pri v
Ġr am
Ġgam ers
ĠL it
Ġcush ion
ĠV ers
Ġlif elong
Ġse w
ĠC el
Ġse as
ĠCP U
ĠSw itch
St ay
Ġr ushing
r ho
s hips
Ġrib bon
b us
Ġvari ant
og s
ĠR ush
ues e
Ġaffili ates
S ar
s igma
ĠY u
ĠTig ers
Ġtr unk
Ġpr ince
f iction
ĠR aven
cl ip
ĠN am
ĠC atherine
Ġ3 65
Ġillustr ate
ĠK ra
Ġsec ular
as ia
Ġgrad uating
ĠðŁ ĺ
Jes us
Ġd awn
ĠEn c
ĠChampions hips
Ġadd ict
E duc
ĠBry an
Ġenvironment ally
arr ay
ĠT ournament
ĠL ore
Ġpar as
Ġ //
Ġgall eries
Ġemp ire
ĠOpt im
Ġcom f
Ġround ed
Ġactiv ate
ĠPop ular
ĠB orn
Ġill ustration
ĠP ure
it ored
Rep ort
ĠS it
iox ide
} {\
Ġdiv isions
Ġaut ism
Ġincorpor ating
char ged
ĠH S
gener ation
Ġre lied
Ġacc us
ĠG onz
ĠM olly
amp ire
aw ays
Ġtraff icking
Ġdefin itions
E nt
ĠVictor ian
Ġintrodu ces
pher d
Ġproceed ing
Ġnot ices
Ġste ak
With out
ĠK ill
Ġint est
Ġre lying
Ġbreak through
op ed
Ġpriv ately
S ave
ĠFl at
pre m
Ġart if
Ġinv ites
Ġris es
Ġpol ish
ĠF E
L ight
Ġint act
Ġpun ct
Ġel astic
ĠM AN
Ġv ic
Ġeffic acy
Ġsculpt ure
he at
ĠGener ally
Ġovers ight
ĠPod cast
Ġber ries
we lling
Ġpol ite
Ġgra pe
ĠBon us
ĠL P
ĠSh ah
math rm
ĠIce land
Ġembod iment
e als
Ġuse less
Ġsurv iving
yl an
Th ink
Ġc innamon
az ed
ĠC elt
ĠScript ure
Ġri vals
P et
Se lect
Ġposition ing
Ġpot ent
ĠReg ardless
z one
ĠSh ore
Ġuns ure
ry lic
Ġumb rella
ĠTest ing
ĠThrough out
Ġw ipe
sy stem
Ġfree zer
Ġkey word
Ġmer it
ĠÂ ½
ĠM aur
ĠHe ights
Ġdisappoint ment
ĠSpecial ist
ĠS ierra
N AS
ĠA U
ĠKat ie
ĠR angers
M el
ĠT D
ĠBirth day
ĠLiter ature
Ġsc enery
ri ved
ĠInd igenous
ov o
im eter
is fact
ĠTe achers
urn ed
h all
gom ery
Ġru in
heart ed
Ġdownload s
ick y
Ġban ner
Ġstory telling
Ġb ip
ĠMar x
A g
P rior
Ġhe mp
ĠCh uck
Ġfeed s
Ġcul min
Ġpost p
Ġbe nd
ĠRoc he
Ġfl oral
ĠTe en
ĠPat ients
Ġpun ish
ĠCarl os
aun ting
ER Y
Ġfool ish
Ġn our
ĠSo ci
Ġ( +
Ġred e
Ġc bd
Ġsh rimp
Ġres cu
Ġse iz
Ġcrus hed
Ġmagn itude
Ġt v
Ġclear ance
h um
Person al
ib li
Ġg reens
Ġcrim inals
Ġinflu en
O ld
cl ub
M aking
Ġ Ï
Ġcost umes
Ġtaxpay er
Ġover time
Ġa ids
Ġmar vel
Ġprof ic
ĠH aven
ess a
Work ing
ad os
ĠCoord inator
Ġencount ers
ĠP aint
rict ion
Ġsuspect s
ĠSol id
Ġdark er
Ġn aughty
ĠD ol
Ġslic es
Ġpul se
Ġcomm ander
Se ction
ĠStrateg ic
Ġhy giene
Ġhol istic
Ġsp ice
ĠHar vey
Ġforg iveness
ver ages
Ġmic rowave
Ġsh aking
Ġcomm emor
Ġd rought
ĠP ix
Ġvirt ue
ĠPear l
iv o
Ġp umps
Ġ( \
K ing
he a
Ġn inth
Ġkind a
c ir
ĠR ud
ĠPhys ics
ĠGl as
ĠC able
% ),
Ġcoup ons
s q
Mus ic
Ġmob il
Ġwish ing
Ġvulner ability
W O
ch t
Ġaim ing
Ġcivil ians
Ġ1 11
ĠGu arant
Ġdesper ately
commun ications
Ġtrib e
Ġstud ios
Ġsub missions
N umber
Ġoverlook ed
ĠK il
E nd
ĠJul ia
ĠFun eral
Ġcompr ising
Child ren
Sm all
Ġse afood
Ġ2 20
ach ment
m ith
Ġsh adows
Ġn asty
Ġinequ ality
ĠY ale
x it
Ġslee ve
Ġlung s
Ġco h
t ails
bu ilt
Ġyear ly
Ġst ubborn
Ġnot ifications
pos ium
Ġtri umph
n ai
Ġover d
Ġun law
Ġstart ups
Ġb oun
Ġend ors
ĠC ategory
Ġpal ace
ĠNe ither
l ap
au er
Ġdev il
# #
ĠM ills
op ing
l iter
f ox
ib an
Ġmet a
Ġcomp osite
Ġprosper ity
ĠCal if
EN S
Ġdece ased
c ents
ra ul
Ġto ast
ĠW ag
he y
There fore
Ġswe ep
th y
ĠC E
Ġdelight ful
Ġpean ut
ĠNep al
Ġh id
Ġrefer ral
ĠB ald
M ad
Ġind o
Ġin acc
Ġh ated
Ġabund ant
Ġprov ing
So ft
Ġhighlight ing
e or
Ġbra ins
ĠMot ors
Ġconcept ual
ul ance
l ength
ment al
l ove
ĠH our
l ings
Ġvalid ity
Ġconstit utes
phan ie
ĠTr inity
ĠCom plex
ĠM ol
ĠRead y
nd ant
Ġto es
Ġstretch ing
or p
ig ent
ĠM alt
R ad
Ġinter im
Ġanaly tical
Ġbree ze
Ġbath rooms
u rolog
OS S
Ġinstall ations
b as
EN CE
Ġjust ified
ĠSat an
Ġsquee ze
ĠYan kees
Ġflav our
Ġslic ed
- $
ĠLeban on
Ġmathemat ical
Ġdr ums
ĠEn s
Ġfin es
Ġac oustic
Ġsl aves
Ġclar ify
Ġinterpre ted
Ġrele vance
Ġj elly
te nder
Ġembarrass ed
Ġmicro phone
or ne
ĠP apers
inc eton
Ġmos qu
Ġh i
ĠS hip
Ġcompassion ate
Ġt read
ĠProject s
Ġpos ed
-- -
App le
Ġfell owship
Ġcar n
Ġpos es
ĠCh apel
amb oo
Ġprofess ors
ĠN an
Ġcomfort ably
Ġdu ct
Ġinquir ies
Ġh ay
Ġpray ing
Ġreal izing
oy s
j pg
ĠTour ism
l ift
ĠWi Fi
ĠNe igh
Ġash amed
ĠAn a
Any way
V AC
ĠIndust ries
Ġan gels
ĠOut door
Ġdisappoint ing
f an
Ġt an
Ġ10 5
Ġbench mark
olog ic
Ġcor rid
âĢ¦âĢ¦ âĢ¦âĢ¦
Ġtr an
Ġemb ro
Ġcream y
Ġextra ction
ĠW end
ĠEnt reprene
Ġpath ways
al ine
ĠBreak fast
â ĺ
udd y
ĠLaure n
Ġan ime
n ational
ĠPart s
Ġassess ing
Ġdecor ative
U B
Ġsp inal
Ġviol ated
ĠC emetery
Ġpra ised
ĠColl abor
Ġunh appy
ĠMov ies
Ġa irlines
F amily
ob a
ach i
Ġdr one
ific ant
ĠJ ar
Ġblow ing
ĠO P
F ound
Re cently
Ġsle pt
ap le
Ġw ires
Ġa unt
Ġrelie ved
Ġto ken
ĠAny way
Ġwe ights
M att
Ġten ant
Ġpain ter
z el
ĠBut ler
ĠR ating
ä ¸
Ġf li
Ġsemin ar
Ġcalcul ations
Ġgener ates
Ġle nd
P riv
ĠH ood
ĠE lection
ĠG aza
F ire
ĠMot ion
Ġmon itors
Ġcar rots
W rit
ĠP am
Ġl am
Ġper t
uls ion
Ġsuper visor
Ġsusp icious
ĠM end
Ġl ivest
Ġped iatric
* }
ĠD h
orig inal
od ia
ĠHug hes
at isf
ĠB ristol
^{ -
Ġc ens
Ġinher it
Ġcelebr ations
Ġde af
Ġbas eline
Î ¿
Ġmar athon
r ina
Ġcred ited
Ġdet ention
ĠB ak
Ġshock ing
ra its
ĠDis play
ow ers
ov ic
ĠC I
ĠChem ical
Ġhilar ious
Ġad vers
Ġst urdy
ĠS MS
Ġcapt uring
ĠR aw
ĠPl aza
ĠNet works
Ġpro be
Ġrum ors
ĠN ad
ĠNor man
Ġbelie vers
g ro
Ġcollect ively
P LE
Ġacclaim ed
ĠK arl
Des cription
Ġo we
Ġfreel ance
Ġab oard
ĠCo hen
ĠCon cer
Ġrou lette
Ġmoist ur
ĠM iles
Ġch i
ĠL amb
r ays
Ġtast ed
ĠA chie
ĠDis covery
p ract
U lt
Ġdown s
Ġmur dered
ed er
Ġles bian
ĠCont emporary
Ġtransport ed
Ġlock down
ov al
Ġdis semin
Ġroof ing
Ġsoph omore
Ġb ru
ĠNew ton
ĠL ORD
ĠColomb ia
Ġdisturb ing
Ġrig orous
iz a
Ġpol ished
Î ½
Ġey eb
Ġrep ublic
ĠRepresent ative
ĠEngine er
Ġst aring
FOR M
p it
Ġbe ast
Ġg reed
ĠReg ular
Ġpl asma
Ġtrib al
Ġcal culation
Ġdoub ts
Ġex cerpt
Ġcer amic
ro d
ĠE VER
ĠG ates
ĠArab ic
ĠB ent
s ens
C amp
Ġsho ppers
Ġcr unch
Ġseason ed
Ġflo at
Ġt ournaments
B rit
Ġlong time
Sh ort
ould er
ĠD ame
Ġrecogn ise
Ġterrit ories
Ġcounterpart s
Ġdefin itive
Ġbe verages
Ġalle vi
Ġ196 6
Ġident ifies
Ġtow ers
Ġre jection
Su pp
ine es
Ġsp ont
ĠMil an
bro ok
agon ist
e ur
Ġo l
Ġur ine
Ġmel ted
Ġc rap
Ge orge
ĠG az
Ġtim ber
ĠV enezuel
Ġpersonal ities
Ġlug gage
ĠRel ated
ĠShan ghai
Ġall ocation
ens en
Ġimper ative
Ġs her
f lo
Th us
ĠG D
Ġwater proof
Ġobs c
Ġadd itions
f ill
Ġmark er
Ġamend ments
Ġl b
Ġtri o
port ant
ĠPro ceed
c od
ĠX P
Ġbron ze
Ġmon itored
ĠCand id
ad der
ĠManufact uring
ĠM ead
ud ed
ĠSouth west
O G
Ġteach ings
Ġteam mates
Un like
Ġadvance ment
ĠV ar
Ġdiscon nect
Ġred es
y r
at hetic
+ \
Ġsp ices
ĠApp eals
Ġfulf illed
Ġstim ulate
Ġmerch ant
Ġac ne
Ġbi om
Ġj ungle
Ġcoll ision
Ġresol utions
Ġabsorb ed
ĠCom ing
Ġargu ably
Ġde mentia
Ġsupposed ly
Ġd addy
Ġgovern ed
Ind ia
ĠK os
Ġun cover
Ġle ar
Ġarth ritis
~ ~
Ġro oted
ĠZ en
Ġabs urd
Ġap ost
Ġneck lace
Ġrest ing
ĠE b
board ing
Ġm im
h ad
in ology
Ġbroad band
Ġreimb urse
Ġcivil ization
Ġfather s
Ġmark ing
Ġlack s
ĠEx cept
Ġch asing
ol ia
res istant
erg arten
Ġregul ators
ĠBul gar
Ġe book
Ġrisk y
Ġgen res
Ġimmun ity
Ġserv ant
Ġquarter ly
ear ly
ĠExplore r
f s
Ġproblem atic
Ġuncons cious
B ra
Ġbelong ed
ĠBrad ley
ĠR ico
Ġh ometown
Ġdry ing
d ie
Ġtrib es
j ah
ag ain
t i
Ġth igh
Ġstuff ed
ĠO pp
Ġr ider
Ġmin isters
ixt y
Ġcomm ence
ĠN athan
am o
ĠL ots
Ġesc aped
Ġspat ial
Ġhead line
Ġspec ulation
Ġgra ins
us ions
Ġad ul
Dig ital
ĠTw in
rib ly
qu in
Ġrequest ing
B rand
Ġcere mon
ĠSte in
Ġweakness es
med ia
c ro
d ata
ĠFact ory
Ġmir acle
Ġassoci ates
ig a
E arlier
Ù İ
r ative
gam ma
Ġrebu ild
ĠMarket s
ĠGr am
at ches
Ġadv ancing
ĠAr ctic
Ġse lections
ĠAnge ls
US E
ĠJ ourney
ĠJ os
reat h
Ġcomp ression
F P
Ġadmin ister
Ġsubject ed
it ives
F riend
ÃŃ s
cyclop edia
ĠG em
ĠP ER
, ,
ĠMem phis
Ġcr ay
Ġneglig ence
ĠBr us
ĠMed ium
ĠAm anda
Ġbegin ners
Ġwrit ings
ĠK ick
W ashington
d ates
ĠM ull
ump y
og ene
ĠMer cedes
Ġinter val
Ġvacc ination
il ia
Ġworth while
cu le
Ġpat ches
Ġuncom mon
Ġmar gins
Ġexhib itions
^ \
ĠSp encer
19 99
L o
ĠSand ers
M ade
H y
Ġfra gment
Ġhell o
Ġdig ging
ool s
ĠRepresent atives
w rite
Ġe Bay
ĠA ra
Ġ1 12
k ens
Ġgo at
ero ids
ĠV el
ĠM ak
ire ction
rat ulations
ĠD ell
ĠIndepend ence
Ġt ide
Ġesc ort
Ġdivide nd
ĠIsa ac
Ġev angel
Ġinc oming
ĠSud an
b ag
D aniel
â ĸ
ĠL ith
Ġn inet
ĠM ode
OL D
Ġast hma
ink les
whe el
Ñ ı
ĠHe avy
Ġweb inar
Any one
Ġprem ise
Ġrev ision
g t
Ġst orms
sc he
Ġnight mare
ĠTown ship
ĠS id
D i
Ġbl oom
i ated
ĠG RE
TH ER
Ġspokes person
Ġlear nt
Ġher bal
Ġpro pe
Ġdevelopment al
n els
app le
Ġw eddings
ĠH ob
l asses
Ġd rown
ĠApp arently
Ġment ions
B ox
Ġbund le
Ġunique ly
ern ame
De f
Ġparam eter
ĠP ump
Ġnow adays
Ġele ven
Com merce
Ġback drop
Ġhur ry
ph abet
Ġthread s
Ġstick y
s burg
ĠMor occ
ĠH ook
ĠC B
Ġinstruct ors
Ġpitc her
ĠAr men
av il
was her
Ġinc urred
ĠSh ield
Ġwh olly
ens on
cont rol
Ġupload ed
im ming
ood les
m ax
7 50
Ġrandom ly
Ġcountry side
c ill
Ġsal aries
Ġc iting
Ġhonest y
Ġencry ption
m ake
Ġinval uable
Ġmush rooms
Ġelev ator
EE E
Ġrook ie
ag le
Ġwrest ling
H on
Ġdep ressed
Ġaccomplish ments
ĠInt o
ĠMin neapolis
ĠSy nd
ĠWh ole
ĠY or
Ġbreast s
um en
Ġvib e
Ġoccur rence
Ġshap ing
ĠT ot
Ġf oul
velop ed
Ġland mark
a ic
Ġrecover ing
Ġfilm ing
Q ue
Ġintern ship
Ġcul inary
osh op
Ġwe ars
ĠFor mer
Ġpractition er
Ġe go
ud er
ub a
Ġp ars
ĠOtt awa
Ġscan ning
ĠApp lied
ad ers
am ation
ff le
Ġbal ancing
ĠRe uters
Ã £
ĠT rial
Ġhum idity
olly wood
Ġcarb ohyd
ĠHot els
ĠC er
Ġarch ives
ĠSh opping
F I
Ġgu iding
ĠY ang
Ġpoly mer
ĠCa fe
ĠJo el
duct or
Ġindu ced
ĠJosh ua
fe eding
Art icle
te chn
ĠOper ation
ĠWrit er
Ġinev itably
H E
ĠLuck ily
Ġtransform ing
ĠF iction
amp agne
ĠUA E
ubb ed
ĠSc ore
F orm
A I
er ting
Ġwork outs
Ġpri ests
Ġutter ly
ĠConsult ing
Ġdes ce
ĠInc ludes
Ġhands ome
Ġcheap est
de al
, .
Ġconsist ed
Ġinval id
Ġk in
ĠHur ricane
ĠNaz i
S to
Ġinter fere
Ġcur b
amp ed
ĠRe cently
Ġor che
d elta
ist ries
f at
Ġsc oop
Ġfre ight
ĠLe gend
oca ust
ĠHol mes
$ $
Ġvari ants
ik o
Ġrefe ren
IC S
Ġaccommod ations
Ġra bb
Ġbiz arre
D ist
ĠT C
ĠW ide
Ġspr ings
ĠMarc us
ĠCro at
resp ons
ĠR alph
ry s
Ġlegisl ature
ĠY am
Ġsuper hero
f to
ĠT E
Ġfree zing
am iliar
Ġviol in
Ġimpro per
Ġpe ek
is se
Ġfurn ish
As k
?? ?
am pton
ĠNich olas
W ritten
Ġd ioxide
Ġundert aking
ust ed
ĠLe af
ĠApp s
Ġinter mediate
Ġcompet itor
Ġad here
ĠAc cept
n amed
Ġn odes
Ġswe lling
V e
tw itter
ĠC arn
ĠEx pect
J apan
Ġdis ruption
Ġep it
ĠH amm
Ġsufficient ly
ĠMain tenance
Ġeven ly
ĠD od
! ),
Ġ` `
Ġtestim on
Ġwar mer
ol er
Ġdemonstr ating
Ġdeb ates
Ġrent als
Ġbubb les
p ad
Ġinfin ite
Ġlisten ers
Ġrecogn izing
ham mad
Ġqual ification
Ġst oring
ard i
Ġcompl ained
Al ong
ĠĠĠĠ ĠĠĠ
Ċ ĉ
ĠP urchase
Ġse ized
Ch apter
form er
ĠMe asure
Ġg oogle
Ġvoc abulary
ar in
ĠD owntown
IG H
Ġj umps
ĠAn cient
B orn
Ġhand made
ĠMov ing
Ġcapt ures
connect ed
ĠPortug uese
ht aking
Is rael
M il
Ġancest ors
p hew
Ġun authorized
Ġdirect ing
Ġblood y
Ġmetap hor
Ġtw ent
Ġ196 3
Ġst ems
Ġrese ar
ĠL ila
c ology
Ġinsert ed
Ġpre cip
Ġgarden ing
e ffect
ĠB elt
ĠB und
Ġviol ate
Ġye ast
ab i
ush i
st own
ĠB att
OR Y
Ġins ult
ĠV illa
ĠChe ap
Ġcl iff
B esides
Ġrevel ation
Ġcard iac
et ra
Ġresid ency
ail ure
ĠFurn iture
Ġturt le
Ġsexual ity
Ġprovin cial
Ġhazard ous
Ġmid field
W in
ch y
ĠL ip
il ient
Av ailable
Wor ks
D B
fe ine
Ġkick ing
Ġlength s
Ġfore front
Ġan onym
h n
ĠQue bec
Ġhe el
Ġ10 2
ĠR EL
so cial
g rand
ss on
Ġpreval ence
ĠBloom berg
Ġlaun ches
Ġ18 00
P ass
Ġsecure ly
Ġcompan ions
Ġ ion
ĠT ap
cent er
Ġprotest ers
ĠBB Q
ĠAt hens
ĠSp ark
Ġmor ph
\\\\\\\\\\\\\\\\\\\\\\\\\\\\\\\\ \\\\\\\\\\\\\\\\\\\\\\\\\\\\\\\\
o j
ĠMethod s
ĠMort gage
ĠGe or
reat ment
A pr
l iness
ver ted
fol k
Ġsw ap
b ane
ĠD awn
C ross
Ġb ore
ĠS ullivan
Not hing
qu ad
Ġen vision
ĠS olution
Ġpat ron
ind e
Ġdecor ations
rad itional
Ġplay ful
Ġ4 50
AB LE
Ġex h
ĠS low
at uring
. (
Ġbudd y
Ġcontrib utor
Ġmis erable
ĠS ame
Ġpil ots
E arly
ĠP E
Ġcommod ity
Ġanth rop
io let
V R
i ens
fer red
ĠWall ace
Ġunve iled
Ġun anim
ĠCert ification
F ive
Ġcand les
ĠE at
ĠF unction
ĠD ust
Ġrep roduction
ĠList en
Ġhe ars
Ġinsu fficient
ĠPhilosoph y
ad ians
Ġtag ged
ex cept
â Ĺ
Ġall ocated
ĠGen esis
ĠRe agan
Ġnew born
Ġv irgin
Ġs id
ĠC raw
Ġth riving
Ġan at
Ġexam ines
Ġc ows
C e
Ġsandwic hes
ĠHop kins
Ġ19 45
part ial
ĠR osen
Ġrest art
al an
Ġhott est
Ġdis asters
ĠC otton
ĠB ears
J on
ĠS or
Ġf ats
ans on
Ġemphas ize
Ġsch olar
Ġclass rooms
Christ ian
the m
Ġb iblical
ĠSym phony
Ġdeliber ately
ort ium
hold ing
Ġk ite
ĠU I
ĠBenn ett
n ik
Ġmin s
ĠN I
16 0
perform ance
H and
prof ile
ĠSh adow
ĠImper ial
Ġadop ting
Ġ ×
Ġoptim ized
Ġhe ights
h l
Ġsh ark
ĠJ et
ĠTib et
weg ian
Ġstead ily
Ġtw itter
Ġpremium s
Ġapp rent
Ġris en
v or
C r
Ġmat urity
ĠProv ide
Ġhalf way
Pro ject
ATION S
Je ff
Ġcritic ized
ĠTra ffic
Ġmist aken
ĠM IT
Ġfeas ible
ĠK end
Ġrep roductive
Ġw icked
Ġwho ever
ĠLyn n
Ch oose
Ġdipl omatic
Ġkilomet ers
Ġcoord inated
Ġc ensus
ĠS ession
v id
ĠReg ulations
ĠV ine
head ed
ur ry
re a
Up date
ĠD aw
Le ave
Ġtest osterone
p ark
Ġwh ites
ĠPro test
ok ia
Ġlic ence
ĠDog s
Ġadvis ors
Ġjack pot
Ġp H
Ġm ug
ĠM ul
ĠBa iley
Ã ł
ĠRe cent
Ġn erves
ON G
ĠTim othy
ĠExam ples
ĠOper ating
w ife
claim er
Ġphil os
Ġbar g
Ġmil estone
ĠW ait
Ġhe ater
ĠK erry
Ġple as
ange red
Ġint ens
Â ½
ĠL CD
Ġwe ed
le tters
ĠEth ics
ĠMet ropolitan
Ġchar ities
Ġwarn ings
Ġsuccess es
Ġsqu ash
Ġdisplay ing
ĠB our
Ġconf ess
Ġlog ging
Ġgr ind
ĠC ensus
Sm ith
est ly
S end
oc ado
Ġvel ocity
ic one
an ic
Ġinv asive
ĠFell owship
app a
G P
R est
IN K
Ġprefer ably
S uch
ac a
Ġ19 00
Ġun le
ĠRe becca
f lies
ĠV a
Up dated
ĠH annah
T ex
Ġpublic ity
Ġwild erness
ĠB S
insp ired
Ġhypot hesis
ĠRec ogn
ĠD rew
Ġsle ek
ĠT all
k it
ĠU T
ĠF ri
Ġam ino
reng th
Ġstir ring
ĠPack age
Ġantib iotics
Ġra ge
Ġfresh ly
Cur rent
ĠCl aire
Ġphilosoph ical
ĠA er
ĠVi enna
ĠSacr amento
Ġspo il
Ġinstall ment
ĠRom ans
Ġp enny
Ġby pass
M ass
Ġsp ill
Ġtail or
ri ad
Ġair ports
ĠE arn
Ġimp art
ĠG am
Ġrestrict ion
ĠC ord
: :
Ġhook ed
Ġcelebr ates
ĠO UT
Ġaw aken
il ant
Ġmer ger
ĠChem istry
Ġcol oring
Ù Ĩ
R om
âĢ¦ ..
Ġs ir
ĠCor on
Ġexp ans
f ix
Ġsing ular
ĠJ enny
val ue
ens ing
Ġge ographic
S ize
Ġquant itative
Ġop ener
U AL
Ġopt ed
oc aly
r h
**** ****
ĠPrinci pal
ĠC row
AN G
Ġoun ces
head s
ĠDec or
ĠC ox
f o
Ġno isy
Ġstra ins
ĠW ake
ĠMont gomery
Y S
ĠF inding
ĠL ect
ill ery
Ġspecial ize
ĠBu ilt
ccess ful
Ġsyn chron
al ogue
ood le
Ġsynt hesis
Ġs ulf
Ġlog s
ĠDo ing
Ġcongreg ation
Ġinst itute
ĠDiv ine
Ġembra ced
ĠChe v
Ġinadequ ate
E p
ur st
Ġun ch
Ġinfect ious
Ġgr ammar
ĠB attery
Ġab used
ĠF est
Ġmart ial
Ġfut ures
Ġgovernment al
Ġcra cks
Ġimm igrant
ĠG ear
ĠGl enn
Ġadm its
ĠP ill
Ġt idy
Ġdr ank
L ondon
Ġharm less
le q
Ġattract ing
Ġtang ible
ĠEdd ie
L ow
ĠB less
S em
ĠA K
ĠLl oyd
D oc
ĠP i
Ġsc ra
Ġprem ature
ĠRock y
Ġshe lls
Ġpart nered
Ġface book
ot iation
ĠC op
ĠGl obe
the ta
Ġpur se
Ġgrap es
ab lish
Sub scribe
Ġstimul us
Ġnor ms
Ġclick s
ĠImm igration
ĠAct ivities
ĠR oof
ĠAl bum
t au
ĠCD C
Ġres ide
ĠCh ad
an ol
oos es
Met hod
ĠS aw
ĠBr ady
ĠSupp lement
ĠÂ «
14 0
rit ical
um at
is al
Ġtro phy
Ġacadem ics
p ine
Ġprolong ed
Ġexpress ly
u pp
ec hes
Ġre per
Ġg own
ex pl
E vent
ric ia
Ġh ints
Ġattrib ute
ĠSt ir
Ġcapital ism
v are
ĠD S
Ġk not
Ġroutine ly
W ar
Ġbe ers
Ġallerg ies
Ġgrand parents
ĠP ART
om p
M er
Ġexerc ising
Ġcater ing
U ntil
" :
ĠCh arter
Ġun rest
Ġinput s
Ġincon ven
Ø ±
n om
un al
Ġorient ed
G rand
Ġor th
Ġat he
Ġw anna
rox imately
Ġcomp rehe
Ġpron ounced
he res
Ġdist ances
ĠC bd
Ġval uation
Ġab ol
ir ical
Ġcomp ress
Ġtim eless
ĠR ug
ĠArch ive
ĠP oor
ĠN G
Ġadvent urous
ĠRe yn
Ġdeb it
Ġc ivic
Ġfound ers
ĠGuid elines
Ġswe pt
Ġwh ale
Ġmal ware
Ġnotice able
ĠR unning
US D
Ġrec alls
Ġtwe ets
Sc ott
Ġexplo it
Ġcan al
p se
Ġinf ants
Ġhead ache
Ġir regular
ĠBel le
w ire
Ġabsor ption
ĠComp ar
c ano
Ġdi ary
ĠAdvert ising
Ġpro state
ĠGlas gow
ĠDi pl
You ng
Ġimag in
ang ular
Ġforth coming
Mat thew
Ġhaz ards
Ġsup reme
Ġmet ric
Ġcat ches
ĠFlore nce
ĠHispan ic
P RO
Ġp estic
Ġsmell s
Ġsystem ic
ĠWe re
Ġpat ents
ĠDat abase
Ġbom bs
Ġec ological
vas ive
T itle
t ops
in as
ĠExcell ent
ĠTrad itional
read ing
Ġb un
well ery
Ġinj ust
ĠU l
Ġstart ers
ĠCon cept
ĠMar tha
Ġprom o
ĠF ill
ĠL iqu
ĠN om
Ġjud ged
ĠU b
Ġinter vals
Ġreven ge
Ġpropag anda
Ġup ward
els h
Ġconc ludes
ĠAccount ing
ĠSum mary
coh olic
Ġb is
id i
Ġturn over
Ġdisc ourse
k ar
Ġrem inis
ĠAll ow
ĠS orry
v ic
Ġpay day
Ġver dict
Ġrefuge e
Ġ _
T ell
Ġtun es
i enced
Ġincom plete
ĠA ub
Ġper ceive
ro ads
Ste ve
ĠSp ider
ĠRe id
ul se
Ġadvis er
Ġf res
ĠCor inth
work ers
Ġir rig
Ġr ifle
ĠAlf red
ĠBe e
Ġver b
IL ITY
per m
Ġauthor ization
nes ium
Ġsens ible
Ġrig id
Ġg i
Ġrender ing
Ġ9 11
ĠNic ole
clip se
y ll
IC T
Ġvers es
ĠS AP
Ġar ises
Ġown ing
ĠPalestin ians
ĠJes se
Ġhat red
h art
Ġtables poon
Ġcan cers
Ġdoub les
Ġbul b
Ġthe e
ĠPow ell
ĠOut look
let in
ĠW ing
Ġgas oline
ĠL ocated
O per
Ġo ste
Ġaw ake
Ġl ol
ĠN H
Ġpin ch
ĠCal endar
Ġdial og
Ġemploy s
Ġarchitect s
Ġmem oir
in se
ĠWal mart
Ġpro active
i u
Ġste aling
t em
x ic
Ġre ef
ce ans
Ġinc idence
ĠSt y
Ġtreat y
Ġcompl aining
Ġex emption
ĠGu ild
ux e
Ġlaugh s
Ġrelig ions
Ġbreat htaking
ĠChar acter
Ġpro c
g ars
Ġn ostal
OC K
ĠR ena
en o
Ġemp athy
Ġd ictionary
Ã¼ r
Ġconvenient ly
Ġdev ote
cont in
Ġsw itches
Ġannoun cing
isfact ory
ĠCab inet
iod iversity
Ġpropos ition
Ġmon sters
Ġ15 00
ge bra
Ġcur tain
ĠHit ler
Ġhel pless
ĠIn nov
quir y
Ġne phew
ĠTer rit
ĠPl astic
Ġmult itude
ason able
10 5
Ġexception ally
Ġsp here
us on
Ġflags hip
Ġband width
Ġmir rors
Ġconst ru
or f
Ġv om
ĠOr thodox
ĠF erg
ire ment
focus ed
Ġ' :
ili ate
ĠRequ est
Ġst akes
ĠM ist
d raw
b low
the ir
Ġpreval ent
ĠOr d
Ġinte nds
Sh op
J P
Ġf ixtures
ab we
Ġhistor ian
ĠE sp
so ver
ol ics
Ġadequ ately
ĠCh ain
c iliation
Ġhead aches
Ġexclus ion
Ġor n
roph ic
Ġtri angle
d ist
iv ation
it ures
ĠMcC ain
Ġme g
Ġpres erving
Ġimpl ants
Ġant ique
ance ment
Ġy a
W as
Ã º
Ġrepresent ations
ou lt
ĠCat hedral
Ġintention ally
g rowing
Ġpitch ing
Ġbroad ly
uten ant
Col or
N N
Ġ12 8
Ġrehe ars
] {
Ġdigest ive
Ġenh ances
ĠF ear
Ġdestro ying
u ci
Ġpat rol
Ġru ined
Ġphil anthrop
omed ay
u y
ĠV AT
18 0
Ġa we
âĢĿ ?
ĠTru ck
ĠCR M
B LE
se ys
} (\
ĠEqu ity
ĠRead er
ĠO w
ĠPr inceton
raul ic
ur bs
Ġserv ants
ĠIndian apolis
Ġd ile
om al
W N
Ġprodu ctions
Qu est
ĠRes olution
rend um
Ġcomm itting
Ġax is
ĠLiber al
c ook
get table
Ġw ag
ĠFort une
it uted
Ġcoc oa
Ġpay able
Ġsemin ars
Ġgr in
ĠT ag
M edia
ĠB T
ĠAmb assador
Ġqu ilt
des ign
Ġprot otype
Sp ace
ĠB ir
ĠO live
R oy
Ġperform er
W C
ĠEl ite
Ġwor m
ĠMc L
ĠM AT
Ġrecept or
ĠElect rical
Ġspecific ation
ĠLyn ch
ĠSt re
Ġdead lines
Ġl ingu
cont ract
Ġmis leading
ĠPro tocol
Ġincl ined
ĠS ie
ĠR ank
Ġw iring
est hes
ĠFam ilies
Pl ace
ĠB ark
Ġr ats
Ġinstruct ed
Ġdraft ed
b ucks
Ġdest ructive
ote chnology
Pac ific
Ġemb ry
v iol
Th omas
Ġc ass
Ġincorpor ates
ĠLeon ard
Ġ196 2
Ġd ancers
Ġneg atively
ir ie
J ournal
ĠProper ties
Ġcard board
v ie
ĠEv olution
ĠMed al
na ire
ĠStu art
Tra vel
Ġmix er
W ood
ĠA ware
Ġpartic le
Ġscar f
F M
oint ed
G I
Ġexplos ive
ĠC af
ĠAct ivity
ĠK on
Ġmac ro
Ġp sy
E ast
ĠL ights
iss an
Ġthere after
Ġcompat ibility
Ġexpend iture
flamm atory
Ġp ins
fight ers
z zy
ĠCru ise
Ġcur rencies
Ġopp ose
ĠH ip
ĠE co
av in
Ġobs essed
ĠWh ats
Ġman kind
with out
ĠBarn es
b m
Ġun aware
ik er
Ġden ying
ĠMess age
Rich ard
osp ace
ĠJo an
Ġh ips
Ġl ig
ĠI RA
Ġnegoti ating
ĠD ale
Ġfl aws
s omething
ĠPer u
Ġemphas ized
Ġdet er
imb abwe
for cing
Ġen semble
ĠVeh icle
in ers
le vard
Ġsports book
Ġr ays
Ġut most
Ġfib ers
Ġepid emic
ĠEr n
Ġveget arian
m ember
Ġ40 1
AL E
ĠG and
ĠZ ach
Ġide ology
ĠZ ion
ĠOb ject
ĠAl cohol
Ġcooper ative
12 3
ind uced
Ġf usion
Ġfe ast
Ġtow els
ĠWhe never
ĠD oll
Ġco ated
Ġex agger
ĠEll en
Ġplan ets
ĠB urg
ĠDep ression
Ġtw isted
Ġauthent ication
ĠN ike
ĠUS E
Ġbl oss
Ġind ie
Ġbr ides
Ġmitig ate
Ġsad ness
sm ith
Ġtest ified
ah an
ĠDesign er
Ġrepl ica
r ating
ĠMembers hip
ĠBrus sels
ĠA ur
ĠB end
ĠTal iban
Ġd orm
Ġimper ial
Ġafore mentioned
ĠB ach
ort ment
M rs
ĠPhot oshop
ĠWalk ing
r ights
Ġshr ink
Ġbe et
eng ine
ĠRe ference
Ġconc ur
Ġrespect ful
e lection
ig nt
ĠL G
up unct
Ġlow ered
ĠGrand ma
Ã¡ n
ĠM N
ĠGar cia
ĠP rest
ĠFound er
Ġspe lling
Ġdefe nder
Ġ24 0
Ġthr ill
Ġhyper t
Ġm l
Ġscen ic
he rence
Ġunp redict
ic able
Ġbuild ers
ĠBe er
Ġslee ves
b les
ĠPro bably
Ġbegin ner
Ġd aunting
t ub
ĠD inner
ĠH O
ĠCol in
Ġadvertise ment
Ġunlaw ful
F E
ĠM ama
Ġrent ing
ĠTy pically
Ġimp ly
Ġqu iz
vel t
ĠPal mer
ĠV ir
Ġra ft
ĠSett ings
Ġm ast
ĠPro blem
ĠP ipe
Ġsound track
Ġd y
g one
wh y
ĠK oh
ĠMar riage
Ġiniti ate
Ġper taining
Ġl oos
Ġneighb oring
ĠB rief
ĠQueens land
S oon
ar us
Ġthe aters
c ert
Ġac re
ia o
ĠArn old
Ġo bey
ĠRes cue
Ġthr ust
Ġins ist
Ġpro xy
L and
ĠF ix
ros ion
ĠBeh ind
ĠB order
Ġske pt
ĠHung ary
P ark
sh irts
Ġl anes
h im
Ġl ace
Ġad missions
de v
Ġf ictional
ĠDes ert
ĠCris is
roll ers
Ġran ch
Ġdiamond s
Ġdemonstr ations
ĠP ills
Ġfrank ly
Ġlearn s
Ġw ives
Ġcongress ional
ĠAb d
Ġmean while
ter ing
Res p
Ġdefic iency
Ġche ered
or por
eq ref
Ġscrut iny
ĠRen ew
Ġdom inate
Ġb ou
ĠE ug
ĠV ideos
Ġgot ta
ple asant
Ġbalcon y
Ġu l
Ġorig inated
Ġ17 0
ĠT A
Ġvalid ation
Ġinv oice
Ġendorse ment
ĠK ash
Ġsm arter
Ġbless ings
ĠP izza
ĠGene va
ine a
ĠM az
ĠMc M
Ġple a
ĠRem ote
Ġelev ation
Ġski ing
Ġf ax
ĠIn fin
ĠBro s
Ġdi ets
Micro soft
ĠAct s
ĠLegisl ature
OW N
Ġhug s
Be aut
In side
Ġc ottage
Ġcig arette
Ġpro curement
Ġrev is
ri pp
ole cular
Ġc hess
Cons ider
Ġsty ling
H uman
à ¦
atic an
ĠBudd hist
ĠQ atar
F IG
Ġfin ale
Ġprote ctions
Ġen large
T aking
Ġbi ography
Ġhur d
T est
Ġend ure
L I
ĠOwn er
ĠTes la
ĠG E
ĠBl air
Ġch oir
ĠR M
Ġterm inate
os o
ĠLead ers
Ġscript s
Ġsy mm
g row
m ag
Ġcomprom ised
Ġwith stand
Ġref ine
au f
Ġshut tle
Ġp seud
y ards
ĠBet ty
Ġamb ition
ĠMid west
Ġch ased
ĠAlex and
Ġl ing
ĠFact s
ograph ics
Ġdecor ate
rib uted
i ang
Ġadjust ing
Ġbu cks
g ages
ĠW aters
Ġout dated
ĠRe pe
ĠZ oo
Face book
Ġlandl ord
Ġmill enn
cc oli
ĠSuper ior
Ġsk ate
Ġhost ile
ĠResp ond
ĠFl u
ĠRequire ments
o ise
Ġbr ighter
L ou
ernand ez
Ġbact erial
Ġprosec utors
Ġst ellar
Ġt eddy
ĠR SS
le ys
H ard
R NA
Ġrein force
Ġdes erved
ĠNob ody
iv able
ĠPre vious
ĠEval uation
L ocated
ĠSw ift
Ġan ts
com pl
Ġro asted
Ġman eu
Ġintegr ating
Ġey el
n c
AN C
Ġhel m
Ġser um
Ġpost ure
ĠMe g
ĠN as
ĠMu hammad
ĠLaw s
Ġheav ier
put er
ĠB oot
Ġreb ell
Ġthr one
Ġintent ional
Ġreal ities
3 60
Th ird
ĠPl aintiff
ĠSte am
Ġreserv oir
4 50
Ġon set
Ġreward ed
Ġp ne
Ġpolit ician
Ġexhib ited
Ġdiscount ed
ĠB ike
Ġdet ox
Ġspe ar
ĠWee kend
Ġfin als
Ġunder going
Ġcaut ious
Ġfo il
Ġexplo itation
.... ..
Ġv i
ĠEmploy ees
Ġit iner
ĠG ross
Ġbl onde
Ġmetab olic
Ġdo ck
step s
Ġshow ers
Ġimport s
Pro te
Ġneighbour hood
ĠK er
Ġlapt ops
Ġpresum ably
Ġcon gest
T T
OS E
Ġ10 4
b ands
H O
Ġboard ing
Ġpo pped
Ġclos es
ĠL ed
Ret urn
om ics
ĠW u
Â· Â·
r ar
Ġpark ed
Ġl ush
Ġdecor ating
Ġthe ology
ĠLat est
b ons
h ored
ĠK o
T alk
Ġeven ings
ĠL ength
Ġregister ing
ĠR andy
D elta
ĠEx po
Further more
te enth
Ġhur ting
ĠLo ans
m anship
Ġpack et
ĠP orter
ĠR ah
Ġas ylum
ĠP ull
Ġcra cked
F unnels
Ġcre ations
Ġl ith
Ġle aks
Ġcr ush
ĠIt em
IC AL
Ġp ave
Ġir res
Ġpre y
ĠV M
ĠC isco
Ġche w
Ġk itten
ĠM atter
ĠCO MM
ĠW el
Ġbrand ed
ĠNov a
ĠFrame work
Ġrail road
Ġdec ay
N or
ĠPat ient
er vers
ric ular
Ġkind ly
Ġcontrib utors
ĠI oT
ĠW ear
Ġobserv ing
ub ric
m und
ĠCon duct
ĠR ams
ĠR ib
ĠSh aron
Ġemploy ing
R ay
ĠProf ession
un ci
Ġorganiz ers
ĠNo ah
ĠBasket ball
Ġm arsh
ĠE ight
ĠTri ple
ĠUS C
av i
Ġfr amed
O pt
Ġparent al
ĠN W
ope z
Ġ196 1
Ġswe eping
at us
oc ese
ĠMass age
ay an
Ġfil med
S ystem
ĠR EC
10 4
ĠCry pt
F ast
ĠBank ing
s ch
Ġarm or
ob ia
ĠEmploy ee
Ġd Ã©
ĠElect ronics
Ġhur ricane
Ġindo ors
ĠF Y
ener gy
Ñ ĭ
ĠE RA
ĠBu zz
Wind ows
Ġannounce ments
ley ball
Ġrhet oric
Ġsch ol
ĠV P
em ia
Ġfact ories
1 12
Ġaccount ed
ĠD ylan
Ġrespect s
ĠA verage
ĠB I
vis ors
ĠH osp
Ġup stairs
ĠHe ather
ĠU ber
prote ct
D an
year s
ĠB U
Ġcig arettes
n is
Ä ±
R P
ĠM imi
Ġoff s
With in
ĠF ee
w ould
ĠTre asure
ĠMel issa
ĠCh anges
199 8
Ġ á
Ġorgan isms
ĠDi abetes
Ġdecl ining
Ġhun ter
ĠJul ian
ĠRe hab
ĠLe ather
ĠEv idence
E ss
ay ette
ĠTh r
ĠEll is
ĠM aps
id ad
Ġbar gain
gen cies
ĠHend erson
Ġch ooses
" ).
ĠPatri ots
Ġident ities
ĠW arrant
Wh atever
Ġcred ible
Ġrel ent
ĠCal gary
arr ings
Ġjoint ly
Ġpal ette
AN K
ome ga
our met
IN S
H en
Ġrec urring
Ġstick ers
Ġdesp air
EM ENT
Ġcr ashed
ĠBr ig
ĠI gn
Ġtrust worthy
op oly
Ġsne ak
Ġenact ed
ĠBre xit
az i
Ġhead er
ĠBer ry
Ġlower ing
ga e
IC ES
gr ass
ĠAm azing
Ġsh ru
Ġsupp lying
Ġco ats
Ġhead phones
Ġthem ed
ĠS hen
ĠA ven
en es
T D
w ait
Ġle fto
ĠArch ived
Ġ' ,
ĠI g
Ġca fe
att ed
m itt
Ġne ural
Ġche es
Ġch ic
Ġh ipp
av ia
$ -
Ġo t
Ġpredict able
Ġble nded
Ġeconom ically
Ġback wards
Ġlif es
Ġse ated
ĠDun can
er ic
Ġal beit
ov ak
Ġfl ock
Ġm igrants
ĠN uclear
ĠShe et
ĠM orm
ĠS B
ĠH VAC
Ġbe ads
M or
ĠHun ting
Ġ11 5
Ġd ucks
ĠVen ice
ĠFif th
c ock
ĠSe ek
ot on
Ġn ause
ĠCongress ional
Ġw ander
ĠR NA
C ook
ĠFor ward
ĠSo ccer
ĠW aste
Ġo w
c ision
Ġwhere by
S ports
Ġl amb
Ġfest ive
Ġdis pro
Ġsuscept ible
ĠC ort
ns ic
Ġfel ony
ĠL una
Ġign oring
Ġcar ved
Ġd reamed
Ġeng ra
ĠAnn iversary
ĠCont est
Ġcrew s
uff s
Ġelect oral
Ġpres ently
in vest
put ed
Ġacquis itions
Ġst eroids
ave nder
Ġanten na
Ġne urolog
Ġremem bers
Ġillustr ates
? '
Ġreluct ant
Hist ory
ĠAnn ie
aut ions
Bu ilding
Ġf ountain
ĠPalest ine
int ed
IF A
) }
ĠCan adians
ĠB oss
Ġlawsu its
Ġt am
Ġcar rot
ĠIm plement
Ġbul lying
ĠPy thon
ĠON LY
S ervice
Ġdecor ation
Ġamb ig
Lear ning
Ġcl own
ignt y
Ġg aze
Ġdraw er
Ġdistract ed
arth y
Ġpe ppers
ĠSy l
G ame
Ġconfig ured
es ar
Ġexceed ed
Ġpres idency
ĠLog an
Ġab usive
ĠL is
b ach
Ġpl edge
ĠWar riors
% ).
Ġtyp ing
ish ops
iv ating
Ġfulfill ment
Ġout fits
Ġbl ades
ĠCon sequently
Ġannoun ces
Ġem ission
ir teen
Ġreal ization
ĠCub an
Ġconf ined
ĠJeff rey
Ġt il
Ġneg otiation
it as
U CT
ĠSal v
ĠS of
Ġf ocal
Ġret aining
ĠCrit ical
Ġwh it
Ġlog os
ĠN SW
ĠCommun ist
Te am
Ġassum es
Ġlivest ock
ĠT ank
ĠW ool
orn ings
ĠProcess ing
ĠM ent
ĠSpe c
ĠDe rek
M ic
N P
Ġcont ests
ĠArm strong
ĠG U
ĠAr senal
Ġengine ered
Ġpurs ued
ĠC oup
ĠX L
Ġground ed
Ġrou ter
ĠPresident ial
em b
Ġvol atility
ĠE ffective
Ġgreet ed
F ile
Ġp s
m ult
ĠP retty
Ġclass ics
OU ND
Ġdash board
Ġaccum ulated
ine z
Ġexc av
ĠGib son
Ġc ad
law s
m un
re x
ĠSer ge
ĠSe b
c ross
ĠP ok
ĠDisc ount
Ġpione er
ras ound
ĠH C
Ġill usion
Ġblack jack
ĠGreg ory
ĠSh a
à¤ ¾
Ġdefin ite
vent h
Ġk ernel
Ġextract ed
Ġstim ulation
ard on
ĠH off
Ġa in
Ġsk et
ĠRodrig uez
agn etic
Ġmy riad
Ġp enn
O wn
ĠBas ically
ĠPar ish
on ent
ign ant
ĠIn flu
Ġremember ing
ĠFem ale
Ġglow ing
ro ots
Ġallerg ic
Ġl itter
iat ry
Ġfold ed
Ġres orts
dog s
em n
orn s
ĠComm ander
ĠSil icon
Ġb ats
Ġair plane
Tr ump
ĠExt ension
Ġwall paper
ĠNor wegian
ĠForm ula
ĠN est
ĠH erald
ĠSub sc
ĠCase y
Ġbrace let
in to
ĠG roups
ĠÂ ±
ĠCh ap
hol m
Ġvegg ies
Ġunfor gettable
ĠOpen ing
sh op
ĠB ug
Ġinher ited
Ġsaus age
Ġsal on
H ol
Ġst ole
ĠPast or
10 16
Ġindirect ly
ĠPl ate
Ġsimilar ities
ĠD iana
Ġcontinu ity
ut ton
ĠE arl
Ġapolog ize
B Y
Ġpot s
IT ED
Ġsh ampoo
Ġwa iver
Ġple asing
Ġtra ction
onge vity
f air
Ġprosec utor
We ek
ĠArt ists
Ġfemin ine
Ġha ul
ĠAdvis or
Ġphenomen a
Ġpit ched
Ġsimpl est
ĠCoun ter
Ġst aple
ĠUn cle
ĠW elsh
ĠDef ence
iss ors
Ġdecre ases
Ġred ist
ott a
os ion
ĠSteven s
Ġmerch ants
Ġbal d
il let
ĠRed s
Ġmanip ulation
ĠSim ilar
ĠCreat ing
Ġk ings
Ġanticip ation
ĠGabri el
Ġignor ance
Ġauton omous
Ġdepend ence
Ġpudd le
Ġ20 30
ĠBl vd
Sm art
ĠAv iation
Ġtrave lled
ĠML B
Ġdisc oura
Ġcons cience
Ġass ortment
Ġsm ok
Ġso ak
Ġrecon struction
ĠWy oming
Ġdos age
Off ice
Ġfert ility
Ġinf amous
oose velt
ĠPlay Station
ari us
ĠRub y
NY SE
ĠSte phanie
ĠOut side
Ġfire works
ĠAnge la
Profess or
be e
Ġcommission er
Ġt ensions
l ate
Ġwas ting
Ġafter math
ĠP rag
av ier
S at
ĠW ave
ĠFil ip
ina fter
w ent
Ġdepend able
Ġ7 50
Ġcollect or
ĠUg anda
ĠD ial
E asy
Ġdetail ing
ĠM ining
ĠH ockey
ri ans
Ġexplan ations
ab etic
Ġrevers ed
aste red
Ġrespond s
ĠSec ure
ĠRel igion
Ġsp lend
Ġsett lements
ĠD ani
ic ultural
xt on
ĠSu ff
app er
Ġp end
N ING
Ġfragr ance
ĠG C
Ġendors ed
ĠG L
ĠProv ince
ĠAny thing
ĠOpportun ity
Ġsh ipment
names e
IS A
Ġfig uring
r ator
Â «
Ġplaintiff s
p oke
ĠTre nds
ci o
Ġreli ance
Ġbuff er
fund ed
ĠT M
Ġthreat en
Ġcalcul ator
ĠK ap
Ġpreced ing
ĠPr ide
âĢ ¯
Ġpar a
Ġmot ors
ĠN avig
Ġende avor
ĠIN TER
Ġcur ves
ĠDem on
ĠST EM
ĠCh art
Ġ202 4
ĠShe ll
Ch ief
engu in
Ġcontam ination
ĠW inn
ĠMon ica
Ġj ug
ĠM ong
Ġtum ors
ĠPl aces
Ġcompl iant
Ġdesign ation
Ġadvert isers
Ġcomp ost
ĠRec reation
C ra
res pect
Ġcertain ty
Ġ[ ...]
Ġst amps
Ġpus hes
ĠL ives
Ġtutorial s
ĠRh ode
ĠJ ur
Ġtel es
ĠTe ams
ĠC ob
ol in
ĠRena issance
Ġinflamm atory
Ġball oons
Ġprom in
al ities
A ud
ĠLib ya
S ex
Ġs erm
Ġw aking
IS E
ĠL iz
Ġnutri ent
Com pany
B o
ĠImpro ve
er d
M uch
âĢ ł
ĠJew el
ĠIn g
ĠCor ner
Ġd ancer
Ġwre ck
Ġdep icted
um ed
t oo
Ġtrack ed
prof its
Ġa while
Ġintric ate
Ġpe as
Ġpix els
Ġcondem n
ĠDi agn
T urn
Through out
erm ined
Ġmen us
Ġvict ories
ĠMil k
Qu estion
Ed itor
Ġdis reg
l ot
Ġshoot er
M o
ĠB UT
Ġremov es
Ġsovere ign
ĠLeg acy
ĠMathemat ics
ĠD ictionary
Ġneg lected
Ġref uses
Ġtechn ician
Ġf erry
= âĢĿ
t ax
ĠPat tern
ĠConserv ative
ĠRel ief
S ummer
ĠN PR
Ġbur d
ĠNiger ian
Ġover looking
Sar ah
ĠSpecific ally
ĠN aval
Ġelim ination
Ġamb assador
Ġsymb olic
Ġbark ed
il ight
ĠA Z
ĠRe x
Ġportray ed
Ġcra wl
ĠLouis ville
ĠT ip
ĠD anish
Ġsung lasses
Con f
Ġrefe rendum
List en
Ġfart her
ĠAthlet ic
Ġfe ared
Ġtra ject
ĠWell ness
Ġ10 6
ut able
o fficial
Ġopen ings
man uel
Ġcomm issions
Ġl ag
icular ly
Ġignor ant
l oss
Ġhere by
ons ored
Ġprofit ability
ĠHy per
Ġdiagn ose
che z
our neys
ĠR ide
ĠReyn olds
bo at
ĠIt ems
c ultural
ĠCar roll
C at
ĠP G
More over
Ġpuzz les
ĠM M
l ib
ropract ic
k ok
Ġres ilient
Ġpack aged
Ġtrig gers
Ġconver ting
ĠC ake
Ġbro ch
Ġbra kes
ON D
Ġinteract ing
olph ins
c ence
Ã£ o
Ġsubject ive
Ġeuro s
Can ada
Ġob jection
Ġe tern
oper ative
Ġor bit
Ġper ceptions
ĠWrit ers
ĠHol ocaust
D M
Ġw iped
Ġge ographical
Europe an
Mem bers
ĠCon n
Ġcomp uls
Ġst umbled
if eration
ĠLaw yers
Ġsuspic ion
e g
Ð ¼
Ġrec ount
f ashion
dem and
ĠRe ce
l as
at ra
B i
ĠK i
Ġmin us
Ġtext ures
ĠBry ant
T or
Ġdrain age
rag on
ge on
ĠD ual
ĠB ert
oy le
Ġmet ro
y outube
Ġch alk
Ġnit rogen
Ġcircumst ance
Ġpro jections
ĠAltern atively
ĠEm peror
Ġgentle man
ill es
att a
Ġche ek
ys on
Ġbarrel s
Ġav id
Ã ´
Ġbo iler
Ġdes cent
Reg ist
Ġun ified
mb ol
Ġhous ed
Ġrent ed
ĠG ender
Ġseam lessly
2 20
ĠRe ality
m oon
Ġw agon
ol an
Ġg ummies
Ġhear ings
unicip ality
Ġaccess ory
ĠDay ton
Ġli b
Ġtra ces
Ġsuccess or
Pub Med
ĠProv ider
Ġw it
cd ot
ĠL aser
ĠSex ual
th reat
Ġbar be
ĠT ut
ĠG reens
Ġfun nel
ĠBr is
im ir
ĠG oth
L ess
ĠMar athon
ĠC ock
Ġmal icious
ĠCh ip
ass ium
Ġcompar isons
R un
ECT ION
Ġunf amiliar
ĠView s
she et
ĠK urt
ha ul
Ġfurn ished
ĠE UR
Ġ10 3
be fore
ĠP and
Ġamb ulance
Ġchat ting
Ġbout ique
s ix
ĠT ak
Ġsyn c
Ġter race
end ix
Ġport raits
min ster
Ġm ol
ĠN y
cript ive
ĠFre qu
ĠN ine
ids on
UL L
Ġspecial izing
Ġstate wide
Ġst ain
Ġtheir s
Ġutil ization
âĢ ħ
D iscover
n as
et ically
com b
ĠFr ances
Ġinspir ational
Ġsens ory
op ening
Ġgest ure
ĠEnt ry
Ġswe ater
ist ani
ĠNot re
Ġcan s
Ġun healthy
Ġburn s
Ġunder water
ĠM err
c ats
Ġpro jection
pr us
ĠEss ential
Ġrepe ating
Ġrec ur
Ġbit es
link s
ĠB P
Add ress
ĠM LS
Ġpray ed
ĠÂ °
D eb
Ġtweet ed
ĠAdministr ator
Ġinaug ural
Ġrout ines
Ġthr illing
ro v
b led
an ed
ĠT error
Ġtrain ers
Ġun pleasant
div ision
ĠEn forcement
: -
ĠL ucky
Te chn
co al
Ġh alt
c uts
Ġli abilities
ĠExper ts
ĠK B
own ers
Ġp ains
S pring
Ù Ĭ
ancell or
ĠÎ ¼
ĠC rew
ĠMethod ist
ĠG or
su per
ĠSh ir
arn ish
Ġl amps
Ġemer gence
ih ad
Ġf rown
st rom
Ġend urance
Ġthy roid
Ġdrive way
Ġcollaps ed
Ġp iss
k ill
writ ers
Ġy elled
ĠT roy
f est
ĠU FC
Ġcl ues
ĠR B
Ġm aid
âĢĿ :
ĠD uty
ĠMon ster
Ġcorrect ed
}$ ,
Ġkn it
Ġcomb o
ĠS ki
ĠF ew
Î ¹
ĠLu is
te am
ĠJohn s
Ġscar ce
ĠViol ence
Ġintern ally
ĠEx ercise
Ġpe el
ĠWW E
Ġpass ages
ĠNort heast
ĠB in
ĠH ilton
Ġsour ced
ĠM ig
Ġgad gets
s un
Start ing
ans om
Ġpass words
Ġ19 48
Y esterday
ĠV lad
mon ary
in qu
Ġint ro
chie f
us p
Ġproceed ed
ĠJ ets
Ġsurf ing
Ġv oy
Ġo y
Ġfl ush
Ġprofessional ism
ĠC hes
ĠV ic
Ġt ier
Ġd ick
ĠC opy
ĠHe ight
Ġsolid arity
Ġtor que
Ġchick ens
Ġartif acts
Ġaver aged
ĠO UR
Ġref using
ĠLike wise
Ġesc orts
Ġforecast s
19 90
in flammatory
ĠSim pson
Ġdream ing
ĠKnow ing
il ogy
ĠHA VE
ĠFor bes
a eda
ĠThe rm
Ġmind ful
ĠInf rastructure
Ġcent r
Ġexc urs
Ġthr iller
Ġ3 000
ĠF uel
D D
Ġpig s
Ġprejud ice
Ġsleep y
ĠS ister
am y
ĠV atican
Ġsc reamed
Ġb ac
Ġdil igence
Ġnom inee
Ġwar fare
Ġslo pe
And rew
Ġinfring ement
ĠM akes
Ġout lines
it ic
ĠPe ak
P rom
AT ES
Ġstret ches
accept able
Ġfundament ally
ĠAp ost
Ġed itions
Ġtouchdown s
met ics
ĠBroad cast
Ġst ared
n uts
Ġprocess ors
S er
Ġel bow
Ġweigh ing
ĠBo at
E r
dom inal
ĠSub ject
ĠNew castle
Ġcyber security
M ommy
bet ween
ĠProp het
us c
k t
ĠAdd ed
ĠE lder
Ġte e
ĠDirect ory
ar cer
ĠAgric ultural
ĠPen insula
Ġu m
Ġbo iling
Ġvolunte ering
ĠP it
Ġselect ive
t ilde
our ing
ĠEngine ers
ĠF old
Ġvill ain
ĠCom edy
arm ed
Ġbenefic iaries
Ġment oring
Ġdifferent ial
ĠPr ison
Ġprison er
p ages
Ġbra cket
ĠSt ainless
ĠAd s
Ġwel comes
ot or
Ġveget ation
ĠL etters
Ġpast ry
Ġpat rons
and o
Ġrep aired
p ill
ĠL au
Ġspons orship
Ġh ollow
Ø§ ÙĦ
T oo
Ġcol ony
Ġv apor
Ġcomment ing
ĠChe ese
Ġinspe ctions
Ġt iger
ĠMun ich
ĠH ear
Ġg odd
ĠF IN
ĠAf fordable
Ġjud ging
s aving
ht m
ok u
ĠAd vant
Ġru ins
Ġtherap ists
ol utions
ĠLGBT Q
Ġred irect
Â §
Ġreflect ive
Ġbox ing
t ake
ĠL EG
Ġor chestra
il k
im an
Ġend uring
Ġout right
ĠCher ry
Ġf ade
ĠP or
ic iary
ar u
Ġbl amed
ĠZ imbabwe
ĠN atal
Ġn as
ĠD ollar
F und
br al
ĠL il
Ġcyl inder
Ġdry er
Ġcaf feine
Ġgate way
199 7
Ġcr ashes
ĠV ern
Ġf ills
ĠBudd ha
S QL
p resent
he et
ert on
Ġpe aks
Ġmotiv ate
ĠNob el
Ġdish washer
Ġhy pe
ĠGM T
ĠRec ruit
ĠR oosevelt
Ġsupp orter
al in
Ġauthent icity
Ġcompr ise
ĠCont rib
Cent ral
ĠS erve
Ġhar bor
Ġu b
ra ined
inst all
Ġredu ctions
avil ion
g rown
ĠK iss
ĠThe me
el iness
Ġprep ares
um ers
Ġmar riages
ĠR ut
ograph s
ĠClar ke
Ġm ater
Ġiss uing
199 6
Ġjurisd ictions
Ġpay out
Ġqu ir
Ġtodd ler
ĠWind ow
Ġsett ling
ĠNews letter
Ġbod ily
ren n
Ġg ases
ad ata
ĠMon roe
Ġrec laim
ent e
B ank
Ġpedest rian
depend ent
Ġin ception
Ġt bsp
Ġdeleg ates
upunct ure
Ġexc lude
eng es
sh ould
Ġprob able
F un
me al
it ars
Ġcareg ivers
in ja
Ġhuge ly
Ġprovin ces
ĠConc ert
s ong
Ġtempt ed
ĠAltern ative
ĠImm un
Ġwheel chair
Ġst ip
Ġdest iny
ĠDev il
Ġspr ink
ĠN okia
ĠMonth ly
iling ual
p arent
Ġbul bs
qu artered
Ġden om
ĠBou levard
ĠEv il
Ġwe ighed
ĠB unny
Ġconfront ed
ĠOffic ers
mer cially
ĠT iny
lo e
rehens ive
Ġdecre asing
ĠSqu ad
Ġce real
b ps
ĠB omb
Ġpop corn
Ġag gra
y o
ĠT ours
ĠAt tend
Ġtra umatic
ĠD ia
Ġd ots
Ġarbit rary
AT H
Ġinc ub
Ġapp arel
Ġri pped
ĠRep ly
he tti
Ġfine ly
ĠCom ics
ĠBeat les
at ivity
Ġprivile ged
Ġbrows ers
c ourt
ĠChrist ine
ĠSpe aking
ĠParticip ants
ĠB rent
Ġp unk
Cal ifornia
Ġimp aired
Ġspe eches
bour g
ĠDom ain
ĠN Z
port ion
ĠS ed
Ġim bal
ĠWh isk
Ġkiss ed
/ -
Ġwell s
ĠAmeric as
Ġcl erk
face book
Ġcock tails
Ġdis gu
Ġprinci p
ĠAware ness
ĠDesign ed
ĠT icket
Ġl aps
per ature
in fect
Ġshoot s
Ġempower ing
Ġmin es
ĠRichards on
ĠRe con
Ġcounsel or
ĠN ex
im ages
ĠO ption
ĠR ates
p ots
Ġf ru
Ġjer sey
iche ver
Ġinterf aces
Ġn arc
ĠNe eds
Ġpe cul
ĠCharl eston
Ġtax ation
Ġsub way
Ġident ifiable
W R
ĠJ ump
c ry
Ġres igned
ĠPet erson
out ed
Ġle agues
im ag
ĠBre ast
ĠIns pect
ul as
ĠM ercury
ING TON
ĠH ands
Ù ħ
ĠĠĠĠ Ġ
ĠBr itt
ĠBen ed
ĠBal ance
Ġqu il
ĠS Y
ĠW ald
ĠQ ur
Ġdefe nded
Ġmet allic
10 8
Ġcon ceived
ĠDev ice
Ġtransfer ring
Ġguard ian
ĠHe ath
Ġth ru
ĠPe pper
le arning
ĠSub st
ĠW als
Ġs orrow
Ġprepar ations
ĠK in
Ġo wed
Ġex quisite
ĠC red
Ad v
s n
ĠSol omon
ish i
Ġcop ied
Ġl ac
Ġsign atures
p ric
Ġslow ing
ies el
ĠPr ayer
E V
r il
ĠB og
ĠGood s
ĠAndre a
Ġc emetery
Ġy acht
Ġdr astically
Ġd ub
ĠA way
ĠTh ous
Ġguitar ist
as se
Ġcollect ors
b irth
Ġcan on
Ġsk ies
ĠCommun ities
ĠSw an
Ġf aint
Ġal pha
ett le
ĠStrateg ies
Ġd welling
h arm
Ġhe ck
E ver
um i
ĠExt ract
Ġ- >
Â® ,
Ġexceed s
ass is
Ch arl
Sen ior
ĠCard inals
Ġentrepreneur ial
ĠRoche ster
Ġe cc
im er
bl ue
Ġtact ical
Ġch uck
Ġallow ance
Ġt a
ĠZ hang
Ġvent ilation
Ġ10 8
Ġacceler ated
Ġg amb
ol ation
in arily
Ġequ ations
Ġgl itter
Ġpres chool
Ġs igh
Ġimpress ions
Ġborrow ing
Ġri p
ĠUlt imately
Ġwarrant ies
Ġh alls
ci er
ĠTam il
ĠR BI
Ġvol can
Ġgl oom
ING S
Ġinter rog
Ġres in
Ġand roid
he e
ĠR af
Ġexpend itures
ĠIntegr ated
v ideo
if ty
Ġl ust
Ġfur ry
Ġa ka
Ġred eem
ĠKn ights
Ġconf irms
Lat est
ĠOver view
Ġfriends hips
Ġdo d
ĠNe ck
Ġsqu ares
s er
Ġapp liance
ĠCh in
iss ue
oc ide
Ġcrit ique
ĠAb use
Ġre els
Ġscrew s
ĠInj ury
Ġmail box
ĠGriff in
op a
Ġadvert ised
Ġdepth s
in fty
ĠFl ag
Ġstra ps
Ġc ache
Ġparad ise
ĠL opez
Ġcontext s
Re cent
ĠD ash
Ġmush room
on o
ĠD AY
Ġpil gr
Ġsuff ers
ĠLe eds
ĠRoman ia
F ar
ĠR aid
â ľ
Ġex cel
P an
Ġunc overed
us a
ĠS ew
, -
T ur
10 2
Ġpain ts
Ġconfidential ity
ĠIll ustr
?? ??
stand ard
Ġborrow ed
Ġcl utch
Ġopt imum
ĠAh med
I K
Ġrepl ies
Ġper se
Ġ }
Î µ
Ġirre levant
ĠSt ress
d ad
Ġfl uffy
Ġsurvey ed
ĠE yes
ĠBre tt
Ġattract s
Ġpart ition
Ġchef s
ĠCl ara
ĠL ac
ĠLat ino
ĠPart ies
il ib
Ġterr ifying
Ġdetect ive
ĠSl ot
Ġcup c
ĠFl oyd
ÃŃ a
os c
}$ .
ĠR ise
Ġiss u
ab lo
ĠA br
cept ive
l r
Ġfright ened
Ġfl ames
V ict
Ġwh ip
Ġinc umb
D en
ï ¸
Ġfinger print
Ġw agged
r ance
ĠC ay
ĠI G
ĠHait i
Ġus ername
ou x
Ġrein forced
Ġcance led
ĠM AC
Ġnew com
art icle
ĠM ann
Ġ icy
Ġprob ation
Qu ick
Ġrep ository
ĠK N
ĠDis p
Ġor nam
â ĪĴ
qu arter
Ġmer its
ĠGet ty
Ġdown side
Ġaccomplish ment
ĠFlow er
Ġdisc ern
ĠT ah
ĠTh ing
An sw
s quare
leg iate
int ers
Ġn avy
form ing
Ġcomprehe nd
Re v
ĠAnsw er
ĠO wen
ĠVer izon
op athy
Ġdistrib utor
Ġgran ite
ĠTrib une
ĠJama ica
c ot
Ġobst acle
Ġmult imedia
Up on
ĠSte ps
c all
ĠGil bert
s ight
am ma
ĠM oss
idel ity
ond o
Bu ild
ĠAd m
Ġreprodu ce
Ġde hyd
l ene
Ġad ren
it an
ĠAr med
Ġsp awn
we re
umin ium
ĠPark ing
Ġunderstand able
ĠPr adesh
Ġrug ged
Ġr all
ĠImport ant
Ġal k
Ġsympt om
ĠFred erick
ĠS ah
ur ations
ru ce
ustom ed
ĠRay mond
Ġa ired
Ġover weight
ĠCreat or
inte gr
Ġrel ay
Ġfire arms
Ġch in
ĠInter active
Ġve in
Ġret ros
ĠP oss
Ġprivile ges
Ġpour ing
Ġawa iting
Ġperiod ically
obb ies
Ġminor ities
Ġsign aling
ab l
ĠEthiop ia
uk a
Ġ195 9
ĠW ade
v ings
Ġresur rection
Ġpreced ed
Ġt utor
ie ves
f u
ĠPat ent
Ġtran qu
Ġd ude
Ġfrequ encies
Ġtre asures
own er
Ġref usal
Ġf riction
Ġeduc ator
Ġtack les
ĠSong s
be h
Ġsur plus
Ġp am
third s
Ġt ense
ĠTw enty
Ġcontract ed
el ia
ub le
Ġapp la
ram id
Ġfemin ist
Ġbot hered
act ly
ur as
ind y
Dep artment
T ogether
B rien
and el
F act
Ġentire ty
ett i
grad ation
.' '
ĠS IM
Ġhard wood
Ġaer ial
ber ger
ĠLa unch
Ġchem otherapy
Ġwork load
ĠG ain
H ost
Ġar rog
ĠQu inn
Ġsu ms
B ring
ĠM add
U G
ĠMy ers
occ up
ĠSt ick
ane y
ch ard
Ġmyth s
Ġmicro s
Ġfeather s
11 5
Ġtransl ates
H as
as per
Ġdivor ced
S ix
ĠMill enn
ok o
Ġinc ap
Ġm erc
Ġdown ward
Ġimpair ment
oc ating
car bon
ĠJoh ann
Al ways
Ġop io
Ġpredomin antly
p ng
ĠD j
st ed
Ġcoll ateral
Ġal iens
IC H
ĠEx c
Ġdeliber ate
ĠMe ga
Ġse greg
est ones
ĠT IME
Ġ2 30
ĠDisc ussion
Ġembra cing
Ġund erest
Ġincons istent
ak u
j ob
ces ter
Ġcome back
ĠG ig
c aster
Ġeduc ating
fe ed
ĠRail way
C oll
Ġcoh ort
Ġmel ting
Ġmechan ic
c up
ju ven
Ã ¸
pl ain
Ġdeliver ies
L im
Ġt as
ĠFire fox
ĠLab s
Ġind ict
J ose
p ict
Ġst ains
ĠV intage
ll ie
ĠLad ies
ind ers
ð Ŀ
Ġsu ed
Ġnurs ery
ĠB oom
ĠF ruit
b read
Ġsort ed
ĠN L
l ifting
Ġsw ear
Ġmention ing
Ġsynt hes
Ġcleans ing
ĠDr ama
Ġunpredict able
Ġwhis pered
per ing
st ring
Ġspark ed
Ġexp ired
pract ice
Ġa ven
ĠAud i
ĠViet namese
lo qu
ĠPan ama
ĠR hod
Ġluc rative
Ġy ell
Ġmean ings
Ġju venile
play ing
ĠPier re
Ġconsequ ently
ĠN urse
Ġ( -
h oe
iv ate
ĠK umar
Ġsick ness
Ġaspir ations
c li
Ġcolour ful
uc ci
Ġregist ry
f un
Ġen v
Ġparad igm
Ġeconom ical
ĠI EEE
ĠD y
Commun ity
ise x
Ġrecru ited
ĠFil ms
Ġge ared
Ġbal ances
Ġdev otion
ĠGerm ans
best os
pt oms
Ġs omeday
Ġstandard ized
Ġc ries
ĠOr ders
ĠFle et
ĠSpring field
Ġenzy me
l anguage
ĠEv an
ĠBer g
Ġdivide nds
st ones
Ġatt ent
f ile
ĠCook ies
l ists
ĠLi u
Ġav ocado
ĠPlay ing
, ''
us ers
Ġred emption
Ġcooper ate
Ġtox ins
Ġmort gages
Ġfear ful
r ide
ĠNon etheless
Ġprec autions
Ġcraft ing
C ategory
Ġhas ht
11 1
FORM ATION
Ġconstruct ive
ĠCon vers
all ow
T el
ĠI MP
ĠTra vis
Ġche ating
Ġ195 6
Ġconne ctor
ack ing
ĠR ica
Ġcondem ned
ĠV arious
Ġatmosp heric
Ġgra vel
Ġcompos itions
craft ed
Ġconsolid ation
Ġbat ting
uc ing
Ġbear ings
Ġweigh s
Ġsing ers
we ed
ĠRequ ired
ĠM ile
ĠM au
B P
Ġsanct uary
D L
ĠC ause
Ġrep ent
Ġd ubbed
Ġsp un
af ety
Ġje wellery
Ġst roll
Ġr im
ĠYor kshire
Ġsub strate
ĠVe get
ĠSter ling
Ġeleg ance
ĠOp in
Ġfl ick
ou st
Ġliquid ity
ibr ary
ĠDer by
ĠKeep ing
Ġspread s
Ġgen ome
Ġbatt ling
omed ical
Ġcond o
ol lo
ĠDar win
ĠMonitor ing
ĠE ther
Ġguess ing
Ġfasc inated
Ġc ube
Ġgl ove
ason ic
Ġge ography
ĠSpe ech
Ġst all
es an
ĠPent agon
Ġp ony
Ġaggress ion
ĠC AP
Ġc ops
Ġbl ink
ed o
ĠInstall ation
ĠSc out
Ġsubsid ies
Ġentrepreneurs hip
Ġc ialis
Ġwar rior
Ġd ye
Ġgener osity
Ġsovere ignty
Ġro ast
Ġequ ip
ĠSp in
ver ter
Ġallevi ate
B enef
Ġl on
Ġexp on
Ġcle arer
Ġtruth s
Ġcomplement ary
Ġconserv atives
Ġtab s
fin itely
Ġtrend y
ĠTh inking
ON S
ĠIN C
Ġg oose
Ġdiscover ies
Ġcl usters
Ġl ongevity
roduct ory
ĠS add
Ġobs ession
Ġexch anged
Ġal ly
Ġl ump
Ġrot ating
ĠO dd
ĠApp eal
Ġfold ing
na pping
az er
est eem
p ound
Ġembarrass ing
O mega
Ġlab s
ar is
Ġaccum ulation
A Z
ĠM AR
with standing
ĠJan et
Ġro ses
ĠCar p
Ġp ian
ĠDri ving
Ġpsych iatric
Ġpass ions
Ġbuff et
v s
Ġto mb
ast ian
Ġsound ing
Ġher s
ĠCars on
Ġer ad
ĠChe ster
C ast
Ġin mates
ov ich
Ġju icy
ĠSp art
N R
Ġslow ed
Ġenerg ies
ĠFerg uson
Ġri pe
Ġhomeown er
Ġbomb ing
Ġcom mercially
ĠSur face
ĠD iversity
Ġinform ational
Ġup right
ĠAR T
P o
Ġple aded
Ġ ì
ĠBu yer
ĠExt reme
ĠJ P
Ġli king
Ġcop ing
Ġcamp uses
e on
Ġac rylic
ĠB ake
ĠL IM
ĠSt ruct
Ġmod ular
De velop
ĠCal cul
Educ ation
ĠT rou
or ce
mod ern
m and
p aced
ĠS eth
Ġqu o
Ġfraud ulent
pl aced
Orig inal
ĠDecl aration
Ġcoc aine
Ġsub urban
Ġg ems
F lor
Ġdeleg ation
lling ton
ĠAdministr ative
w s
Ġfair ness
ink y
ĠWorld wide
uss ions
Ġide ally
Ġliqu or
ĠK urd
ĠDet ect
ĠParad ise
Ġevolution ary
Ġoff ence
st ated
Ġirrig ation
ĠBurn s
19 95
reat ive
asp berry
T ok
is i
Ġjust ification
F inding
ĠH ang
ĠConst ant
com mit
ĠDr ink
Ġdet ained
ĠF ans
J ew
Ġfix es
Ġschol arly
Ġwonder fully
i ating
Ġ10 7
Ġacadem y
ĠConne ction
ill on
lt ers
Ġ195 8
ĠMe gan
Ġco il
Ġdis able
Ġra iny
Ġconcept ion
ĠMor rison
ie u
Ġdra gged
ple ted
f il
pro p
Ġtrans gender
Ġcompe lled
Ġas semble
Ġestablish ments
Ġs napped
Ġauton omy
Ġn aming
he rently
ĠT B
Ġposs essions
Ġjudge ment
Ġperiod ic
Ġsp iral
ĠO THER
an alysis
Ġeval uations
ĠB uch
D s
at he
ĠW ritten
ne a
S n
c us
Ġprop het
Ġobs cure
IT ION
spe cial
Ġd rones
ĠS od
ĠAb ove
se nd
Ġst a
ĠFl a
Or der
Ġbeh old
Ġpan or
ĠR ental
ĠK or
I ll
ar ate
Ġped al
Ġweb page
Ġprot agonist
ĠPH P
Ġsoci etal
ĠCath olics
Read y
ĠUC LA
ĠIncre ase
Ġcryst als
ĠBris bane
á »
Ġ19 47
Ġantib odies
Ġbelie ver
ĠC ave
ĠW are
Ġal phabet
Ġcur se
Com ment
ĠHold ings
Ġsc issors
Ġvib ration
Ġhome page
ĠR ural
Ġcar amel
Ġm aternal
uth ors
f ar
ĠCl are
ĠMcC arthy
ĠPro blems
ĠMe yer
ĠM itt
aw i
ĠTy pes
Ġcheer ful
ĠUn c
ĠRe vel
orth y
Ġp c
ĠT rent
ĠCurt is
u ces
ps ilon
Ġquestion able
re rs
Te le
Ġs ixty
ĠR iley
Ġmaj ors
ĠSund ays
ĠIndividual s
Ġcl ash
als a
af fe
Ġutil izes
ĠT S
ĠNo vel
f ollow
we i
Ġqual itative
gu ards
Ġox ide
Ġhack ers
D iv
Ġ195 7
ĠP om
Ġgr illed
ili ary
ĠCar r
Ġref urb
ĠAndrew s
ĠI A
ĠMir ror
Ġf ry
Ġpl ots
ĠSky pe
cri ber
S elf
ĠVenezuel a
ĠUS DA
ĠDec ision
RE CT
Ġinjust ice
ĠCan al
Ġl odge
ĠPress ure
ĠReport ing
Ġ iv
ĠD ump
Ġpredecess or
ĠFac ility
B rown
uff le
des igned
Ġwin nings
Ġnom inations
Ġdi arr
Ġlandsc aping
Ġwe aker
ĠA ges
Am azon
ag hetti
ĠCy prus
Ġgather ings
ĠBr id
ĠAc id
Ġext r
Ġtoss ed
Ġble nds
Ġrescu ed
Ġs way
Ġvol atile
Ġ ^
10 3
ĠR an
ib ration
Ġrest oring
Ġrest ruct
ĠC ul
ĠC MS
Ind eed
us ually
ĠD H
Ġresear ched
ĠN issan
11 6
ĠLaw yer
ag ar
ĠMart inez
ĠDem ocracy
ĠM ans
Ġt art
Ġpro se
ĠPrinci ples
Ġf auc
ĠRel igious
Ġassist ants
Ġlegisl ators
D aily
Ġre iter
Ġrad ius
Ġun available
ĠM um
ĠJack ie
ĠCompl iance
L arge
Ġtest ament
Ġpodcast s
ĠA j
ĠProceed ings
ov ie
Ġconf igure
Ġbro th
A ge
AD E
cell ent
ag us
Le vel
ĠE ar
Ġsp ike
Ġsm oked
oura ble
Ġso othing
id is
ĠRol ling
Ġcomp ilation
Ġmor ality
ĠPract ices
Ġgal axy
e conomic
Ñ Į
ĠD ana
ĠS ector
/ ?
Ġ1 19
Ġloud ly
T ax
R a
Ġperipher al
ĠCamb odia
Ġm ould
Ġmap le
ĠM int
ĠDesign s
K im
y en
ĠBoe ing
Ġcompar ative
Ġment ality
ĠWe alth
Ġfilmm aker
d aughter
ĠBudd h
Ġvac ant
Ġspark ling
Pre p
ĠCinem a
ĠSt rip
su pp
V EL
aur us
Inc re
Ġinc arcer
Ġindu ce
Ä «
Ġgall on
w ave
Ġspe lls
w right
Ġm ornings
ĠRegist ered
ĠLem on
ĠCo in
ĠC rist
Ġav ail
ĠGr ill
Ġso ber
ball s
Ġpe e
Ġoptim ism
ĠSc an
Ġecosystem s
ĠCarol ine
M a
anth a
Ġdiscl aim
Ġadoles cents
ĠAd rian
ĠF CC
At l
ĠM unicipal
ĠEd it
Ġsimpl ify
Ġevent ual
Ġb olt
ĠEns ure
al ore
g ue
Ġres ent
ĠF ut
Ġat op
ĠL or
Ġupgr ading
Ġqu arant
ĠSad ly
here inafter
Ġsmell ed
ĠF iles
Ġrighteous ness
Ġp aw
ĠIn vent
pur pose
PD ATE
ant on
bs ites
S omething
oult ry
EC H
uck land
ĠCorinth ians
b ay
ES CO
Ġenzy mes
Ġtem ples
Ġremark ably
ateg orized
Ġgall ons
Ġfav ored
Ġpecul iar
Ġur ging
Ġadm ired
Ġcir cuits
acer b
] :
ĠDom estic
O ffic
Ġoccup y
ĠHell o
Im pro
cent ered
Ġbur ial
alle led
r ice
aster y
Ġbas k
ĠC od
Ġcomp artment
Ġcheck list
Ġcon ced
Ġcompens ate
Ġcontract ing
Ġpict ured
Ġmain land
Ġ10 80
ox ide
ĠB IG
Ġ19 55
f inal
ro let
Ġcur tains
pp ery
K at
Ġun real
Ġemer gencies
Ġne on
ĠD iane
k an
Ġg ru
ĠComp uting
Pro gram
Ġup wards
art ments
ĠMus ical
Ġarom a
Ġment ors
Ġshare holder
Ġw oven
op sy
ĠKn ox
Ġbow ls
B ur
Ġb idding
cent ric
Ġspo iled
os i
ĠKle in
Ġemp irical
ill as
Ġque ue
Ð ´
Ġeng lish
att ers
Ġo mn
Ġnons ense
Ġv ault
ĠG S
ï¸ ı
ĠW ow
Ġdistrib utors
-------- --------
Ġcur ated
ĠC ogn
ĠPo etry
Ġhist ories
col m
ĠT ik
ĠH oll
z or
ĠChrist ie
Ġfashion able
en os
d ot
ĠG iving
Al tern
ĠStar bucks
ĠEng agement
Ġcompet ence
qual ified
Ġbro ccoli
Ġboost ing
Ġhistor ians
Ġemp owered
ĠF ixed
ĠIs n
ple ase
igg s
Ġst ark
Ġcur s
âĹ ı
Ġacc ustomed
Ġco venant
Ġsuper natural
Ġde eds
c ards
Ġmult if
Ġmot if
Ġindu ction
b ia
pro gram
Pro per
. *
Ġgr am
Ġs ighed
Ġstri pped
Ġgive away
Ġcollect s
in ational
ĠG os
Ġto kens
Ġch orus
Ġsoci o
UL T
Ġpro claim
al er
ĠPharm aceutical
Ã ¥
Ġend angered
ĠW OR
Ġcat alogue
Ġcataly st
ĠK ane
C ase
ĠD ining
" >
ĠW et
Ġint ellect
ĠRE AD
Ġcateg or
Ġrob bery
10 6
ĠDist ribution
verse ly
ĠCor nell
Ġen forced
Ġge ometry
ĠP U
Te xt
S us
Ġsymp athy
oc ative
Ġl ubric
ĠAs ked
Ġpossess ed
Ġunw illing
t aking
ĠNob le
ĠL ud
st ad
G roup
ĠT urb
Ġalt itude
al ong
ĠK em
on ies
Ġbl adder
Ġstaff ing
ĠH ugh
ess ional
ĠL ounge
itor ium
all i
Ġflu ids
Ġform ulated
Ġcit rus
ĠD ES
Ġinterrupt ed
Ġfundament als
Ġsl id
ĠN u
oss ip
Ġlock er
Ġspin ach
Ġod or
Ġgra cious
Ġins urers
ĠJackson ville
VI EW
Ġa rose
Ġmet ic
ĠProdu ctions
Comm on
ĠY ard
B s
ack ed
Ġex ert
ĠSh i
ĠGr ass
ĠG ore
Ġ50 1
m ant
Ġ$ (
Ġc ath
Im agine
Ġphenomen al
Ġpist ol
ĠQu art
t ube
ĠKenn eth
Ġcredit ors
im o
Ġca ul
ĠAlb any
n n
2 40
Ġinstruction al
fe ren
Ġexceed ing
Ġprint ers
Ġver te
b ing
Ġve ins
Med ical
Ġnews letters
icon ductor
il ings
C apt
ĠPur ple
c ream
ĠCertain ly
lic ted
Ġra ced
v on
Ġmiscon duct
Ġ19 39
Ġrat ios
miss ible
ĠTreat y
whe ther
" ),
Ġsher iff
L ine
Ġpit ches
ĠR out
ĠN ixon
Ġhier archy
Ġshut down
Ġoffe nders
Bl og
Ġj ourneys
Ġad apter
ĠIS IS
en berg
Ġ19 44
ĠG ang
act ivity
ĠRecomm end
Ġintr ins
Ġins ists
Ġmanip ulate
Ġlock ing
Ġcryptocur rencies
Ġb amboo
Ġres ides
Ġpl um
Ġilleg ally
I r
ab olic
ï¼ Į
Ġexped ition
Ġsuccess ion
ĠSynd rome
Ġpar cel
ĠTH C
ĠH il
ĠL ars
Ġnot orious
Ġrev ival
ĠP P
Ġimm ort
ĠEm irates
ĠMap le
Ġimp at
l oo
ĠFore x
J ob
ĠA ber
Ġperf ume
ĠSe ed
Ġthere in
Ġab rupt
ĠA mber
ĠO EM
Ġaver aging
Ġblank ets
ĠEl se
ĠBe an
Ġcol oured
Ġskept ical
Ġcapac ities
W D
st ars
Ġaston ishing
ĠAs set
pe ction
ĠB ac
Ġh ast
ĠÐ ¿
Ġpop s
ĠCol le
ord e
us k
C ould
ty ard
ant ing
Ġimprison ment
Ġor phan
Ġinf erior
Ġstick er
ent ric
ĠPort al
get own
olph in
ot ine
Ġt ant
Ġunem ployed
up iter
ĠBe ast
Ġdeg ener
ra cuse
ĠA gg
Ġcon ve
Ġwind ing
Ġplan ner
Ġmiss iles
Ġpl un
Ġback ward
Ġacceler ation
Ġpossess es
ĠGar age
Ġdr ift
Ġord inance
Ġmet ropolitan
Ġnot ch
G irl
lyn n
Ġaggra v
T ips
ĠJ in
Ġpun ished
Ġb iodiversity
Ġbelong ings
g gy
ĠPeters burg
Ġmy st
Ġdispl aced
Ġreg ain
o il
d ar
br ush
ock ing
ĠBusiness es
aj a
Ġsculpt ures
Ġfre ak
Ġin duct
que z
ĠH uff
ĠAl umni
Ġam use
and em
ĠMc N
ĠP RE
Ġmicro sc
Ġlack ed
ĠM AY
ela ide
ate l
ĠInst ant
Ġresign ation
Ġgi ants
ĠMe aning
ĠSuper man
NOT E
Ġpriorit ize
eeee eeee
ĠSh aring
Ġoun ce
se ek
Ġscal p
ĠB od
ĠSe ller
stan bul
Ġ2 25
Ġsub urbs
C redit
T re
is ch
Ġlive lihood
ĠFund s
ER T
ĠCom pos
Ġamb itions
ind ust
Ġvers atility
Ġmaster piece
Ġcontam inated
Ġhypert ension
Ġdif fers
Ind ian
Ġout ward
Ġurg ency
As soci
ĠVis itors
in arian
ad vert
Ã ĥ
Ġcor rosion
ĠS ays
prising ly
market ing
Ġwra pping
Ġbe ard
Ð ¿
Ġded uction
ĠDra ke
Ġre charge
Ġhigh s
Ġpartner ing
ĠMin utes
Ġw ont
Tex as
g ard
ĠP ir
ĠPark inson
ĠY emen
Ġ12 3
Ġdem ons
bor hood
ĠP irates
Ġantib ody
Ġborrow ers
ĠM aker
Ġtoler ate
ĠW ii
Ġall ergy
Ġhunt ers
c ool
ne eded
Expl ore
Ġentertain ed
F s
ĠO g
ogen esis
ĠLou ise
Ġbefore hand
sc ript
ort ions
end ers
Ġstraw berry
Ġcomp ares
ij i
ĠBu ying
M T
Ġ19 42
ĠAm en
Ġsat isfactory
Ġover flow
Ob viously
al am
back ed
B er
Ġunbelie vable
Ġl ent
! âĢĻ
fin ished
ĠHand book
Ġconc ise
pat itis
Ġl ord
Ġs perm
Ġex acerb
ĠImpro vement
ĠL ines
Ġme ga
Ġb iking
ĠH BO
Em ploy
Ġvisual s
Ġrecept ors
c um
pe x
ĠS V
ĠE y
Ġc itation
ĠPl ug
ĠSl ots
Ġc yn
Ġafter ward
ĠPak istani
Ġsuper v
Ġbur nt
Ġhes it
Com ments
ĠF ailure
gin a
Ġsecret ly
Ġsc ans
Ġ Å
it ous
pack ed
Ġpix el
Ġwand ering
Ġfulf il
ĠCh ang
ĠC edar
qu ired
oc he
B on
Be yond
Ġun ite
Ġplug ins
Ġbad ge
Ġpump ing
Ġde ed
C I
ĠT ina
Ġun acceptable
i ott
Ġquestion naire
IL E
Ġra id
Ġp ests
Ġcomf y
min ent
ĠRelations hip
ĠD B
ĠT i
mont on
ile e
b id
Ġcon ventions
Ġ19 41
Ġtrad er
ĠG ru
ĠGo als
B rian
Ġsu ites
Ġphotograph ic
ĠP ET
he ll
ĠAs ide
Ġsen ator
Ġasp iring
Ġs ab
Ġ195 4
Ġfacilit ating
Ġsan ction
B erry
Ġmut ations
Ġha cking
Ġsim mer
T en
Ġter ribly
Ġche at
op us
Ġtrans itions
Ġretrie ve
Ġlif ts
Ġstro kes
ĠCal vin
Ġgrant ing
ĠFro st
ĠIdent ity
Ġrain fall
ĠCroat ia
ĠS ach
S ite
ĠS ounds
Ġz inc
red ients
Ġcondition er
Ġoccup ational
read s
Ġste er
um ption
ĠBl ind
Ġat ro
Ġcommod ities
Ï Ħ
M aterial
ĠA SS
Ġdeep est
Ġv ase
Ġle gends
ĠT ub
Ġshowc asing
ĠVolunte er
Ġrul er
Ġ2 10
sa fe
ĠHar old
Ġc ite
appro ved
DA Q
os cope
c ussion
mun ition
Ġe ats
ĠSe ll
Ġwr inkles
O B
Ġconfig urations
ic us
ĠÐ ²
ĠEVER Y
Ġcar cin
ĠCow boys
ĠF T
in ars
Ġl av
ĠInst ruct
P resent
pr on
ĠW iki
p ieces
ĠNear ly
Ġdupl icate
ĠIN FORMATION
C as
ĠLight ing
Ġremod eling
ic ides
ĠL oy
Ġpill ows
ĠSh annon
ĠRes idential
Ġdist ancing
medi ately
Ġ ....
esty les
an ical
ore m
ph alt
ĠB arr
ĠI van
ĠDevelop er
Ġse wer
ĠEd en
Ġroyal ty
Ġparagraph s
om ical
ĠM ouse
ĠDon na
ĠCont ents
ĠThe m
ĠMorm on
Ġconv ictions
man agement
ĠAccording ly
ĠP ione
ĠUn ique
Ġrepet itive
ĠRef uge
ĠAM D
ĠS ense
an ity
esthes ia
ĠExhib ition
Ġtext books
Ġdyn am
ĠJen kins
Ġceremon ies
ate red
ĠM RI
Ġbright ness
Ġ5 000
Ġch ili
ĠPer th
ĠTop ics
reci ation
Ġcur ved
R T
s ided
j et
an z
Ġen closed
Ġatt ic
ĠS AT
Ġl as
ĠConsult ant
F inal
u ber
d uty
Ġlin en
an mar
ress es
bl ood
L ED
Ġgra bs
F rench
Ġcow ork
Ġcorrid or
St r
Ġdomin ance
ĠHer oes
ov an
Ġinsp ires
Ġappe aled
leg al
AM P
ĠCre ation
Ġ13 5
r c
Ġb ik
Ġexc luding
ĠRe pl
Ġpiv otal
H ub
Ġchampions hips
Ġmag nesium
ĠBur ke
ĠH earing
ĠC ult
Ġd ermat
Ġlean ed
Ġtrump et
Ġbroadcast ing
Ġ| ___
any a
ce ls
Ġpers ist
Ġtheat rical
m ass
be k
ĠMar ina
Ġpr ud
ĠGrow ing
Ġexp ands
ĠRem y
Tr ust
ant is
. âĢĶ
IC A
Ġall oy
ĠReci pe
Ġpne um
ĠJoe y
Ġrock y
Ġelim inates
Ġswing ing
Ġmasc ul
EM A
}} \
vit ational
ĠPers ian
Ġdisgust ing
are a
Ñģ ÑĤ
ro b
ger ies
ĠRet irement
ĠGu itar
ist ine
Ġs aturated
ĠP osition
ĠAd apt
2 25
ĠHim self
Ġt ucked
Ġimp osing
b ishop
R s
ĠDis ability
Ġban anas
Ġshar ply
ac et
Ġn oodles
Ġre el
mid t
Ġcontin uation
Ġstere o
ri ka
T em
Ġpadd le
Ġcr ises
Ġyour selves
Ġessential s
reg ist
ĠBever ly
Ġcor al
Ġaest hetics
Ġterm inated
the med
ops is
U t
ld om
ĠConf ed
ĠMod els
IT T
Ġcoll agen
ĠMan ning
Ġad hesive
ĠMy stery
Ġneed les
Ġha w
Ġform ulation
Ġdipl oma
ci le
Ġones elf
ĠGate way
Ġbur ger
Ġbre eds
Ġdepos ited
t alk
Ġhyd raulic
ĠProfession als
ĠS CH
Ġelectron ically
W rite
Ġmar itime
ec d
ĠC AD
col ored
ĠHam as
ĠMalt a
rec ord
Ġstar red
99 9
Ġhomosex ual
| \
be ck
arr ants
Ġreferr als
ĠK as
Ġso ck
Ġnegoti ated
It em
ĠE as
ĠWend y
Ġcoord inates
Ġo sc
b old
Ġseek ers
199 4
Ġadv ising
Ġstim ulating
ĠW oo
est ablished
ĠG el
Ġx xx
Ġgen etics
Ġyoung sters
Ġbu ys
Ġdistrib utions
id as
ĠF IFA
ĠL unch
ĠF ul
ĠSh ot
Ġdisp ens
Ġes p
ĠB il
ri o
Ġrefrig er
Ġle aning
ph ot
ĠC av
Ġkey note
if orms
Ġdile mma
os y
os l
ĠJac obs
Ġnort heast
Ġsubs criber
ale igh
ĠOpportun ities
ĠT weet
Ġconsolid ated
A part
IF E
h agen
ĠSc ale
ĠW inner
Ġveter inary
C t
As h
Ġmed iation
enz ie
Ġgar ment
Ġneur ons
Ġtele communications
Ġdisadvant ages
W ay
b ags
Ġneighb ours
ĠFran co
S ty
ĠWes ley
Ġpe ach
Ġshe lters
Ġc erv
Ġguess ed
Ġcomb ust
S ug
Ġsub section
Ġpop ulated
Ġreimburse ment
ĠG iant
ĠRuss ians
Ġarrest s
Ġsy ll
C ut
com mercial
Ġun used
ĠChief s
ĠGram my
ĠHe aling
ĠMen u
Ġperm itting
Ġstand point
cond ition
Ġfin ite
ĠM ond
ĠFlow ers
Ġb ury
Ch icago
Ù Ī
ugg ling
Ġpl aque
im ation
ĠD ru
Ġab dominal
Ġnorth west
Ġpsych ologist
Pr int
Ġpre aching
ĠMay a
Ġre use
ĠDet erm
Ġst ained
Ġdisc overs
Ġpur ity
ï ¬
ĠFarm ers
ĠR ust
Ġyouth ful
ĠT ags
ĠR edd
ilib rium
Ġmot ions
ĠAre as
Ġaccus ations
Ġgl or
Ġrecon ciliation
ĠB uc
C oun
Ġl oops
b ai
Ġobs ervers
ĠAb bey
ĠSe lection
Ġdoctor al
ĠW on
Ġbas il
Ġacknowled ges
Ġequ itable
Ġregul ator
ĠDeb t
ĠN ormal
ĠM old
and ing
ĠSam ple
Ġvill a
ale z
Ġreminis cent
ĠJud y
Ġshout ing
the se
Ġ19 49
Ġd izzy
Char les
n l
Ġpoly ester
Ġpretend ing
ĠB un
yl ene
load ed
ĠR ising
Ġtur f
m etic
Ġwra ps
ĠL LP
ĠE A
Ġtrave llers
Ġper me
Ġth ief
ĠGD PR
ĠAd mission
Ġside walk
ĠRand om
m any
ĠE ston
ĠHigh land
Ġhe ir
L iving
Mod ern
ĠRom ance
Ġtrail ers
Ġinacc urate
Ġle aked
Ġnumer ical
ĠGu ests
Ġdo ve
Ġaddict ive
Ġnarr atives
Ġcro re
pl er
ĠR N
Ġfurn ace
Ġlou der
Ġuncertain ties
ĠLuther an
ĠTan z
ĠL akers
Ġle tt
Ġoblig ed
ĠIsa iah
Ġtun ing
uff ed
ĠRap ids
Ġsort ing
20 2
Ġf ixture
ĠIn form
ĠH av
lo om
C M
Ġde gradation
Ġforb idden
ĠT as
cu ador
Ġrust ic
Brit ish
od s
Us er
ĠLes lie
ĠCole man
cur rent
Ġbl iss
ĠShe pherd
ĠV as
Ġc reek
Ġuns afe
ĠT ennis
ip ur
ĠE ating
ĠCrus her
Ġl iner
Ġcolon ies
par alleled
do ing
L ee
Ġpenet ration
pp ings
ĠS ons
ĠM ik
ĠWag ner
bu y
Ġlist ener
ĠKash mir
ĠAnim als
ĠC ros
ĠM ood
Ġday light
am ount
spe aking
Ġide als
ing les
Mart in
ĠBeng al
Ġdisp ers
Ġemphas izes
ĠPant hers
Ġpair ing
I AN
Ġult rasound
Ġsl ate
Ġadvis able
ĠD uck
ĠUp dates
Ġ ).
WH AT
Ġreun ion
ĠSh ane
m os
ĠD UI
âĺ ħ
od us
Ġstress es
Ġsil icone
ant o
Ġgr im
ĠW ed
G ar
ĠNew port
Ġub iqu
osp here
p c
od i
Ġdrum mer
Ġstraw berries
ĠAnsw ers
t ab
Ke vin
W alk
Ġparliament ary
Ġid ol
H H
Ch ange
Ġfilter ing
Ġfilmm akers
it at
ĠPow ers
ĠW id
ĠAn ch
ĠO ral
ĠWest minster
ĠMar co
Ġtim er
! ,
Ġsouth west
l b
ĠRap id
he ets
ĠAr lington
B ad
Ġw ow
Ġgr umpy
ĠW I
Pro s
Ġinvestig ator
Ġtack ling
c ounter
Ġpo pping
ph ants
Ġwithd rawn
ĠComp ensation
Go ing
ĠProte in
ĠQu ad
cons uming
ĠMorocc o
Ġcous ins
Priv ate
st ill
ĠBened ict
Ġexp osing
ĠG ym
Ġm uc
Ġvent ures
it ud
f acing
ĠRecruit ment
P ict
Ġdisadvant age
ĠPat ricia
199 3
( )
ĠIs le
Ġexc uses
Ġreal izes
Ġann ot
amm ers
ug ging
ĠSee ing
Ġinter disciplinary
ĠT ang
ĠP orn
ĠAdvent ures
Ġgrad ual
ĠIN D
M id
ĠSustain ability
ĠH od
ĠBulgar ia
Ġmunicipal ities
ĠK enny
ĠSub scribe
ĠTom orrow
ĠD odge
op al
st atic
Ġcan ada
com pet
Ġframe works
Ġcontract ual
ĠCle arly
as soci
Ġe arrings
ĠDur ham
ic ism
Ġal coholic
ĠCh ancellor
Ġblow s
Ġpat ented
Ġsu cks
Ġo wing
Ġbr icks
ĠSpot ify
al ion
inc lude
ĠD one
ĠRe asons
ĠCom ic
Ġunderm ine
Ġbenef ited
Ġter ra
cl amation
Ġh ij
Ġvacc inated
agg ering
ĠW ife
us able
l ishes
Ġadapt ive
se at
ĠAtt ack
TS D
Ġreferen ced
ĠMag gie
ĠEvery body
[...]
