{"<|endoftext|>":0,"<|pad|>":1,"<|bos|>":2,"<|eos|>":3,"!":4,"\"":5,"#":6,"$":7,"%":8,"&":9,"'":10,"(":11,")":12,"*":13,"+":14,",":15,"-":16,".":17,"/":18,"0":19,"1":20,"2":21,"3":22,"4":23,"5":24,"6":25,"7":26,"8":27,"9":28,":":29,";":30,"<":31,"=":32,">":33,"?":34,"@":35,"A":36,"B":37,"C":38,"D":39,"E":40,"F":41,"G":42,"H":43,"I":44,"J":45,"K":46,"L":47,"M":48,"N":49,"O":50,"P":51,"Q":52,"R":53,"S":54,"T":55,"U":56,"V":57,"W":58,"X":59,"Y":60,"Z":61,"[":62,"\\":63,"]":64,"^":65,"_":66,"`":67,"a":68,"b":69,"c":70,"d":71,"e":72,"f":73,"g":74,"h":75,"i":76,"j":77,"k":78,"l":79,"m":80,"n":81,"o":82,"p":83,"q":84,"r":85,"s":86,"t":87,"u":88,"v":89,"w":90,"x":91,"y":92,"z":93,"{":94,"|":95,"}":96,"~":97,"¡":98,"¢":99,"£":100,"¤":101,"¥":102,"¦":103,"§":104,"¨":105,"©":106,"ª":107,"«":108,"¬":109,"®":110,"¯":111,"°":112,"±":113,"²":114,"³":115,"´":116,"µ":117,"¶":118,"·":119,"¸":120,"¹":121,"º":122,"»":123,"¼":124,"½":125,"¾":126,"¿":127,"À":128,"Á":129,"Â":130,"Ã":131,"Ä":132,"Å":133,"Æ":134,"Ç":135,"È":136,"É":137,"Ê":138,"Ë":139,"Ì":140,"Í":141,"Î":142,"Ï":143,"Ð":144,"Ñ":145,"Ò":146,"Ó":147,"Ô":148,"Õ":149,"Ö":150,"×":151,"Ø":152,"Ù":153,"Ú":154,"Û":155,"Ü":156,"Ý":157,"Þ":158,"ß":159,"à":160,"á":161,"â":162,"ã":163,"ä":164,"å":165,"æ":166,"ç":167,"è":168,"é":169,"ê":170,"ë":171,"ì":172,"í":173,"î":174,"ï":175,"ð":176,"ñ":177,"ò":178,"ó":179,"ô":180,"õ":181,"ö":182,"÷":183,"ø":184,"ù":185,"ú":186,"û":187,"ü":188,"ý":189,"þ":190,"ÿ":191,"Ā":192,"ā":193,"Ă":194,"ă":195,"Ą":196,"ą":197,"Ć":198,"ć":199,"Ĉ":200,"ĉ":201,"Ċ":202,"ċ":203,"Č":204,"č":205,"Ď":206,"ď":207,"Đ":208,"đ":209,"Ē":210,"ē":211,"Ĕ":212,"ĕ":213,"Ė":214,"ė":215,"Ę":216,"ę":217,"Ě":218,"ě":219,"Ĝ":220,"ĝ":221,"Ğ":222,"ğ":223,"Ġ":224,"ġ":225,"Ģ":226,"ģ":227,"Ĥ":228,"ĥ":229,"Ħ":230,"ħ":231,"Ĩ":232,"ĩ":233,"Ī":234,"ī":235,"Ĭ":236,"ĭ":237,"Į":238,"į":239,"İ":240,"ı":241,"Ĳ":242,"ĳ":243,"Ĵ":244,"ĵ":245,"Ķ":246,"ķ":247,"ĸ":248,"Ĺ":249,"ĺ":250,"Ļ":251,"ļ":252,"Ľ":253,"ľ":254,"Ŀ":255,"ŀ":256,"Ł":257,"ł":258,"Ń":259,"Ġt":260,"Ġa":261,"he":262,"in":263,"re":264,"on":265,"Ġthe":266,"er":267,"Ġs":268,"Ġw":269,"at":270,"Ġo":271,"nd":272,"Ġc":273,"it":274,"or":275,"es":276,"is":277,"en":278,"ou":279,"Ġb":280,"Ġf":281,"ing":282,"Ġp":283,"ed":284,"an":285,"Ġto":286,"al":287,"Ġm":288,"Ġand":289,"ar":290,"Ġof":291,"Ġin":292,"Ġd":293,"Ġh":294,"ic":295,"le":296,"as":297,"om":298,"ion":299,"Ġth":300,"âĢ":301,"il":302,"Ġl":303,"ent":304,"ve":305,"Ġn":306,"Ġe":307,"Ġre":308,"ro":309,"st":310,"Ġy":311,"Ġg":312,"ĠT":313,"ct":314,"ĠI":315,"et":316,"ly":317,"ĠS":318,"id":319,"ot":320,"Ġbe":321,"ut":322,"ay":323,"Ġyou":324,"Ġis":325,"Ġon":326,"Ġfor":327,"im":328,"ow":329,"ĠA":330,"ur":331,"ĠC":332,"se":333,"ce":334,"ig":335,"ad":336,"am":337,"ol":338,"ver":339,"Ġthat":340,"Ġu":341,"ch":342,"ation":343,"ith":344,"Ġst":345,"ir":346,"ll":347,"Ġhe":348,"âĢĻ":349,"Ġwith":350,"Ġit":351,"ĠM":352,"Ġwe":353,"ra":354,"ĠB":355,"Ġan":356,"Ġas":357,"ĠP":358,"Ġwh":359,"ers":360,"ill":361,"Ġha":362,"if":363,"ke":364,"ĠThe":365,"Ġpro":366,"Ġare":367,"ter":368,"ĠH":369,"ul":370,"ge":371,"ld":372,"oo":373,"her":374,"Ġcon":375,"pp":376,"ĠW":377,"Ġwas":378,"Ġor":379,"ri":380,"ate":381,"ess":382,"ment":383,"ĠD":384,"Ġcom":385,"ck":386,"Ġat":387,"Ġse":388,"ore":389,"est":390,"Ġde":391,"us":392,"ĠF":393,"Ġ1":394,"Ġ2":395,"ab":396,"th":397,"Ġ(":398,"ĠR":399,"igh":400,"ist":401,"rom":402,"Ġne":403,"ant":404,"un":405,"Ġex":406,"pe":407,"ĠL":408,"ity":409,"qu":410,"Ġsu":411,"ive":412,"Ġv":413,"res":414,"op":415,"ĠâĢ":416,"ort":417,"Ġhave":418,"Ġnot":419,"Ġr":420,"em":421,"art":422,"ain":423,"ĠG":424,"el":425,"ĠN":426,"ĠE":427,"Ġyour":428,"nt":429,"um":430,"Ġsh":431,"ust":432,"Ġfrom":433,"ies":434,"os":435,"Ġthis":436,"Ġal":437,"Ġcan":438,"Ġby":439,"and":440,"Ġch":441,"ight":442,"all":443,"ome":444,"Ġle":445,"Ġpl":446,"ould":447,"te":448,"ĠO":449,"ard":450,"ud":451,"ie":452,"red":453,"Ġwill":454,"iv":455,"out":456,"Ġdo":457,"Ġwor":458,"Ġab":459,"our":460,"gh":461,"ally":462,"od":463,"ost":464,"00":465,"Ġall":466,"ci":467,"ĠJ":468,"ide":469,"rou":470,"The":471,"Ġj":472,"Ġk":473,"Ġso":474,"ak":475,"ast":476,"ear":477,"ine":478,"ure":479,"ag":480,"fe":481,"per":482,"Ġsa":483,"'s":484,"âĢĿ":485,"pt":486,"Ġbut":487,"Ġhas":488,"Ġwhe":489,"Ġthey":490,"Ġme":491,"ther":492,"ice":493,"ction":494,"ack":495,"Ġup":496,"very":497,"age":498,"ook":499,"Ġus":500,"Ġad":501,"pl":502,"ac":503,"ake":504,"Ġout":505,"ich":506,"Ġtheir":507,"ĠU":508,"ind":509,"are":510,"Ġhis":511,"ime":512,"one":513,"ry":514,"so":515,"og":516,"ong":517,"Ġen":518,"Ġcomp":519,"Ġmore":520,"able":521,"ood":522,"ated":523,"cc":524,"ame":525,"ne":526,"Ġli":527,"Ġ20":528,"ous":529,"ite":530,"Ġcl":531,"Ġte":532,"iz":533,"ans":534,"Ġim":535,"Ġmy":536,"ĠâĢľ":537,"Ġone":538,"ĠIn":539,"ber":540,"for":541,"ĠTh":542,"ip":543,"Ġabout":544,"Ġwho":545,"Ġman":546,"Ġgo":547,"ru":548,"Ġcont":549,"ions":550,"ance":551,"ia":552,"Ġour":553,"Ġinc":554,"Ġfe":555,"act":556,"ail":557,"du":558,"ĠY":559,"ree":560,"Ġwhich":561,"Ġtime":562,"ĠK":563,"Ġwork":564,"Ġher":565,"Ġres":566,"ary":567,"Ġlo":568,"ations":569,"Ġother":570,"to":571,"ach":572,"ire":573,"Ġapp":574,"au":575,"ays":576,"Ġ\"":577,"ign":578,"ue":579,"ase":580,"reat":581,"Ġhad":582,"ult":583,"ĠHe":584,"..":585,"ap":586,"ace":587,"ĠIt":588,"ib":589,"ark":590,"ical":591,"ep":592,"Ġper":593,"Ġthere":594,"ven":595,"Ġalso":596,"ub":597,"Ġlike":598,"ick":599,"end":600,"Ġany":601,"Ġwere":602,"ff":603,"ass":604,"ĠSt":605,"Ġqu":606,"Ġoff":607,"Ġsome":608,"ence":609,"now":610,"Ġyear":611,"Ġthem":612,"ile":613,"Ġdis":614,"ount":615,"vel":616,"ings":617,"form":618,"Ġsaid":619,"Ġun":620,"Ġsp":621,"Ġpart":622,"ĠV":623,"Ġget":624,"Ġnew":625,"erv":626,"ĠCh":627,"Ġag":628,"ress":629,"Ġpe":630,"ond":631,"Ġbeen":632,"Ġ3":633,"ition":634,"Ġwhat":635,"ial":636,"Ġwhen":637,"Ġwould":638,"ough":639,"av":640,"ents":641,"Ġover":642,"Ġar":643,"ound":644,"Ġ201":645,"ors":646,"ose":647,"Ġbec":648,"Ġif":649,"Ġtr":650,"ink":651,"Ġro":652,"itt":653,"port":654,"ild":655,"Ġpre":656,"Ġthan":657,"ord":658,"ens":659,"Ġknow":660,"ish":661,"ople":662,"low":663,"Ġspe":664,"oy":665,"ob":666,"mer":667,"Ġshe":668,"Ġjust":669,"wn":670,"Ġneed":671,"Ġrec":672,"Ġplay":673,"ren":674,"Ġinto":675,"Ġ-":676,"irst":677,"ory":678,"int":679,"ĠWe":680,"nder":681,"Ġsc":682,"own":683,"Ġhow":684,"Ġwant":685,"Ġacc":686,"Ġhel":687,"ater":688,"Ġam":689,"ade":690,"fter":691,"Ġpeople":692,"Ġno":693,"Ġits":694,"vers":695,"ang":696,"cial":697,"rough":698,"Ġhelp":699,"xt":700,"lic":701,"old":702,"ning":703,"lud":704,"oc":705,"Ġtw":706,"hed":707,"ily":708,"ces":709,"ual":710,"ons":711,"Ġmay":712,"Ġlook":713,"ause":714,"Ġcomm":715,"Ġmake":716,"ian":717,"Ġdes":718,"ĠâĢĵ":719,"Ġco":720,"Ġday":721,"ful":722,"we":723,"Ġvery":724,"ates":725,"ov":726,"Ġfirst":727,"ments":728,"Ġbet":729,"Ġ19":730,"ric":731,"Ġprov":732,"ĠThis":733,"rent":734,"Ġbl":735,"ĠThey":736,"round":737,"ple":738,"Ġback":739,"Ġonly":740,"Ġmost":741,"Ġevery":742,"Ġind":743,"ft":744,"tern":745,"Ġtra":746,"les":747,"ise":748,"Ġem":749,"Ġsee":750,"Ġadd":751,"ating":752,"Ġbu":753,"hing":754,"Ġunder":755,"Ġcould":756,"Ġ4":757,"Ġinclud":758,"ious":759,"ph":760,"Ġcons":761,"'t":762,"Ġthrough":763,"Ġuse":764,"ities":765,"Ġact":766,"ĠRe":767,"Ġcol":768,"Ġsm":769,"ect":770,"Ġthese":771,").":772,"Ġ5":773,"li":774,"gr":775,"ove":776,"Ġpo":777,"Ġwell":778,"sel":779,"iew":780,"hen":781,"Ġtwo":782,"iss":783,"day":784,"ife":785,"Ġprodu":786,"aw":787,"Ġ$":788,"fect":789,"ific":790,"Ġserv":791,"ew":792,"Ġdif":793,"Ġmany":794,"ks":795,"Ġdid":796,"fore":797,"Ġhim":798,"get":799,"ĠYou":800,"ced":801,"Ġgood":802,"pport":803,"Ġafter":804,"Ġph":805,"Th":806,"Ġinv":807,"row":808,"Ġdec":809,"uch":810,"ational":811,"Ġreg":812,"ject":813,"Ġtoo":814,"Ġyears":815,"Ġway":816,"erson":817,"ting":818,"pect":819,"Ġra":820,"Ġstud":821,"lect":822,"urn":823,"iness":824,"rit":825,"Ġsy":826,"com":827,"Ġthen":828,"Ġeven":829,"cess":830,"oth":831,"ts":832,"Ġpr":833,"ange":834,"als":835,"Ġwhere":836,"ath":837,"Ġshould":838,"Ġstart":839,"Ġrel":840,"ility":841,"aking":842,"Ġke":843,"oss":844,"riend":845,"Ġbecause":846,"olog":847,"any":848,"erm":849,"Ġrem":850,"ĠUn":851,"ty":852,"Ġexper":853,"bs":854,"ool":855,".âĢĿ":856,"ĠShe":857,"ible":858,"Ġev":859,"ased":860,"ys":861,"Ġright":862,"ont":863,"Ġhapp":864,"Ġnow":865,"ps":866,"ert":867,"ward":868,"ident":869,"ices":870,"ited":871,"ular":872,"ures":873,"Ġbus":874,"Ġdown":875,"Ġfl":876,"ĠSe":877,"ĠAnd":878,"omet":879,"Ġac":880,"ĠAs":881,"Ġdon":882,"Ġown":883,"hip":884,"alth":885,"Ġsuch":886,"Ġsec":887,"20":888,"uring":889,"Ġfind":890,"Ġbig":891,"),":892,"ative":893,"ĠWh":894,"Ġimp":895,"Ġfin":896,"ract":897,"Ġgreat":898,"ĠCom":899,"Ġmuch":900,"cy":901,"Ġ200":902,"its":903,"ble":904,"ax":905,"Ġent":906,"ved":907,"formation":908,"Ġatt":909,"Ġagain":910,"Ġ&":911,"Ġfu":912,"Ġlong":913,"arch":914,"Ġthink":915,"Ġgu":916,"Ġcar":917,"In":918,"velop":919,"other":920,"ics":921,"ict":922,"hes":923,"Ġhigh":924,"Ġmade":925,"ittle":926,"gan":927,"stem":928,"Ġshow":929,"ell":930,"Ġtake":931,"ock":932,"Ġbest":933,"ork":934,"alk":935,"Ġfriend":936,"ener":937,"Ġins":938,"rib":939,"line":940,"air":941,"Ġinte":942,"Ġdiffe":943,"Ġbeing":944,"Ġ6":945,"ĠDe":946,"Ġinst":947,"ĠPro":948,"Ġset":949,".\"":950,"Ġhome":951,"Ġread":952,"âĢľ":953,"ied":954,"Ġperson":955,"ĠAn":956,"Ġthose":957,"Ġbefore":958,"Ġpol":959,"Ġsur":960,"Ġlittle":961,"Ġdoes":962,"Ġend":963,"ower":964,"Ġmon":965,"Ġpres":966,"Ġworld":967,"ank":968,"way":969,"Ġfam":970,"arn":971,"Ġhere":972,"Ġrequ":973,"Ġass":974,"chool":975,"ving":976,"arket":977,"Ġcall":978,"ĠBut":979,"ollow":980,"Ġbr":981,"ouse":982,"ually":983,"Ġbusiness":984,"ĠIf":985,"Ġlife":986,"Ġloc":987,"ues":988,"rest":989,"up":990,"ner":991,"Ġmin":992,"ave":993,"||":994,"Ġinformation":995,"ix":996,"Ġfound":997,"ason":998,"Ġtrans":999,"ffect":1000,"self":1001,"ng":1002,"Ġsomet":1003,"Ġdevelop":1004,"Ġop":1005,"Ġfun":1006,"pr":1007,"gram":1008,"Ġthough":1009,"of":1010,"Ġche":1011,"Ġmed":1012,"Ġwee":1013,"Ġdisc":1014,"Ġused":1015,"Ġhand":1016,"ublic":1017,"Ġaround":1018,"led":1019,"ĠNew":1020,"Ġav":1021,"Ġsub":1022,"ss":1023,"Ġ10":1024,"Ġcare":1025,"io":1026,"Ġsim":1027,"ives":1028,"Ġeach":1029,"chn":1030,"Ġwhile":1031,"Ġ7":1032,"Ġsystem":1033,"arm":1034,"ĠFor":1035,"Ġmem":1036,"ins":1037,"ince":1038,"land":1039,"amp":1040,"Ġcount":1041,"ĠSo":1042,"Ġart":1043,"Ġexperi":1044,"atch":1045,"Ġnum":1046,"We":1047,"Ġinter":1048,"Ġmod":1049,"imes":1050,"ather":1051,"Ġlast":1052,"az":1053,"Ġlead":1054,"Ġcre":1055,",âĢĿ":1056,"ĠAl":1057,"cept":1058,"ug":1059,"Ġstr":1060,"Ġgoing":1061,"ene":1062,"Ġdet":1063,"ale":1064,"ivers":1065,"ever":1066,"akes":1067,"ness":1068,"Ġvis":1069,"Ġfeel":1070,"Ġfollow":1071,"Ġreal":1072,"Ġsupport":1073,"Ġdifferent":1074,"Ġchild":1075,"ines":1076,"tt":1077,"Ġreally":1078,"Ġprovid":1079,"Ġlot":1080,"Ġbo":1081,"ution":1082,"ctions":1083,"oun":1084,"Ġboth":1085,"Ġcour":1086,"Ġgr":1087,"Ġcur":1088,"view":1089,"Wh":1090,"Ġ8":1091,"ween":1092,"Ġstill":1093,"ata":1094,"Ġadv":1095,"ms":1096,"irect":1097,"Ġret":1098,"Ġbook":1099,"Ġdesign":1100,"Ġproduct":1101,"Ġcommun":1102,"Ġsign":1103,"ird":1104,"ages":1105,"meric":1106,"Ġexp":1107,"Ġthings":1108,"Ġsay":1109,"der":1110,"ĠSh":1111,"Ġsk":1112,"ah":1113,"ways":1114,"Ġed":1115,"ize":1116,"Ġmet":1117,"read":1118,"Ġaut":1119,"ars":1120,"Ġcomple":1121,"Ġimport":1122,"ĠAr":1123,"Ġbetween":1124,"Ġsame":1125,"ash":1126,"Ġcle":1127,"Ġteam":1128,"be":1129,"...":1130,"Ġplace":1131,"Ġchar":1132,"ute":1133,"man":1134,"Ġmarket":1135,"Ġser":1136,"Ġpoint":1137,"ized":1138,"This":1139,"ustom":1140,"ital":1141,"Ġpur":1142,"Ġ9":1143,"ared":1144,"Ġrun":1145,"ĠBe":1146,"ves":1147,"ional":1148,"000":1149,"Ġhealth":1150,"Ġprogram":1151,"Ġstate":1152,"Ġeas":1153,"Ġprocess":1154,"It":1155,"lease":1156,"Ġrep":1157,"Ġsomething":1158,"ĠLe":1159,"ety":1160,"ames":1161,"Ġlist":1162,"Ġprof":1163,"ten":1164,"Ġsmall":1165,"Ġgl":1166,"ired":1167,"Ġfew":1168,"Ġthree":1169,"vern":1170,"Ġmom":1171,"ient":1172,"ĠCl":1173,"the":1174,"ology":1175,"ked":1176,"Ġlove":1177,"ants":1178,"less":1179,"Ġput":1180,"ody":1181,"ĠAmeric":1182,"Ġbel":1183,"Ġgener":1184,"uc":1185,"Ġplan":1186,"Ġfree":1187,"Ġform":1188,"cer":1189,"Ġlar":1190,"orn":1191,"oh":1192,"Ġopen":1193,"Ġfact":1194,"Ġext":1195,"ĠAd":1196,"arly":1197,"ets":1198,"ex":1199,"Ġpost":1200,"con":1201,"gy":1202,"10":1203,"ton":1204,"Ġtechn":1205,"âĢ¦":1206,"thing":1207,"Ġalways":1208,"Ġappro":1209,"ross":1210,"Ġcome":1211,"Ġob":1212,"Ġkeep":1213,"Ġtri":1214,"ering":1215,"ality":1216,"Ġtop":1217,"Ġpartic":1218,"Ġduring":1219,"ists":1220,"Ġmonth":1221,"Ġref":1222,"Ġfil":1223,"Ġreport":1224,"Ġty":1225,"Ġresult":1226,"Ġvar":1227,"ature":1228,"Ġbetter":1229,"bers":1230,"Ġmust":1231,"ined":1232,"ĠThere":1233,"gg":1234,"Ġcontin":1235,"Ġschool":1236,"ĠTim":1237,"ished":1238,"cl":1239,"ailable":1240,"Ġincluding":1241,"Ġposs":1242,"Ġresp":1243,"rand":1244,"Ġgot":1245,"Ġinterest":1246,"Ġval":1247,"ically":1248,"Ġsol":1249,"Ġimportant":1250,"ining":1251,"Ġdef":1252,"Ġwater":1253,"iving":1254,"Ġint":1255,"ĠHow":1256,"Ġiss":1257,"uss":1258,"Ġpat":1259,"Ġdist":1260,"Ġpri":1261,"Ġallow":1262,"stand":1263,"ploy":1264,"Ġfamily":1265,"Ġcompany":1266,"ention":1267,"Ġpay":1268,"ural":1269,"gether":1270,"Ġide":1271,"Ġtogether":1272,"und":1273,"cent":1274,"Ġtry":1275,"Ġcustom":1276,"Ġcent":1277,"Ġusing":1278,"Ġwithout":1279,"Ġfr":1280,"Ġgame":1281,"Ġcor":1282,"ield":1283,"ger":1284,"Ġorgan":1285,"Ġrest":1286,"Ġmain":1287,"19":1288,"Ġfriends":1289,"Ġopt":1290,"Ġdata":1291,"Ġbuild":1292,"Ġquest":1293,"Ġeffect":1294,"Ġwom":1295,"Ġanother":1296,"Ġpass":1297,"Ġgrou":1298,"Ġconf":1299,"lo":1300,"Ġnext":1301,"oney":1302,"Ġnever":1303,"ism":1304,"Ġincre":1305,"att":1306,"Ġmight":1307,"iversity":1308,"rist":1309,"ling":1310,"Ġexam":1311,"Ġ0":1312,"ision":1313,"Ġnumber":1314,"Ġexperience":1315,"Ġhard":1316,"Ġstand":1317,"Ġavailable":1318,"Ġwent":1319,"ense":1320,"ĠâĢĺ":1321,"Ġsl":1322,"Ġbro":1323,"oot":1324,"illion":1325,"Ġexpl":1326,"Ġlaw":1327,"Ġold":1328,"Ġcr":1329,"ier":1330,"ertain":1331,"Ġpublic":1332,"Ġrece":1333,"Ġinvest":1334,"ĠPl":1335,"Ġmov":1336,"Ġhead":1337,"Ġmus":1338,"ĠInd":1339,"aj":1340,"reen":1341,"Ġwr":1342,"ately":1343,"irl":1344,"Ġhappy":1345,"Ġproject":1346,"Ġsaw":1347,".,":1348,"me":1349,"Ġsince":1350,"On":1351,"ĠSp":1352,"Ġdri":1353,",\"":1354,"ĠOn":1355,"Ġinf":1356,"ware":1357,"br":1358,"Ġproble":1359,"Ġsure":1360,"Ġonline":1361,"Ġperform":1362,"Ġaway":1363,"gin":1364,"ccess":1365,"Ġgrow":1366,"pend":1367,"ĠEx":1368,"ĠIs":1369,"text":1370,"Ġpower":1371,"Ġsecond":1372,"ĠBl":1373,"Ġcost":1374,"els":1375,"Ġgive":1376,"Ġable":1377,"Ġdirect":1378,"rol":1379,"ER":1380,"Ġlevel":1381,"Ġwanted":1382,"amed":1383,"Ġlet":1384,"ĠQ":1385,"ĠFr":1386,"ĠâĢĶ":1387,"ted":1388,"Ġrese":1389,"Ġclass":1390,"Ġsays":1391,"que":1392,"ĠCol":1393,"Ġservice":1394,"Ġspec":1395,"pped":1396,"âĢĶ":1397,"ases":1398,"ged":1399,"ĠAll":1400,"Ġweek":1401,"If":1402,"ĠĠ":1403,"ised":1404,"Ġbelie":1405,"Ġsit":1406,"Ġless":1407,"rence":1408,"Ġagainst":1409,"Ġpos":1410,"ww":1411,"Ġdi":1412,"co":1413,"Ġdays":1414,"Ġleg":1415,"ivid":1416,"aut":1417,"Ġfull":1418,"Ġlearn":1419,"Ġprovide":1420,"Ġest":1421,"Ġve":1422,"ral":1423,"work":1424,"ency":1425,"ived":1426,"Ġ18":1427,"ember":1428,"orm":1429,"Ġunt":1430,"raph":1431,"pos":1432,"Ġgovern":1433,"Ġ12":1434,"ĠZ":1435,"Ġwin":1436,"ior":1437,"here":1438,"Ġel":1439,"Ġbre":1440,"ards":1441,"ĠPh":1442,"Ġhum":1443,"ered":1444,"Ġorder":1445,"ruct":1446,"Ġtest":1447,"Ġturn":1448,"Ġi":1449,"Ġservices":1450,"Ġpop":1451,"ffic":1452,"ission":1453,"Ġoper":1454,"inal":1455,"Ġwithin":1456,"Ġca":1457,"ients":1458,"ĠCon":1459,"cing":1460,"Ġproper":1461,"Ġprom":1462,"ump":1463,"Ġfood":1464,"ote":1465,"Ġcurrent":1466,"Ġprev":1467,"Ġaccess":1468,"ider":1469,"Ġprote":1470,"outh":1471,"Ġmeet":1472,"ĠTo":1473,"ĠTr":1474,"ec":1475,"Ġspecial":1476,"He":1477,"Ġ.":1478,"ĠThat":1479,"ĠTe":1480,"Ġmaking":1481,"ann":1482,"Ġseem":1483,"hor":1484,"Ġchildren":1485,"ĠUS":1486,"ĠComm":1487,"ats":1488,"You":1489,"Ġeng":1490,"Ġhouse":1491,"50":1492,"Ġaddition":1493,"side":1494,"Ġcame":1495,"ours":1496,"ently":1497,"Ġbeh":1498,"ina":1499,"Ġequ":1500,"Ġwebs":1501,"Ġworking":1502,"//":1503,"Ġkind":1504,"ret":1505,"ron":1506,"Ġcase":1507,"ator":1508,"Ġmoney":1509,"Ġsupp":1510,"Ġroom":1511,"Ġlight":1512,"Ġtru":1513,"Ġsing":1514,"Ġtoday":1515,"med":1516,"ability":1517,"ably":1518,"Ġunderstand":1519,"uck":1520,"ains":1521,"Ġupon":1522,"atter":1523,"Ġann":1524,"ified":1525,"Ġhist":1526,"Ġdem":1527,"Ġjob":1528,"iron":1529,"ential":1530,"Ġintern":1531,"ization":1532,"Ġemploy":1533,"augh":1534,"tend":1535,"omm":1536,"Ġpract":1537,"Ġcap":1538,"Ġfour":1539,"ium":1540,"oint":1541,"Ġchange":1542,"eng":1543,"Ġlooking":1544,"Ġstudents":1545,"Ġthing":1546,"As":1547,"Ġstarted":1548,"Ġ[":1549,"ĠGod":1550,"ury":1551,"Ġuntil":1552,"ording":1553,"conom":1554,"joy":1555,"ope":1556,"Ġarea":1557,"by":1558,"Ġconst":1559,"por":1560,"Ġterm":1561,"ify":1562,"ids":1563,"ik":1564,"Ġview":1565,"://":1566,"itions":1567,"Ġfac":1568,"Ġchang":1569,"ull":1570,"arent":1571,"ration":1572,"Ġwhy":1573,"Ġpresent":1574,"ead":1575,"ories":1576,"ott":1577,"Ġ'":1578,"Ġbas":1579,"ĠChrist":1580,"icle":1581,"agement":1582,"ries":1583,"iting":1584,"min":1585,"ĠRes":1586,"ney":1587,"Ġimpro":1588,"ĠCan":1589,"ured":1590,"Ġprofess":1591,"aring":1592,"ream":1593,"enef":1594,"ĠWhen":1595,"Ġcourse":1596,"pping":1597,"Ġdidn":1598,"ley":1599,"ĠOr":1600,"Ġthought":1601,"Ġgirl":1602,"Ġactiv":1603,"Ġtalk":1604,"orth":1605,"ĠOne":1606,"ills":1607,"soci":1608,"ĠMan":1609,"iven":1610,"Ġsuccess":1611,"12":1612,"Ġlocal":1613,"Ġhaving":1614,"Ġword":1615,"Ġoften":1616,"Ġsal":1617,"ok":1618,"Ġlarge":1619,"ocus":1620,"Ġindust":1621,"lish":1622,"Ġapplic":1623,"Ġpast":1624,"30":1625,"Ġwrit":1626,"Ġsw":1627,"ĠUniversity":1628,"IN":1629,"uro":1630,"ohn":1631,"ĠCent":1632,"lection":1633,"Ġname":1634,"Ġdra":1635,"Ġcond":1636,"ividual":1637,"Ġtreat":1638,"Ġ202":1639,"ising":1640,"part":1641,"Ġstory":1642,"Ġnamed":1643,"Ġvide":1644,"Ġdr":1645,"mber":1646,"Ġtook":1647,"Ġnight":1648,"Ġmove":1649,"Ġsite":1650,"ĠMar":1651,"enn":1652,"Ġexpect":1653,"Ġphot":1654,"ane":1655,"ĠNo":1656,"Ġgroup":1657,"What":1658,"itive":1659,"aim":1660,"Ġever":1661,"Ġcommunity":1662,"ee":1663,"Ġtell":1664,"Ġtimes":1665,"Ġcreat":1666,"ination":1667,"Ġaccount":1668,"elt":1669,"Ġpa":1670,"Ġevent":1671,"ajor":1672,"Ġfore":1673,"11":1674,"cu":1675,"tain":1676,"Ġbecome":1677,"Ġresearch":1678,"Ġpot":1679,"my":1680,"Ġes":1681,"ĠSc":1682,"sh":1683,"Ġpain":1684,"Ġdev":1685,"Ġenjoy":1686,"Ġ15":1687,"veral":1688,"aster":1689,"Ġothers":1690,"Ġair":1691,"Ġoffer":1692,"ON":1693,"Ġcalled":1694,"One":1695,"|>":1696,"Ġinclude":1697,"<|":1698,"Ġmar":1699,"oftext":1700,"endoftext":1701,"Ġcountry":1702,"Ġmean":1703,"ĠMay":1704,"ox":1705,"une":1706,"Ġsocial":1707,"ĠWhat":1708,"Ġbenef":1709,"let":1710,"Ġalong":1711,"Ġleft":1712,"ode":1713,"\\\\":1714,"ĠWith":1715,"Ġwomen":1716,"Ġcomplete":1717,"Ġbuy":1718,"utes":1719,"Ġindividual":1720,"Ġcheck":1721,"Ġtrad":1722,"ike":1723,"aterial":1724,"Ġneeds":1725,"Ġlive":1726,"ĠAt":1727,"orts":1728,"Ġoffic":1729,"ready":1730,"Ġbody":1731,"Ġenough":1732,"Ġpersonal":1733,"Ġconne":1734,"urs":1735,"ots":1736,"Ġhappen":1737,"Ġgovernment":1738,"Ġdog":1739,"Ġwebsite":1740,"Ġproducts":1741,"Ġdone":1742,"viron":1743,"Ġside":1744,"pportun":1745,"Ġfar":1746,"Ġwalk":1747,"'re":1748,"Ġpossible":1749,"Ġfocus":1750,"Ġcertain":1751,"Ġmeans":1752,"Ġ11":1753,"Ġmembers":1754,"oice":1755,"uture":1756,"Ġfund":1757,"Ġeduc":1758,"Ġtre":1759,"Ġmakes":1760,"ern":1761,"rap":1762,"Ġnon":1763,"Ġ30":1764,"ES":1765,"Ġbased":1766,"Ġ199":1767,"Ġfollowing":1768,"Ġrecord":1769,"Ġseveral":1770,"Ġfeat":1771,"Ġland":1772,"fer":1773,"Ġlim":1774,"Ġdoing":1775,"AT":1776,"ĠEng":1777,"ances":1778,"ery":1779,"Ġseason":1780,"Ġocc":1781,"Ġmusic":1782,"Ġmen":1783,"alf":1784,"Ġmillion":1785,"Ġbit":1786,"Ġalready":1787,"Ġshort":1788,"For":1789,"ĠAmerican":1790,"Ġmajor":1791,"ĠTom":1792,"osed":1793,"Ġreview":1794,"Ġopportun":1795,"new":1796,"Ġcontrol":1797,"Ġhold":1798,"sc":1799,"Ġmil":1800,"Ġelect":1801,"urity":1802,"Ġgetting":1803,"Ġmind":1804,"eb":1805,"Ġasked":1806,"ique":1807,"Ġshare":1808,"St":1809,"ption":1810,"Ġvisit":1811,"son":1812,"Ġquality":1813,"Ġeasy":1814,"ither":1815,"Ġball":1816,"Ġline":1817,"fort":1818,"ched":1819,"Ġ|":1820,"'m":1821,"Ġcomes":1822,"pro":1823,"Ġtold":1824,"Ġdevelopment":1825,"Ġstrong":1826,"ored":1827,"Ġsoft":1828,"Ġacross":1829,"wards":1830,"ails":1831,"load":1832,"Ġyoung":1833,"ĠSu":1834,"ĠCar":1835,"cially":1836,"ians":1837,"Ġ\\":1838,"Ġcou":1839,"ush":1840,"Ġris":1841,"Ġcreate":1842,"Ġfav":1843,"Ġinvol":1844,"atic":1845,"icy":1846,"....":1847,"app":1848,"AR":1849,"Ġnet":1850,"Ġmult":1851,"ĠCo":1852,"vironment":1853,"ĠJohn":1854,"Ġanal":1855,"Ġleast":1856,"ape":1857,"Ġquick":1858,"ateg":1859,"Ġnews":1860,"idd":1861,"Ġeconom":1862,"Ġparticular":1863,"Ġbird":1864,"ides":1865,"Ġactually":1866,"ĠMy":1867,"urther":1868,"Ġmaterial":1869,"ĠUnited":1870,"There":1871,"Ġwa":1872,"Ġbeaut":1873,"Ġdeal":1874,"not":1875,"ĠThese":1876,"Ġfuture":1877,"ĠApp":1878,"duct":1879,"Ġcharact":1880,"Ġey":1881,"ences":1882,"Ġreturn":1883,"AN":1884,"ister":1885,"lf":1886,"Ġident":1887,"!\"":1888,"most":1889,"Ġcity":1890,"âĢĵ":1891,"Ġstudy":1892,"Ġla":1893,"ino":1894,"Ġlow":1895,"Ġexc":1896,"ided":1897,"__":1898,"err":1899,"Ġce":1900,"Ġspecific":1901,"Ġplayed":1902,"Ġexample":1903,"arr":1904,"ĠMed":1905,"rop":1906,"Ġorig":1907,"Ġredu":1908,"aff":1909,"hod":1910,"lished":1911,"An":1912,"Ġhig":1913,"Ġtyp":1914,"ĠAm":1915,"Ġrequire":1916,"ober":1917,"Ġdoesn":1918,"Ġreason":1919,"utions":1920,"OR":1921,"anies":1922,"resent":1923,"ulation":1924,"use":1925,"oor":1926,"ony":1927,"oll":1928,"Ġhuman":1929,"ĠÂ":1930,"uff":1931,"Ġtax":1932,"Ġele":1933,"ĠHowever":1934,"15":1935,"wh":1936,"acy":1937,"Ġcamp":1938,"Ġonce":1939,"ches":1940,"How":1941,"mm":1942,"Ġcontact":1943,"ones":1944,"yle":1945,"oose":1946,"ograph":1947,"Ġrelations":1948,"Ġwon":1949,"aken":1950,"Ġauthor":1951,"Ġcat":1952,"ĠFl":1953,"But":1954,"Ġearly":1955,"Ġvari":1956,"Ġbring":1957,"Ġkey":1958,"Ġgames":1959,"Ġpar":1960,"Ġlater":1961,"ĠPr":1962,"ĠComp":1963,"aps":1964,"iod":1965,"Ġpark":1966,"over":1967,"Ġknown":1968,"Ġboy":1969,"Ġred":1970,"ges":1971,"Ġcompet":1972,"Ġpick":1973,"When":1974,"Ġpercent":1975,"Ġstay":1976,"ĠSte":1977,"Ġheart":1978,"room":1979,"Ġstep":1980,"Ġmonths":1981,"ĠWor":1982,"ĠRep":1983,"osp":1984,"Ġhot":1985,"ference":1986,"ai":1987,"idence":1988,"ĠIntern":1989,"Ġ16":1990,"ĠInst":1991,"cle":1992,"ources":1993,"rew":1994,"Ġchall":1995,"ift":1996,"Ġclose":1997,"ows":1998,"Ġpriv":1999,"Ġvideo":2000,"Ġtem":2001,"Ġet":2002,"Ġask":2003,"Ġens":2004,"book":2005,"Ġindustry":2006,"ilities":2007,"Ġear":2008,"Ġdiscuss":2009,"Ġproblem":2010,"eral":2011,"ancial":2012,"verage":2013,"ĠX":2014,"sw":2015,"Ġener":2016,"Ġvers":2017,"Ġant":2018,"ource":2019,"ourn":2020,"Ġ14":2021,"Ġperfect":2022,"Ġrele":2023,"ĠDo":2024,"Ġbegin":2025,"Ġgiven":2026,"Ġlink":2027,"Ġidea":2028,"ĠState":2029,"Once":2030,"oon":2031,"ights":2032,"Ġclean":2033,"lling":2034,"Ġcomb":2035,"lege":2036,"Ġhours":2037,"Ġyet":2038,"Ġwhether":2039,"Ġrespons":2040,"crib":2041,"urch":2042,"Ġ/":2043,"ĠSy":2044,"ctor":2045,"Ġcut":2046,"Ġfive":2047,"ĠEn":2048,"Ġcult":2049,"ental":2050,"ĠEuro":2051,"rict":2052,"Ġsound":2053,"Ġface":2054,"Ġsomeone":2055,"par":2056,"Ġwind":2057,"Ġpolit":2058,"ĠNe":2059,"Ġseen":2060,"Ġamount":2061,"Ġpress":2062,"ĠServ":2063,"ued":2064,"ners":2065,"mb":2066,"Ġfield":2067,"ster":2068,"Ġcompanies":2069,"Ġclaim":2070,"Ġess":2071,"Ġdeli":2072,"18":2073,"ĠLily":2074,"ĠHis":2075,"Ġamong":2076,"Ġeverything":2077,"Ġjo":2078,"illed":2079,"Ġappear":2080,"ĠBr":2081,"Ġspace":2082,"reet":2083,"Ġfelt":2084,"oard":2085,"itor":2086,"ibility":2087,"--":2088,"Ġquestion":2089,"Ġhistory":2090,"Ġage":2091,"ĠCont":2092,"ford":2093,"Ġpurch":2094,"ogn":2095,"Ġcontent":2096,"Ġnear":2097,"iful":2098,"Ġconsider":2099,"ler":2100,"Ġmor":2101,"Ġvol":2102,"ging":2103,"imate":2104,"'ve":2105,"Ġplaying":2106,"atural":2107,"Ġbelieve":2108,"Ġtool":2109,"aces":2110,"ained":2111,"though":2112,"16":2113,"pecially":2114,"ried":2115,"Ġ13":2116,"Ġpie":2117,"Ġ17":2118,"Ġlooked":2119,"Ġphys":2120,"abor":2121,"Ġaddress":2122,"hers":2123,"Ġprob":2124,"ison":2125,"af":2126,"unch":2127,"Ch":2128,"selves":2129,"Ġdue":2130,"14":2131,"Ġenc":2132,"Ġcommon":2133,"ball":2134,"fic":2135,"Ġwhole":2136,"Ġbelow":2137,"sy":2138,"ung":2139,"ili":2140,"Ġsci":2141,"rain":2142,"And":2143,"Ġfre":2144,"Ġpage":2145,"Ġissues":2146,"iday":2147,"Ġmedia":2148,"Ġcred":2149,"ĠYork":2150,"EN":2151,"Ġtot":2152,"Ġmess":2153,"Ġtaking":2154,"Ġbad":2155,"che":2156,"Ġperiod":2157,"ĠMe":2158,"Ġenvironment":2159,"ively":2160,"Ġemail":2161,"Ġsingle":2162,"ilt":2163,"uation":2164,"So":2165,"13":2166,"Ġoutside":2167,"Ġmag":2168,"Ġeveryone":2169,"Ġz":2170,"Ġconcer":2171,"Ġresults":2172,"ĠGu":2173,"de":2174,"Ġpack":2175,"Ġmot":2176,"Ġstore":2177,"Ġfall":2178,"Ġenergy":2179,"go":2180,"Ġbreak":2181,"Ġpret":2182,"ĠJan":2183,"Ġsuper":2184,"ips":2185,"Ġpub":2186,"asing":2187,"ĠStates":2188,"Ġste":2189,"Ġwatch":2190,"Ġitem":2191,"Ġprice":2192,"Ġanything":2193,"Ġtechnology":2194,"ĠYour":2195,"fully":2196,"Ġvalue":2197,"Ġrelationship":2198,"Ġport":2199,"na":2200,"Ġhtt":2201,"Ġabove":2202,"irt":2203,"Ġsex":2204,"ledge":2205,"ama":2206,"Ġloved":2207,"come":2208,"ĠCal":2209,"irm":2210,"ply":2211,"Ġcra":2212,"Re":2213,"Ġbuilding":2214,"Ġmethod":2215,"obal":2216,"ĠNot":2217,"dd":2218,"ĠCount":2219,"Ġhope":2220,"ĠEurope":2221,"Ġparent":2222,"org":2223,"Ġsignific":2224,"Ġminutes":2225,"Ġrecomm":2226,"Ġmeas":2227,"Ġimprove":2228,"Ġ100":2229,"Ġcrit":2230,"Ġeff":2231,"Ġquestions":2232,"iously":2233,"IS":2234,"arning":2235,"Ġpict":2236,"Ġrecommend":2237,"Ġbox":2238,"Ġseries":2239,"Ġmanag":2240,"itted":2241,"ĠCity":2242,"Ġworks":2243,"Ġpretty":2244,"chie":2245,"gest":2246,"AS":2247,"gle":2248,"Ġself":2249,"ples":2250,"Ġfurther":2251,"rown":2252,"ĠMin":2253,"Ġaud":2254,"Ġtype":2255,"Ġcal":2256,"Ġwond":2257,"ators":2258,"ole":2259,"Ġago":2260,"Ġoffers":2261,"Ġcompl":2262,"ĠNational":2263,"Ġplease":2264,"17":2265,"ĠAfter":2266,"Ġrepl":2267,"rodu":2268,"used":2269,"AL":2270,"ille":2271,"Ġprotect":2272,"Ġ24":2273,"Ġtravel":2274,"Ġdig":2275,"Ġnecess":2276,"Ġhalf":2277,"iol":2278,"cri":2279,"ficult":2280,"Ġvarious":2281,"Ġrange":2282,"?\"":2283,"Ġbrand":2284,"ilar":2285,"ĠPres":2286,"IT":2287,"Ġparticip":2288,"Ġdeb":2289,"ĠSam":2290,"Ġeither":2291,"vent":2292,"Ġ25":2293,"Ġentire":2294,"Ġfeatures":2295,"Ġtrying":2296,"vert":2297,"ication":2298,"Ġflow":2299,"Ġalmost":2300,"ites":2301,"ensive":2302,"ĠSec":2303,"atur":2304,"Ġneeded":2305,"urance":2306,"Ġmanagement":2307,"Ġsafe":2308,"Ġfilm":2309,"200":2310,"cell":2311,"Ġways":2312,"Ġfavor":2313,"Ġsugg":2314,"Ġsuggest":2315,"back":2316,"Ġespecially":2317,"ĠOur":2318,"Ġthird":2319,"ĠGo":2320,"anks":2321,"Ġdifficult":2322,"'ll":2323,"Ġmiss":2324,"Ġbeautiful":2325,"Ġlikely":2326,"Ġanim":2327,"Ġbar":2328,"Ġrisk":2329,"Ġbecame":2330,"Ġtraining":2331,"Ġdel":2332,"Ġdeterm":2333,"Ġcustomers":2334,"Ġcir":2335,"Ġ--":2336,"play":2337,"gress":2338,"Ġtaken":2339,"Ġtrack":2340,"omes":2341,"ED":2342,"oud":2343,"ĠWorld":2344,"ands":2345,"Ġareas":2346,"ĠMarch":2347,"angu":2348,"Ġliving":2349,"Ġground":2350,"Ġcoming":2351,"fact":2352,"Ġimpact":2353,"Ġrequired":2354,"Ġinside":2355,"Ġsoon":2356,"Ġsearch":2357,"!!":2358,"Ġfront":2359,"Ġconsum":2360,"Ġblog":2361,"ĠSchool":2362,"Ġfinancial":2363,"ĠAf":2364,"ĠChe":2365,"Ġsun":2366,"Ġperformance":2367,"ially":2368,"ruction":2369,"Ġblack":2370,"Ġprovides":2371,"Ġquite":2372,"aching":2373,"IC":2374,"Ġrepresent":2375,"Ġsignificant":2376,"Ġstop":2377,"Ġspend":2378,"ĠSouth":2379,"ĠMc":2380,"Ġhowever":2381,"rie":2382,"ĠMr":2383,"Ġclear":2384,"Ġdocu":2385,"Ġsent":2386,"ification":2387,"Ġpopular":2388,"iver":2389,"Ġelse":2390,"where":2391,"ĠPe":2392,"Ġcomput":2393,"Ġparty":2394,"Ġexist":2395,"ires":2396,"Ġfast":2397,"Ġtree":2398,"lex":2399,"oid":2400,"ees":2401,"Ġdam":2402,"ĠJu":2403,"Ġinfl":2404,"Ġ50":2405,"ze":2406,"ask":2407,"Ġinit":2408,"ises":2409,"ĠGr":2410,"Ġcell":2411,"Ġsix":2412,"25":2413,"icated":2414,"aur":2415,"Ġansw":2416,"Ġagree":2417,"Ġproperty":2418,"Ġhy":2419,"ĠPart":2420,"Ġcard":2421,"Ġbehind":2422,"ĠOct":2423,"itten":2424,"Ġsimple":2425,"Ġprovided":2426,"Ġsubject":2427,"eth":2428,"minist":2429,"Ġrole":2430,"Ġoffice":2431,"ny":2432,"ĠAb":2433,"rug":2434,"Ġprofessional":2435,"Ġweb":2436,"time":2437,"uary":2438,"Ġbed":2439,"Ġissue":2440,"Ġwriting":2441,"ĠDr":2442,"Ġgra":2443,"Ġincrease":2444,"iam":2445,"Ġassist":2446,"ĠNorth":2447,"Ġhost":2448,"pril":2449,"umb":2450,"Ġsad":2451,"Ġcontinue":2452,"ĠPol":2453,"Ġwords":2454,"year":2455,"Ġmatter":2456,"ĠTw":2457,"ĠDep":2458,"ĠTH":2459,"Ġaccept":2460,"yn":2461,"itional":2462,"Ġoil":2463,"Ġaction":2464,"Ġstaff":2465,"Ġnice":2466,"Ġrespect":2467,"Ġproblems":2468,"ĠEd":2469,"Ġstat":2470,"Ġeducation":2471,"ĠAg":2472,"Ġfoot":2473,"Ġposition":2474,"roll":2475,"Ġrather":2476,"To":2477,"val":2478,"Ġyourself":2479,"Ġdeath":2480,"Ġachie":2481,"Ġdecided":2482,"Ġheld":2483,"Ġcharacter":2484,"Ġdou":2485,"opy":2486,"Ġpoints":2487,"ĠAust":2488,"reme":2489,"ĠAug":2490,"ĠAct":2491,"Ġtou":2492,"icro":2493,"ief":2494,"ience":2495,"Ġprobably":2496,"apt":2497,"Ġaccording":2498,"Ġtext":2499,"Ġcook":2500,"Ġ#":2501,"Ġestab":2502,"Ġsimply":2503,"Ġevents":2504,"ume":2505,"Ġabs":2506,"ĠWill":2507,"ules":2508,"Ġprep":2509,"Ġsecurity":2510,"itting":2511,"uge":2512,"Ġassoci":2513,"Ġisn":2514,"Ġinj":2515,"ID":2516,"Ġ2012":2517,"Ġkids":2518,"obile":2519,"Ġgeneral":2520,"ĠCor":2521,"Ġfail":2522,"resh":2523,"Ġadded":2524,"Ġsle":2525,"Ġsong":2526,"ring":2527,"Ġregard":2528,"itch":2529,"Ġhon":2530,"Ġinstall":2531,"Ġhigher":2532,"ned":2533,"Ġunique":2534,"Ġforward":2535,"Ġnatural":2536,"Ġfire":2537,"ada":2538,"amb":2539,"Ġrecogn":2540,"Ġcontrib":2541,"Ġwide":2542,"lt":2543,"ival":2544,"ĠDis":2545,".)":2546,"oe":2547,"ĠQu":2548,"reg":2549,"ĠDes":2550,"Ġknew":2551,"ĠGe":2552,"ĠBy":2553,"olution":2554,"Ġ2013":2555,"Ġmodel":2556,"ĠSome":2557,"Ġtrue":2558,"iled":2559,"Ġpotential":2560,"US":2561,"Ġupd":2562,"Ġchanges":2563,"Ġpaper":2564,"anc":2565,"Ġconnect":2566,"Ġsurpr":2567,"Ġnothing":2568,"Ġwhite":2569,"ables":2570,"AC":2571,"ĠHer":2572,"Ġannoun":2573,"Ġtown":2574,"Ġloss":2575,"ĠSm":2576,"Ġarticle":2577,"Al":2578,"Ġincludes":2579,"RE":2580,"Ġtakes":2581,"anced":2582,"ĠPer":2583,"lebr":2584,"Ġtreatment":2585,"Ġroad":2586,"ĠPark":2587,"head":2588,"medi":2589,"Ġcoll":2590,"ĠAmerica":2591,"iet":2592,"ufact":2593,"nov":2594,"ĠTra":2595,"ĠJune":2596,"Ġcannot":2597,"ĠCenter":2598,"ĠSept":2599,"Ġdate":2600,"ĠGl":2601,"Ġ:":2602,"Ġoptions":2603,"Ġfinal":2604,"oring":2605,"ades":2606,"ĠInc":2607,"Ġlog":2608,"Ġsystems":2609,"Ġsize":2610,"Ġneg":2611,"Ġchoose":2612,"Ġmoment":2613,"Ġ198":2614,"izing":2615,"ana":2616,"Ġsimilar":2617,"ĠNow":2618,"Ġswe":2619,"pper":2620,"empt":2621,"Ġrecent":2622,"Ġopportunity":2623,"Ġmember":2624,"ĠIm":2625,"astic":2626,"ĠHealth":2627,"ĠJust":2628,"ĠStud":2629,"atform":2630,"Ġensure":2631,"Ġcourt":2632,"Ġdepend":2633,"oura":2634,"right":2635,"era":2636,"ĠBen":2637,"Ġtable":2638,"Ġnational":2639,"Ġextra":2640,"Ġfunction":2641,"Ġsoftware":2642,"Ġlonger":2643,"Ġgave":2644,"Ġknowledge":2645,"iter":2646,"Ġ2014":2647,"yl":2648,"aily":2649,"oogle":2650,"arget":2651,"Ġcover":2652,"Ġcontract":2653,"Ġlearning":2654,"Ġcoun":2655,"Ġreceived":2656,"Ġfa":2657,"Ġinde":2658,"oph":2659,"Ġcreated":2660,"Ġleaders":2661,"60":2662,"Ġofficial":2663,"Ġmedical":2664,"Ġlives":2665,"Ġgrowth":2666,"Ġpolicy":2667,"Ġselect":2668,"Ġworked":2669,"rel":2670,"Ġrunning":2671,"Ġshall":2672,"hib":2673,"ĠBar":2674,"ĠKe":2675,"ĠApril":2676,"Ġphone":2677,"Ġrate":2678,"atory":2679,"Ã©":2680,"Ġsum":2681,"Ġmach":2682,"Ġweeks":2683,"Ġleave":2684,"Ġcollect":2685,"aving":2686,"Ġlost":2687,"nes":2688,"Ġ2017":2689,"Ġready":2690,"Ġshows":2691,"Ġsat":2692,"Ġrights":2693,"ederal":2694,"cil":2695,"Ġengine":2696,"ĠFeb":2697,"Ġterms":2698,"Ġplayers":2699,"Ġrequest":2700,"22":2701,"Ġcas":2702,"Ġopp":2703,"Ġgen":2704,"ĠCounty":2705,"ciety":2706,"ournal":2707,"Ġtried":2708,"Ġexpress":2709,"Ġtit":2710,"ĠPresident":2711,"Ġ2016":2712,"Ġdescrib":2713,"ude":2714,"Ġbooks":2715,"ma":2716,"Ġfig":2717,"Ġusually":2718,"eter":2719,"face":2720,"Ġdefin":2721,"ceed":2722,"gu":2723,"Ġdecision":2724,"Ġworth":2725,"Ġspeak":2726,"adem":2727,"Ġsend":2728,"Ġful":2729,"hel":2730,"erc":2731,"Ġpers":2732,"ĠFin":2733,"Ġbegan":2734,"based":2735,"Ġreceive":2736,"earch":2737,"Ġstruct":2738,"Ġnetwork":2739,"Ġdesigned":2740,"Ġrad":2741,"Ġviol":2742,"Ġdom":2743,"ĠArt":2744,"Ġhands":2745,"irit":2746,"Ġill":2747,"Ġtotal":2748,"Ġregular":2749,"ĠJuly":2750,"Ġthroughout":2751,"Ġdeep":2752,"Ġpractice":2753,"ysis":2754,"mit":2755,"ĠPa":2756,"Ġoriginal":2757,"Ġcause":2758,"Ġreading":2759,"Ġseems":2760,"40":2761,"Ġsense":2762,"Ġquickly":2763,"Ġprior":2764,"ached":2765,"Ġattack":2766,"Ġx":2767,"Ġmass":2768,"Ġusers":2769,"ĠReg":2770,"ological":2771,"ĠEm":2772,"iddle":2773,"Ġwar":2774,"Ġanyone":2775,"Ġaffect":2776,"Ġdep":2777,"Ġdest":2778,"aced":2779,"Ġ2018":2780,"Ġcases":2781,"Ġaf":2782,"bit":2783,"ĠThen":2784,"ara":2785,"Ġapplication":2786,"Ġdeg":2787,"Ġcolor":2788,"Ġlegal":2789,"Ġblock":2790,"cember":2791,"Ġthemselves":2792,"ese":2793,"ovember":2794,"Ġ,":2795,"Ġcouple":2796,"aining":2797,"Ġrock":2798,"ĠWest":2799,"Ġlangu":2800,"rect":2801,"Ġattend":2802,"Ġactivities":2803,"ĠMore":2804,"iff":2805,"Ġheard":2806,"Ġbott":2807,"Ġemb":2808,"action":2809,"ops":2810,"Ġlisten":2811,"Ġ2015":2812,"aging":2813,"ĠFrom":2814,"uth":2815,"icles":2816,"Ġclos":2817,"www":2818,"Ġfight":2819,"Ġcredit":2820,"idge":2821,"Ġteac":2822,"Ġskin":2823,"Ġcareer":2824,"Ġlat":2825,"ĠPre":2826,"Ġpatients":2827,"Ġsales":2828,"arter":2829,"Ġstri":2830,"Ġprivate":2831,"Ġcomfort":2832,"Ġcountries":2833,"Ġinternational":2834,"ĠDon":2835,"Ġut":2836,"Ġlate":2837,"ĠMax":2838,"istic":2839,"ĠDav":2840,"Ġlay":2841,"Ġimm":2842,"inary":2843,"cast":2844,"ĠWhile":2845,"Ġformer":2846,"Ġprim":2847,"ament":2848,"Ġ2011":2849,"ĠCour":2850,"ĠSpe":2851,"Ġobs":2852,"Ġpric":2853,"ĠJanuary":2854,"iction":2855,"They":2856,"Ġcam":2857,"Ġdetails":2858,"Ġmother":2859,"urt":2860,"oke":2861,"artment":2862,"Ġdraw":2863,"Ġfit":2864,"Ġadditional":2865,"Ġconditions":2866,"Ġwonder":2867,"Ġhit":2868,"Ġcustomer":2869,"aign":2870,"At":2871,"Ġveh":2872,"Ġability":2873,"Ġdise":2874,"ĠHouse":2875,"Ġobject":2876,"Ġcurrently":2877,"Ġetc":2878,"Ġnorm":2879,"Ġproduction":2880,"clus":2881,"Ġplatform":2882,"Ġprint":2883,"Ġblood":2884,"like":2885,"Ġpolitical":2886,"Ġskills":2887,"Ġdownload":2888,"edd":2889,"Ġ40":2890,"ecut":2891,"Ġcelebr":2892,"Ġrecently":2893,"Ġbal":2894,"pose":2895,"Ġvia":2896,"Ġdoor":2897,"ashing":2898,"Ġmark":2899,"Ġprograms":2900,"Ġparents":2901,"ĠRo":2902,"ky":2903,"irth":2904,"Ġwoman":2905,"ĠCO":2906,"oes":2907,"Ġgoal":2908,"Ġhair":2909,"ĠSeptember":2910,"ĠEl":2911,"Ġgrad":2912,"Ġitself":2913,"Ġbase":2914,"Ġbenefits":2915,"Ġexact":2916,"Ġjud":2917,"Ġautom":2918,"asons":2919,"Ġ2010":2920,"Ġamaz":2921,"Ġboard":2922,"ĠOctober":2923,"ming":2924,"Ġfish":2925,"Ġapproach":2926,"lier":2927,"Ġstra":2928,"sp":2929,"hood":2930,"Ġstudent":2931,"ground":2932,"ĠDay":2933,"ĠAfric":2934,"Ġsens":2935,"Ġappe":2936,"Ġmanufact":2937,"aby":2938,"With":2939,"Ġversion":2940,"uses":2941,"ĠAugust":2942,"Ġple":2943,"Ġincluded":2944,"Ġcand":2945,"Ġmeeting":2946,"pri":2947,"more":2948,"ek":2949,"Ġnecessary":2950,"Ġrelated":2951,"ux":2952,"bor":2953,"Ġwall":2954,"Ġ21":2955,"Ġinvolved":2956,"Ġintrodu":2957,"Ġglobal":2958,"erve":2959,"su":2960,"ĠHigh":2961,"Ġsil":2962,"imum":2963,"ĠOff":2964,"Ġmorning":2965,"airs":2966,"Ġri":2967,"Ġeat":2968,"inc":2969,"ham":2970,"lying":2971,"Ġtarget":2972,"Ġep":2973,"ruary":2974,"itc":2975,"erous":2976,"enced":2977,"fficient":2978,"Ġremember":2979,"Ġbi":2980,"Ġsaf":2981,"Ġweight":2982,"Ġmarketing":2983,"Ġslow":2984,"Ġtour":2985,"Ġ2020":2986,"Ġcommit":2987,"reng":2988,"Ġarri":2989,"ession":2990,"aves":2991,"atives":2992,"Ġtrust":2993,"Ġvariety":2994,"Ġcosts":2995,"Ġlevels":2996,"Ġlower":2997,"Ġdrive":2998,"Ġcool":2999,"ĠBro":3000,"hold":3001,"Ġpan":3002,"arden":3003,"ĠHar":3004,"Ġwritten":3005,"Ġimmedi":3006,"Ġdrug":3007,"ample":3008,"light":3009,"Ġbank":3010,"That":3011,"Ġ22":3012,"ĠInt":3013,"Ġclick":3014,"ĠUs":3015,"ĠMon":3016,"Ġeyes":3017,"Ġprojects":3018,"ĠDecember":3019,"Ġintegr":3020,"Sh":3021,"ague":3022,"My":3023,"rought":3024,"ĠPar":3025,"ospital":3026,"Ġmaintain":3027,"ray":3028,"ĠNovember":3029,"ĠAssoci":3030,"ales":3031,"Ġmyself":3032,"Ġwasn":3033,"Ġstock":3034,"Ġbuilt":3035,"ĠOf":3036,"Ġfavorite":3037,"Ġlearned":3038,"aught":3039,"usiness":3040,"Ġchance":3041,"udd":3042,"ĠSci":3043,"Ġsell":3044,"Ġchoice":3045,"Ġinstead":3046,"Ġhear":3047,"urg":3048,"urb":3049,"Ġgoes":3050,"Ġ2019":3051,"No":3052,"ĠSw":3053,"AM":3054,"Ġliked":3055,"mon":3056,"Ġallows":3057,"Ġstyle":3058,"Ġmix":3059,"ĠBu":3060,"Ġsqu":3061,"Ġsn":3062,"fered":3063,"ĠĠĠĠ":3064,"str":3065,"off":3066,"Our":3067,"ĠHere":3068,"Ġattention":3069,"Ġinsp":3070,"isions":3071,"hern":3072,"Ġwrong":3073,"Ġitems":3074,"Ġsett":3075,"Ġround":3076,"itary":3077,"Ġinvestig":3078,"ĠMus":3079,"Ph":3080,"Ġeffective":3081,"Ġconc":3082,"\\\\\\\\":3083,"ĠEvery":3084,"Ġlooks":3085,"23":3086,"Ġemer":3087,"Ġinsurance":3088,"Ġeasily":3089,"Ġcy":3090,"ivity":3091,"OT":3092,"24":3093,"ĠInternational":3094,"Ġfair":3095,"iple":3096,"ications":3097,"ĠDepartment":3098,"Ġord":3099,"Ġclients":3100,"ule":3101,"All":3102,"Ġscreen":3103,"Ġones":3104,"verse":3105,"Ġgroups":3106,"ĠAustral":3107,"Ġsummer":3108,"Ġuser":3109,"onse":3110,"Ġencoura":3111,"inci":3112,"ING":3113,"ett":3114,"put":3115,"Ġcirc":3116,"plement":3117,"Ġhol":3118,"ĠAcc":3119,"ĠVal":3120,"70":3121,"Ġdiv":3122,"just":3123,"ris":3124,"ĠWar":3125,"Ġwrite":3126,"idered":3127,"Ġmention":3128,"ĠMich":3129,"Ġlatest":3130,"Ġleading":3131,"Ġchalleng":3132,"Ġpull":3133,"ĠBrit":3134,"Ġtypes":3135,"ĠSan":3136,"Ġattempt":3137,"htt":3138,"itution":3139,"Ġpropos":3140,"ĠBlack":3141,"unt":3142,"Ġran":3143,"Ġtouch":3144,"avy":3145,"haps":3146,"ipment":3147,"Ġfell":3148,"Ġoption":3149,"Ġrev":3150,"ĠAdd":3151,"sec":3152,"Ġresources":3153,"Ġhuge":3154,"Ġplans":3155,"wise":3156,"OU":3157,"EC":3158,"king":3159,"iny":3160,"illing":3161,"Ġcampaign":3162,"sych":3163,"ram":3164,"Ġdigital":3165,"Ġstandard":3166,"Ġdark":3167,"Ġdefe":3168,"iforn":3169,"Ġ23":3170,"Pro":3171,"Ġcomputer":3172,"Ġgreen":3173,"ĠChar":3174,"Ġhimself":3175,"Ġmatch":3176,"itation":3177,"roup":3178,"ought":3179,"Ġmodern":3180,"OS":3181,"Be":3182,"ĠLaw":3183,"pre":3184,"Ġrelease":3185,"{\\":3186,"Ġvict":3187,"Ġpolice":3188,"ension":3189,"Ġpred":3190,"Ġhappened":3191,"Ġsometimes":3192,"Ġreported":3193,"Ġsafety":3194,"Ġ+":3195,"After":3196,"itute":3197,"ĠTV":3198,"ĠDirect":3199,"Ġhor":3200,"Ġsepar":3201,"Ġprevent":3202,"ĠGerm":3203,"Ġreach":3204,"Ġideas":3205,"ĠEnglish":3206,"Ġanswer":3207,"Ġexcept":3208,"Ġearn":3209,"ĠUK":3210,"Ġpositive":3211,"Ġfeed":3212,"iring":3213,"Ġlif":3214,"Ġadminist":3215,"attle":3216,"Ġinflu":3217,"Ġstru":3218,"Ġdrink":3219,"Ġsold":3220,"Ġfix":3221,"nds":3222,"Ġplant":3223,"Ġsaying":3224,"itter":3225,"80":3226,"mercial":3227,"Ġlab":3228,"Ġmovie":3229,"ĠAc":3230,"iding":3231,"tee":3232,"Ġconduct":3233,"Ġstreng":3234,"Ġsituation":3235,"ifornia":3236,"Ġsleep":3237,"ĠJes":3238,"Ġproviding":3239,"Ġaverage":3240,"Ġpath":3241,"Ġthinking":3242,"Ġsection":3243,"aged":3244,"ha":3245,"Ġgives":3246,"Ġorganization":3247,"zy":3248,"Ġstates":3249,"ĠFebruary":3250,"Ġpresident":3251,"Ġsus":3252,"Ġeconomic":3253,"aint":3254,"key":3255,"alt":3256,"Ġvac":3257,"Ġinteresting":3258,"ĠCons":3259,"unday":3260,"Ġconsidered":3261,"onday":3262,"Ġregul":3263,"Ġlocated":3264,"99":3265,"Ġphysical":3266,"Ġexpected":3267,"cies":3268,"ests":3269,"Ġlived":3270,"ondon":3271,"Ġtal":3272,"Ġwarm":3273,"lin":3274,"Ġexcell":3275,"pite":3276,"aturday":3277,"Ġindividuals":3278,"wood":3279,"âĢ¢":3280,"ĠSch":3281,"Ġ...":3282,"aly":3283,"ivil":3284,"ĠNet":3285,"Ġparts":3286,"ĠChina":3287,"Ġpublished":3288,"vey":3289,"Ġnature":3290,"Ġled":3291,"yond":3292,"Ġcross":3293,"ns":3294,"ĠCommun":3295,"udget":3296,"Ġenter":3297,"agn":3298,"Ġsites":3299,"Ġtele":3300,"Ġturned":3301,"Ġaff":3302,"Ġsource":3303,"Ġbra":3304,"omen":3305,"ari":3306,"Ġtools":3307,"ĠCoun":3308,"Ġdocument":3309,"imately":3310,"Ġpurchase":3311,"Ġwood":3312,"Ġgets":3313,"mission":3314,"Ġbrought":3315,"Ġpartners":3316,"apan":3317,"ilies":3318,"ica":3319,"Ġamazing":3320,"ĠKing":3321,"Ġimage":3322,"Ġfresh":3323,"Ġqual":3324,"Ġtowards":3325,"Ġgiving":3326,"ĠAut":3327,"Ġlanguage":3328,"idents":3329,"Ġfeeling":3330,"ĠSue":3331,"iles":3332,"Ġarch":3333,"Ġpiece":3334,"aste":3335,"ĠCourt":3336,"aries":3337,"enty":3338,"âĢĿ.":3339,"Ġfloor":3340,"Ġdaily":3341,"Ġmultiple":3342,"Ġemployees":3343,"Ġ2009":3344,"oms":3345,"Ġcomment":3346,"ville":3347,"Ġcompletely":3348,"By":3349,"Ġhelps":3350,"ĠFace":3351,"Ġimplement":3352,"reed":3353,"Ġcenter":3354,"ĠPat":3355,"Ġspeed":3356,"Ġaware":3357,"Ġlocation":3358,"ĠIndia":3359,"Ġtoy":3360,"Ġsche":3361,"ald":3362,"Ġsave":3363,"ĠRed":3364,"Ġdistrib":3365,"aches":3366,"cious":3367,"Ġbehav":3368,"ĠAN":3369,"Ġbroad":3370,"iqu":3371,"cription":3372,"ĠGener":3373,"Ġstories":3374,"Ġinterview":3375,"ĠFriday":3376,"Ġcomplex":3377,"ĠLu":3378,"Ġfather":3379,"Ġlic":3380,"ester":3381,"Ġlimited":3382,"Ġavoid":3383,"Ġdepart":3384,"Ġextreme":3385,"Ġcondition":3386,"enge":3387,"ĠOb":3388,"itchen":3389,"uate":3390,"Ġdead":3391,"gar":3392,"Ġprogress":3393,"Ġremov":3394,"ET":3395,"ĠSer":3396,"Ġdirectly":3397,"Ġsubst":3398,"vant":3399,"Ġdoll":3400,"isc":3401,"ĠCalifornia":3402,"Ġorganiz":3403,"Ġbusinesses":3404,"ĠRuss":3405,"Ġconvers":3406,"aker":3407,"arily":3408,"rs":3409,"Ġbur":3410,"Ġsubs":3411,"ION":3412,"21":3413,"Ġ28":3414,"rences":3415,"Ġhighly":3416,"Ġmaterials":3417,"Ġrace":3418,"band":3419,"Ġpen":3420,"Cl":3421,"EL":3422,"ĠGoogle":3423,"Ġconsist":3424,"Ġmat":3425,"Ġanalysis":3426,"Ġevidence":3427,"ĠLet":3428,"EO":3429,"Ġsuccessful":3430,"ĠNews":3431,"Ġdetail":3432,"Ġreve":3433,"Ġachieve":3434,"Ġmobile":3435,"Ġded":3436,"Ġdisplay":3437,"Ġaw":3438,"oming":3439,"sequ":3440,"cks":3441,"ĠAir":3442,"rast":3443,"wor":3444,"Ġten":3445,"?âĢĿ":3446,"\".":3447,"Ġmid":3448,"ashington":3449,"ĠTHE":3450,"Ġ26":3451,"ĠAre":3452,"IL":3453,"Ġconcept":3454,"Ġlack":3455,"Ġresponse":3456,"Ġhelped":3457,"Ġreleased":3458,"Ġcollection":3459,"Ġdro":3460,"Ġpromot":3461,"Ġwish":3462,"ĠFirst":3463,"Ġeffects":3464,"Ġdream":3465,"ani":3466,"ĠCollege":3467,"Ġsolution":3468,"aling":3469,"Ġ2008":3470,"Ġplayer":3471,"duc":3472,"ancy":3473,"Ġson":3474,"Ġfeature":3475,"Ġstarting":3476,"AP":3477,"Ġfarm":3478,"orge":3479,"Ġcry":3480,"Ġobtain":3481,"Ġband":3482,"Ġcarry":3483,"Ġregist":3484,"ael":3485,"ĠSen":3486,"Ġgrowing":3487,"Ġjump":3488,"oul":3489,"itely":3490,"Ġ=":3491,"Ġinvestment":3492,"Ġ2021":3493,"rote":3494,"Ġexcited":3495,"Ġinnov":3496,"ĠLondon":3497,"Ġfile":3498,"ĠJesus":3499,"Ġneigh":3500,"Ġplaces":3501,"Ġrespond":3502,"Ġcapt":3503,"Ġlots":3504,"Ġ27":3505,"Ġadvant":3506,"Ġdevice":3507,"Ġdeveloped":3508,"pen":3509,"Ġpurpose":3510,"ibly":3511,"Ġwants":3512,"Ġunderstanding":3513,"Ġexerc":3514,"ĠService":3515,"mitted":3516,"Ġexpert":3517,"ategy":3518,"ĠJack":3519,"Ġindepend":3520,"Ġhistor":3521,"Ġculture":3522,"set":3523,"board":3524,"Ġadult":3525,"Ġspent":3526,"het":3527,"Ġmis":3528,"ĠStreet":3529,"Ġpicture":3530,"ares":3531,"Ġbirth":3532,"ĠRead":3533,"):":3534,"Ġcouldn":3535,"Ġbag":3536,"ography":3537,"imb":3538,"Ġfirm":3539,"Ġemot":3540,"Ġblue":3541,"Ġspot":3542,"Ġtraditional":3543,"Ġactivity":3544,"ida":3545,"pm":3546,"Ġstrateg":3547,"Ġnation":3548,"uted":3549,"ĠBusiness":3550,"vest":3551,"Ġplanning":3552,"Ġcopy":3553,"Ġapply":3554,"Ġthreat":3555,"aughter":3556,"Ġequipment":3557,"add":3558,"ken":3559,"ĠSim":3560,"mas":3561,"Ġ2022":3562,"____":3563,"oly":3564,"ores":3565,"Ġdisease":3566,"Ġinterested":3567,"Ġhealthy":3568,"Ġstress":3569,"Ġcollege":3570,"error":3571,"zz":3572,"Ġwel":3573,"Ġfinally":3574,"Ġprevious":3575,"Ġvot":3576,"oday":3577,"Ġdemand":3578,"Ġhttp":3579,"Ġfine":3580,"Ġalone":3581,"Ġopportunities":3582,"Ġhous":3583,"Ġpaid":3584,"Ġnote":3585,"vis":3586,"Ġinform":3587,"itable":3588,"ĠSunday":3589,"Ġstage":3590,"Ġstuff":3591,"Ġacqu":3592,"ĠDem":3593,"ocr":3594,"Ġeffort":3595,"Ġimag":3596,"45":3597,"izes":3598,"bum":3599,"Ġdress":3600,"Ġfamilies":3601,"Ġmoving":3602,"Ġfully":3603,"Ġrelig":3604,"Ġhop":3605,"bl":3606,"Ġregion":3607,"ĠCompany":3608,"lim":3609,"Ġcreating":3610,"ĠJapan":3611,"Ġassess":3612,"erved":3613,"Ġgoals":3614,"rael":3615,"Ġtrip":3616,"Ġrequirements":3617,"uk":3618,"Ġwait":3619,"ĠTechn":3620,"'d":3621,"ĠServices":3622,"Ġcorrect":3623,"Ġmount":3624,"Ġbeginning":3625,"ength":3626,"Ġconsult":3627,"ĠâĢ¦":3628,"ĠIN":3629,"ĠJe":3630,"Ġvoice":3631,"Ex":3632,"ression":3633,"iment":3634,"Ġspirit":3635,"Ġoccur":3636,"chan":3637,"ĠGroup":3638,"Ġdifference":3639,"ube":3640,"Ġpressure":3641,"raft":3642,"Ġanaly":3643,"Ġschools":3644,"lement":3645,"wide":3646,"antly":3647,"ĠTrans":3648,"ĠUp":3649,"Ġprem":3650,"ĠFacebook":3651,"Ġmessage":3652,"Ġcapital":3653,"ĠMost":3654,"Ġwife":3655,"arant":3656,"ruit":3657,"Ġtalking":3658,"Ġaltern":3659,"vin":3660,"Ġ60":3661,"Ġclub":3662,"Ġtick":3663,"Ġbillion":3664,"**":3665,"dom":3666,"Ġappropri":3667,"ĠMonday":3668,"Ġfeet":3669,"ĠWashington":3670,"Ġgold":3671,"ĠSaturday":3672,"Ġcertainly":3673,"Ġaim":3674,"ancing":3675,"Ġgas":3676,"Ġrestaur":3677,"Ġaccom":3678,"Ġhour":3679,"Ġdating":3680,"anch":3681,"Ġincreasing":3682,"ĠII":3683,"26":3684,"Ġfrequ":3685,"ĠPost":3686,"ying":3687,"ĠLa":3688,"ĠProf":3689,"Ġdeliver":3690,"Ġbudget":3691,"venue":3692,"She":3693,"Ġincreased":3694,"force":3695,"Ġkn":3696,"Ġcode":3697,"Ġstick":3698,"ĠHol":3699,"Ġdemon":3700,"Ġenh":3701,"body":3702,"ĠEven":3703,"Ġparticularly":3704,"Ġgrand":3705,"estern":3706,"ager":3707,"Ġsolutions":3708,"Ġter":3709,"roud":3710,"ST":3711,"ĠGovern":3712,"Ġinstru":3713,"Ġreci":3714,"rench":3715,"Ġult":3716,"Ġbenefit":3717,"Ġnearly":3718,"ĠPaul":3719,"Ġaward":3720,"Ġtrade":3721,"Ġprinci":3722,"Ġexactly":3723,"ĠCanada":3724,"Ġthous":3725,"opped":3726,"hest":3727,"35":3728,"ĠEuropean":3729,"Ġmeaning":3730,"75":3731,"Ġhttps":3732,"Ġcold":3733,"ĠOut":3734,"ĠEast":3735,"ibr":3736,"Ġexcellent":3737,"asc":3738,"Ġwrote":3739,"Ġsen":3740,"Ġsports":3741,"change":3742,"Ġbeyond":3743,"inated":3744,"Ġbaby":3745,"While":3746,"Ġcert":3747,"ĠDavid":3748,"ronic":3749,"ĠMet":3750,"gen":3751,"olute":3752,"ecutive":3753,"useum":3754,"ĠWind":3755,"ĠPlease":3756,"Ġrules":3757,"opping":3758,"Ġmaybe":3759,"Ġprices":3760,"Ġfear":3761,"reci":3762,"Ġessential":3763,"Ġroll":3764,"Ġsort":3765,"place":3766,"ĠProgram":3767,"Ġdire":3768,"kend":3769,"Ġfat":3770,"ĠMarket":3771,"ĠBook":3772,"Ġfederal":3773,"Ġdegree":3774,"itiz":3775,"Ġchurch":3776,"Ġfinish":3777,"lied":3778,"rim":3779,"Ġsmart":3780,"Ġdry":3781,"Ġwhose":3782,"Ġanimals":3783,"isl":3784,"Ġbasis":3785,"undred":3786,"Ġrates":3787,"Ġoverall":3788,"Ġincome":3789,"field":3790,"28":3791,"ĠWell":3792,"ĠIr":3793,"Ġreduce":3794,"isf":3795,"Ġcommercial":3796,"down":3797,"Ġliter":3798,"AD":3799,"Ġannounced":3800,"Ġstrugg":3801,"Ġfem":3802,"Ġnumbers":3803,"Ġscient":3804,"Ġeye":3805,"RO":3806,"istry":3807,"Ġpet":3808,"Ġserious":3809,"Ġden":3810,"Ġkept":3811,"Ġstatement":3812,"Ġaspect":3813,"Ġver":3814,"Ġpatient":3815,"De":3816,"Ġscience":3817,"orrow":3818,"Ġmilitary":3819,"Ġdirector":3820,"Ġstudies":3821,"Ġopened":3822,"Ġreasons":3823,"Ġproced":3824,"order":3825,"Ġrent":3826,"Ġmoved":3827,"mat":3828,"olf":3829,"Ġapplications":3830,"Ġallowed":3831,"ĠDist":3832,"Ġassociated":3833,"Ġmachine":3834,"ĠRepublic":3835,"inner":3836,"BC":3837,"ĠResearch":3838,"ĠĊ":3839,"Ġresponsible":3840,"Ġreports":3841,"Ġserve":3842,"atever":3843,"Ġsurv":3844,"Ġteams":3845,"Ġremain":3846,"Ġcorpor":3847,"Ġ29":3848,"uesday":3849,"27":3850,"Ġopin":3851,"ads":3852,"Ġtemper":3853,"Ġuses":3854,"ĠFree":3855,"Ġsale":3856,"Ġearlier":3857,"arc":3858,"ams":3859,"ursday":3860,"ĠHome":3861,"icate":3862,"ednes":3863,"ords":3864,"ties":3865,"Ġimmediately":3866,"iant":3867,"Ġoffered":3868,"Ġcash":3869,"Ġnut":3870,"Ġhelping":3871,"etic":3872,"Ġnormal":3873,"ĠEduc":3874,"ĠIndian":3875,"Ġsust":3876,"ĠPal":3877,"Ġimages":3878,"Ġsmiled":3879,"Ġund":3880,"rial":3881,"Ġphotos":3882,"mp":3883,"Ġextend":3884,"Ġtitle":3885,"Ġapart":3886,"Ġshoot":3887,"29":3888,"Ġcharge":3889,"aled":3890,"Ġchanged":3891,"icip":3892,"ĠIsrael":3893,"ĠTex":3894,"Ġdang":3895,"New":3896,"Ġstraight":3897,"Ġshown":3898,"Com":3899,"Ġforce":3900,"ĠBoard":3901,"ously":3902,"Ġcancer":3903,"col":3904,"Ġjoin":3905,"orage":3906,"ĠBob":3907,"vision":3908,"ĠCouncil":3909,"ĠWhite":3910,"Ġgone":3911,"istics":3912,"Ġactive":3913,"Ġcandid":3914,"rapy":3915,"ĠPM":3916,"fee":3917,"ĠAssociation":3918,"Ġclin":3919,"Ġconstruction":3920,"care":3921,"Ġfra":3922,"Ġbrother":3923,"kes":3924,"ĠPri":3925,"Ġcateg":3926,"ker":3927,"Un":3928,"Ġprofession":3929,"Ġmax":3930,"rig":3931,"Ġadvice":3932,"100":3933,"bon":3934,"Ġmiddle":3935,"rows":3936,"amm":3937,"ĠAss":3938,"Ġowners":3939,"ĠMor":3940,"ooth":3941,"ĠSystem":3942,"Here":3943,"ĠWilliam":3944,"Ġadvert":3945,"Ġreflect":3946,"Ġkitchen":3947,"Ġfollowed":3948,"Ġdamage":3949,"Ġpattern":3950,"Ġmeasure":3951,"Ġshared":3952,"ourney":3953,"Ġinternet":3954,"olic":3955,"Ġgarden":3956,"term":3957,"Ġpeace":3958,"Ġstrategy":3959,"ĠChurch":3960,"ashion":3961,"ls":3962,"ĠDevelop":3963,"nded":3964,"Ġalbum":3965,"Ġproud":3966,"Yes":3967,"Ġheat":3968,"cause":3969,"ednesday":3970,"Ġdefinitely":3971,"iance":3972,"Ġdoub":3973,"Ġble":3974,"Ġwat":3975,"Is":3976,"ault":3977,"ady":3978,"Ġsociety":3979,"Ġlargest":3980,"Ġcru":3981,"Ġalthough":3982,"Ġshowed":3983,"Ġcontinued":3984,"PS":3985,"Ġnotice":3986,"name":3987,"_{":3988,"Ġseven":3989,"itect":3990,"ĠGreat":3991,"ĠAlso":3992,"Ġefforts":3993,"la":3994,"see":3995,"Now":3996,"iling":3997,"ĠOF":3998,"ĠMany":3999,"Ġgreater":4000,"Ġ2007":4001,"Ġpowerful":4002,"Ġattract":4003,"Ġtransfer":4004,"bb":4005,"ipping":4006,"ounds":4007,"ils":4008,"Ġeight":4009,"Ġshot":4010,"Ġmer":4011,"ĠFound":4012,"rem":4013,"ĠDel":4014,"âĢĿ,":4015,"Ġtransport":4016,"Ġpopulation":4017,"ĠPlay":4018,"ĠWork":4019,"ĠOther":4020,"Ġstar":4021,"ĠFe":4022,"Ġspread":4023,"Ġborn":4024,"Ġpartner":4025,"cul":4026,"Ġvehicle":4027,"Ġdevices":4028,"ico":4029,"Ġwild":4030,"Ġtruly":4031,"33":4032,"house":4033,"Ġeasier":4034,"ĠBest":4035,"Ġbasic":4036,"Ġhundred":4037,"Ġtrain":4038,"Ġ197":4039,"ĠAM":4040,"ĠMod":4041,"urning":4042,"ĠGreen":4043,"Ġcast":4044,"iber":4045,"Ġworkers":4046,"hips":4047,"Ġfaith":4048,"Ġfans":4049,"pa":4050,"Ġpoor":4051,"amic":4052,"rief":4053,"Ġprefer":4054,"ĠYear":4055,"Ġclot":4056,"Ġchallenge":4057,"Ġdecl":4058,"ĠPort":4059,"Ġguide":4060,"unk":4061,"Ġcollabor":4062,"ĠCong":4063,"ago":4064,"inally":4065,"Ġquarter":4066,"Don":4067,"well":4068,"LE":4069,"Ġcontain":4070,"icine":4071,"Ġtruth":4072,"hens":4073,"Ġserved":4074,"ĠGet":4075,"Ġaccur":4076,"ened":4077,"Ġsupply":4078,"Ġcomments":4079,"omb":4080,"Ġhus":4081,"Ġeval":4082,"ĠChristmas":4083,"orry":4084,"atively":4085,"Ġsteps":4086,"Ġannual":4087,"Ġglass":4088,"inger":4089,"Ġaren":4090,"Ġfactors":4091,"ĠJames":4092,"Ġpsych":4093,"osing":4094,"Ġtoys":4095,"leg":4096,"Ġexpand":4097,"ĠChristian":4098,"Ġsweet":4099,"Ġadop":4100,"Ġlines":4101,"ĠBel":4102,"Ġhospital":4103,"ĠSpot":4104,"iced":4105,"encies":4106,"IV":4107,"Ġregarding":4108,"Ġpayment":4109,"Ġpow":4110,"ĠAnge":4111,"ĠVol":4112,"Ġcompared":4113,"Ġidentify":4114,"ĠInternet":4115,"Ġahead":4116,"Ġharm":4117,"........":4118,"Ġcompon":4119,"Ġprotection":4120,"ĠSuper":4121,"Ġweekend":4122,"itude":4123,"ĠÂ£":4124,"ĠAnt":4125,"Ġframe":4126,"Ġafford":4127,"ĠTexas":4128,"raw":4129,"ĠIS":4130,"Ġjobs":4131,"Ġorganizations":4132,"Ġsurround":4133,"ĠOffice":4134,"ports":4135,"ĠCle":4136,"Ġbill":4137,"oos":4138,"coming":4139,"Ġbrain":4140,"ĠRem":4141,"Ġoffering":4142,"Ġeconomy":4143,"ĠBritish":4144,"Ġletter":4145,"Ġchem":4146,"90":4147,"ĠHall":4148,"ologies":4149,"ĠInter":4150,"Ġappreci":4151,"Ġtrou":4152,"ĠGood":4153,"Ġpictures":4154,"Ġwonderful":4155,"Ġcritical":4156,"Ġappoint":4157,"Ġstructure":4158,"Ġvirt":4159,"rupt":4160,"Ġproduce":4161,"overed":4162,"eria":4163,"Ġappropriate":4164,"ech":4165,"ĠAnn":4166,"ustr":4167,"acity":4168,"IG":4169,"eds":4170,"aming":4171,"Ġabsolute":4172,"ĠMac":4173,"Ġadjust":4174,"ero":4175,"Ġstrength":4176,"ĠRet":4177,"apter":4178,"Ġclient":4179,"lands":4180,"Ġpages":4181,"edding":4182,"Ġperhaps":4183,"Ġing":4184,"Ġmovement":4185,"ĠGold":4186,"Ġsuff":4187,"Do":4188,"Ġgenerally":4189,"ading":4190,"Ġestablished":4191,"ga":4192,"ĠGeneral":4193,"Ġcontinu":4194,"Ġexisting":4195,"Ġmethods":4196,"Ġsatisf":4197,"Ġiniti":4198,"lies":4199,"ĠPublic":4200,"Ġphoto":4201,"Ġestablish":4202,"Ġâ":4203,"Ġsetting":4204,"ij":4205,"ĠLord":4206,"65":4207,"Ġexperienced":4208,"ĠWeb":4209,"pective":4210,"arth":4211,"Ġprimary":4212,"ston":4213,"ĠFlor":4214,"Ġchallenges":4215,"Ġgift":4216,"Ġnovel":4217,"usion":4218,"anging":4219,"Ar":4220,"lig":4221,"Ġshop":4222,"CC":4223,"Ġ*":4224,"oices":4225,"Ġparties":4226,"akers":4227,"Ġscared":4228,"Ġrequires":4229,"ĠWhy":4230,"Ġbreat":4231,"ĠMary":4232,"Ġsurface":4233,"Ġcommunities":4234,"uman":4235,"Ġcentury":4236,"https":4237,"Let":4238,"Ġdelivery":4239,"Ġcup":4240,"ening":4241,"TS":4242,"imal":4243,"Ġjourney":4244,"Ġcivil":4245,"inate":4246,"Ġaudience":4247,"ĠRich":4248,"Ġmicro":4249,"Ġacadem":4250,"ocal":4251,"ĠInstitute":4252,"ĠBank":4253,"Ġcasino":4254,"Ġpassed":4255,"OL":4256,"ĠJer":4257,"Ġfinished":4258,"oman":4259,"Ġmiles":4260,"Ġobv":4261,"Ġdoctor":4262,"Ġowner":4263,"These":4264,"Ġguarant":4265,"ĠAustralia":4266,"Ġbow":4267,"Why":4268,"Ġgirls":4269,"Ġcatch":4270,"ĠAny":4271,"Ġvill":4272,"ĠJew":4273,"vere":4274,"ĠLife":4275,"IP":4276,"ĠSur":4277,"Ġhomes":4278,"Ġcove":4279,"Ġheavy":4280,"Ġrepe":4281,"Ġextremely":4282,"Ġpieces":4283,"friend":4284,"Ġconnection":4285,"Ġgar":4286,"ĠOver":4287,"gal":4288,"ĠDesign":4289,"Ġmechan":4290,"Ġsecret":4291,"Ġfigure":4292,"Ġbottom":4293,"Ġpros":4294,"Ġelectric":4295,"Ġwear":4296,"Ġfle":4297,"ĠHist":4298,"Ġdemonstr":4299,"Ġseeing":4300,"Ġ31":4301,"Ġtherefore":4302,"EM":4303,"ĠPlan":4304,"ĠFrench":4305,"Ġlarger":4306,"enses":4307,"Ġreality":4308,"IM":4309,"Ġdisapp":4310,"Ġhusband":4311,"Ġincred":4312,"Ġwww":4313,"Ġmission":4314,"ĠCommission":4315,"know":4316,"ĠDirector":4317,"Ġthank":4318,"Ġhotel":4319,"Ġrefer":4320,"ĠMem":4321,"Ġbiggest":4322,"Ġuseful":4323,"Ġguid":4324,"ĠTuesday":4325,"Ġpray":4326,"Ġadvantage":4327,"Ġlau":4328,"Ġcreative":4329,"Ġanti":4330,"Ġoccas":4331,"Ġbath":4332,"inese":4333,"Ġreplace":4334,"Ġlength":4335,"Ġguy":4336,"ĠSol":4337,"ym":4338,"Ġmodels":4339,"Ġarr":4340,"ĠManagement":4341,"Ġfinding":4342,"pes":4343,"do":4344,"dule":4345,"Ġexperiences":4346,"Ġmist":4347,"Ġbackground":4348,"using":4349,"riage":4350,"ĠPeople":4351,"phone":4352,"Ġcharacters":4353,"Ġdouble":4354,"ĠThursday":4355,"Ġdied":4356,"Ġbeg":4357,"Ġgrant":4358,"Ġforeign":4359,"ĠReview":4360,"pected":4361,"Ġhom":4362,"ĠSpr":4363,"Ġhighest":4364,"gment":4365,"asure":4366,"ĠMark":4367,"Ġleader":4368,"ups":4369,"Ġesc":4370,"sey":4371,"Se":4372,"porary":4373,"Ġslight":4374,"Ġimpress":4375,"ĠEducation":4376,"Ne":4377,"Ġlimit":4378,"Ġstatus":4379,"DA":4380,"rey":4381,"standing":4382,"Ġweather":4383,"unte":4384,"Ġdetermine":4385,"works":4386,"Ġexhib":4387,"ĠEv":4388,"Ġcolle":4389,"Ġopening":4390,"Ġstream":4391,"Ġune":4392,"ĠMichael":4393,"Ġolder":4394,"Ġtend":4395,"Con":4396,"Ġcompleted":4397,"Ġguys":4398,"Ġcells":4399,"amily":4400,"ĠSub":4401,"Ġir":4402,"Ġestate":4403,"ki":4404,"From":4405,"ĠCare":4406,"OM":4407,"Ġmill":4408,"ado":4409,"Ġice":4410,"Ġreb":4411,"itar":4412,"Ġdriving":4413,"Ġearth":4414,"Ġcitiz":4415,"Ġfunds":4416,"Ġentertain":4417,"Ġcomfortable":4418,"ses":4419,"Ġcommunication":4420,"UR":4421,"ĠPhil":4422,"TH":4423,"vention":4424,"ios":4425,"iation":4426,"Ġsand":4427,"aven":4428,"ĠMart":4429,"ĠTy":4430,"men":4431,"rees":4432,"Ġtoward":4433,"Ġlaws":4434,"Ġpolic":4435,"ĠBra":4436,"Ġdaughter":4437,"ĠScience":4438,"ĠRober":4439,"ĠRel":4440,"Ġprot":4441,"inter":4442,"Ġsecure":4443,"Ġclaims":4444,"Ġutil":4445,"Ġstandards":4446,"ĠWednesday":4447,"44":4448,"estival":4449,"ĠRec":4450,"Ġcards":4451,"enture":4452,"Ġonto":4453,"unately":4454,"Ġwindow":4455,"iques":4456,"asy":4457,"Ġfant":4458,"Please":4459,"Ġmanage":4460,"Ġwouldn":4461,"example":4462,"za":4463,"Ġknows":4464,"Ġ2006":4465,"Ġexplore":4466,"osure":4467,"Ġworry":4468,"Post":4469,"Ġcamera":4470,"Ġbalance":4471,"kay":4472,"uty":4473,"Ġdescribed":4474,"ervation":4475,"Ġdeveloping":4476,"Ġrain":4477,"Ġcars":4478,"Ġargu":4479,"ĠSince":4480,"equ":4481,"entially":4482,"Ġactual":4483,"Ġoperations":4484,"ĠBecause":4485,"Ġreli":4486,"Ġsym":4487,"ellow":4488,"Ġteaching":4489,"Ġremains":4490,"Ġwalked":4491,"ĠST":4492,"ipped":4493,"Ġmental":4494,"Ġpaint":4495,"Ġgun":4496,"Ġ80":4497,"Ġnames":4498,"Can":4499,"Ġmeant":4500,"ĠMag":4501,"Ġlegisl":4502,"ona":4503,"ucky":4504,"Ġresist":4505,"ĠOh":4506,"Ġprec":4507,"Ġreviews":4508,"Not":4509,"Ġproduced":4510,"cont":4511,"Some":4512,"itness":4513,"Ġimpl":4514,"Ġbatter":4515,"Ġbear":4516,"ĠOnce":4517,"Ġfab":4518,"Ġge":4519,"ĠBig":4520,"math":4521,"ĠHot":4522,"ĠChild":4523,"ĠThom":4524,"500":4525,"ĠCommit":4526,"Ġremind":4527,"ĠAfrica":4528,"gn":4529,"Ġlose":4530,"Ġreached":4531,"ĠSee":4532,"actions":4533,"Ġcovered":4534,"Ġunit":4535,"Ġhaven":4536,"Ġcalls":4537,"Ġstorage":4538,"miss":4539,"Ġpool":4540,"yer":4541,"rab":4542,"Ġscen":4543,"Ġcloud":4544,"oto":4545,"rian":4546,"ander":4547,"itors":4548,"lor":4549,"Ġhappens":4550,"Ġjournal":4551,"Ġruns":4552,"Ġcof":4553,"Ġforms":4554,"Ġotherwise":4555,"Ġagreement":4556,"overy":4557,"Ġchann":4558,"Ġwhatever":4559,"Ġeth":4560,"Ġvalues":4561,"36":4562,"ĠFlorida":4563,"look":4564,"ĠSa":4565,"Ġmulti":4566,"ota":4567,"Ġbecomes":4568,"Ġexercise":4569,"Ġsustain":4570,"CH":4571,"Ġrare":4572,"Ġcaused":4573,"Ġmatt":4574,"Ġrout":4575,"ipe":4576,"Ġmonitor":4577,"Ġrob":4578,"umn":4579,"Ġ2023":4580,"Ġstreet":4581,"Ġmanufacture":4582,"Ġrich":4583,"gency":4584,"Ġmajority":4585,"Ġconference":4586,"Ġdiet":4587,"95":4588,"Ġelements":4589,"Ġmaster":4590,"ĠClass":4591,"orney":4592,"Ġplaced":4593,"ĠAv":4594,"orial":4595,"box":4596,"ĠTwitter":4597,"odes":4598,"Ġbright":4599,"with":4600,"Ġfan":4601,"Ġpresented":4602,"Ġdecisions":4603,"Ġindependent":4604,"38":4605,"rowd":4606,"cript":4607,"ctors":4608,"ĠBer":4609,"Ġestim":4610,"Ġ196":4611,"Ġretail":4612,"ooper":4613,"ĠCam":4614,"Ġmentioned":4615,"ĠPress":4616,"ĠWhe":4617,"PA":4618,"Pl":4619,"Ġviews":4620,"Ġplus":4621,"ros":4622,"Ġloan":4623,"ula":4624,"ĠIns":4625,"ampions":4626,"ĠBay":4627,"igned":4628,"ĠIT":4629,"Ġleaves":4630,"Ġsexual":4631,"Ġscore":4632,"Ġscene":4633,"Ġdad":4634,"Ġwaiting":4635,"Ġ90":4636,"Ġcontinues":4637,"Ġcentral":4638,"ĠTO":4639,"Ġtips":4640,"state":4641,"Ġ@":4642,"Ġgain":4643,"ĠMiss":4644,"Ġpassion":4645,"ĠUSA":4646,"Ġtechnical":4647,"Ġwalking":4648,"ĠRob":4649,"Ġclosed":4650,"Ab":4651,"Ġsolid":4652,"ĠLou":4653,"apers":4654,"Ġtraffic":4655,"ĠCongress":4656,"osis":4657,");":4658,"ĠEngland":4659,"Ġtrial":4660,"Ġbecoming":4661,"ĠClub":4662,"icks":4663,"ĠMicro":4664,"ĠSocial":4665,"iller":4666,"Ġrelevant":4667,"ĠFore":4668,"RA":4669,"34":4670,"ĠRoad":4671,"ĠChinese":4672,"ags":4673,"acing":4674,"abilities":4675,"ĠHel":4676,"ĠSun":4677,"Ġlibr":4678,"Ġthousands":4679,"anta":4680,"ĠSal":4681,"Ġsky":4682,"Ġcris":4683,"Ġsources":4684,"Ġactions":4685,"atically":4686,"Ġbul":4687,"Ġleadership":4688,"free":4689,"Ġbon":4690,"fl":4691,"ĠTrump":4692,"Ġpractices":4693,"ĠTime":4694,"Ġ$\\":4695,"ipp":4696,"Ġbehavior":4697,"ĠPC":4698,"Ġcompetition":4699,"Ġsector":4700,"ĠRock":4701,"kin":4702,"Ġprepared":4703,"ĠMex":4704,"ĠBre":4705,"Ġcounter":4706,"ĠPet":4707,"Ġcoffee":4708,"mark":4709,"ĠDevelopment":4710,"Ġdrop":4711,"Ġfol":4712,"Ġdirection":4713,"Ġthus":4714,"Ġrelationships":4715,"Ġlock":4716,"Ġepis":4717,"Ġthanks":4718,"Ġvision":4719,"Ġforget":4720,"ĠUnder":4721,"semb":4722,"Ġkeeping":4723,"ĠInformation":4724,"Ġmanager":4725,"ĠCap":4726,"hy":4727,"Ġang":4728,"iers":4729,"ĠEach":4730,"osition":4731,"Ġrap":4732,"roid":4733,"ror":4734,"ĠStr":4735,"Ġapprox":4736,"Ġwelcome":4737,"Ġguess":4738,"irgin":4739,"iency":4740,"Ġmemory":4741,"Ġtesting":4742,"Ġsharing":4743,"ae":4744,"Ġideal":4745,"ĠRiver":4746,"Ġstation":4747,"Ġvictim":4748,"ĠSing":4749,"37":4750,"Ġefficient":4751,"Ġtransl":4752,"Ġclearly":4753,"Ġnor":4754,"Ġexclus":4755,"55":4756,"Ġfamous":4757,"ĠWindows":4758,"inn":4759,"Ġcapacity":4760,"ĠAlthough":4761,"Ġsenior":4762,"Ġrecords":4763,"Ġsch":4764,"Ġwatching":4765,"Ġforest":4766,"Ġspending":4767,"Ġdecide":4768,"Ġselection":4769,"Ġfashion":4770,"Ġsnow":4771,"azon":4772,"Ġofficials":4773,"\",":4774,"Ġseemed":4775,"Ġpicked":4776,"Ġtim":4777,"Ġflex":4778,"mail":4779,"umber":4780,"Ġwilling":4781,"Ġvideos":4782,"Ġcircum":4783,"Ġrelax":4784,"Ġclimate":4785,"Ġrule":4786,"ĠMal":4787,"Ġfly":4788,"Tim":4789,"ĠCommittee":4790,"Ġagency":4791,"Ġsea":4792,"Ġfiles":4793,"ka":4794,"ĠUse":4795,"Ġpus":4796,"uries":4797,"ĠObama":4798,"Ġdiagn":4799,"enly":4800,"Ġstopped":4801,"ĠJournal":4802,"Ġflu":4803,"Ġ70":4804,"Ġpresence":4805,"Ġlaunch":4806,"osh":4807,"Ġpolicies":4808,"ternal":4809,"itz":4810,"inct":4811,"ĠArch":4812,"Ġincor":4813,"uel":4814,"Ġspl":4815,"Ġcolors":4816,"Ġforg":4817,"berg":4818,"Ġspring":4819,"ĠBill":4820,"ĠGovernment":4821,"Le":4822,"Ġshape":4823,"Ġnumerous":4824,"Ġplants":4825,"Ġign":4826,"Ġlinks":4827,"oma":4828,"azine":4829,"Ġdefend":4830,"ĠAND":4831,"estic":4832,"Ġrank":4833,"Ġmarkets":4834,"Ġdiscover":4835,"Ġ>":4836,"edy":4837,"Ġgraph":4838,"irus":4839,"isco":4840,"Ġchair":4841,"IA":4842,"Ġevening":4843,"ĠApple":4844,"Ġfootball":4845,"48":4846,"going":4847,"soft":4848,"ĠMat":4849,"ĠOpen":4850,"Ġboo":4851,"nect":4852,"NA":4853,"Ġdat":4854,"ĠDec":4855,"Ġadvance":4856,"Ġartist":4857,"ĠCr":4858,"Ġraised":4859,"gery":4860,"ript":4861,"fit":4862,"uled":4863,"Ġfocused":4864,"icon":4865,"Ġteacher":4866,"Ġsympt":4867,"CA":4868,"Ġhonest":4869,"Ġfriendly":4870,"Ġmort":4871,"Ġ2005":4872,"Ġconven":4873,"net":4874,"Ġsumm":4875,"outhern":4876,"known":4877,"ented":4878,"Ġended":4879,"ĠTheir":4880,"ifying":4881,"ĠMake":4882,"ferences":4883,"Ġsmaller":4884,"Ġrat":4885,"Ġseek":4886,"Ġfunding":4887,"cient":4888,"Ġdedicated":4889,"Ġdespite":4890,"ĠMil":4891,"icago":4892,"Ġleaving":4893,"ste":4894,"Ġbutton":4895,"Ġtrees":4896,"isation":4897,"antic":4898,"ception":4899,"Ġsession":4900,"ĠSmith":4901,"aded":4902,"Ġdriver":4903,"Ġresidents":4904,"ĠLike":4905,"Ġarchitect":4906,"roy":4907,"oop":4908,"ĠTop":4909,"ĠSl":4910,"Acc":4911,"ĠProfess":4912,"ructure":4913,"Ġ35":4914,"alls":4915,"Ġcontains":4916,"ĠBet":4917,"Ġinitial":4918,"iliar":4919,"ĠOnline":4920,"llig":4921,"BS":4922,"Ġinjury":4923,"ENT":4924,"Ġplenty":4925,"ucle":4926,"Ġremove":4927,"Ġhandle":4928,"Thank":4929,"tenance":4930,"Ad":4931,"Ġexperts":4932,"Ġingred":4933,"39":4934,"Ġvote":4935,"ĠCamp":4936,"Ġcream":4937,"ĠWater":4938,"!âĢĿ":4939,"rehens":4940,"fast":4941,"ishes":4942,"Ġappears":4943,"ĠGeorge":4944,"32":4945,"Cont":4946,"ĠPower":4947,"Ġoperating":4948,"More":4949,"BA":4950,"Ġeating":4951,"arge":4952,"Ġmouth":4953,"poses":4954,"Ġfurn":4955,"Ġsugar":4956,"Ġseparate":4957,"ĠFoundation":4958,"Ġclasses":4959,"resp":4960,"Ġwinning":4961,"Ġsurprised":4962,"ĠProject":4963,"Ġopinion":4964,"Me":4965,"Ġflav":4966,"Ġunc":4967,"Ġmail":4968,"Ġenvironmental":4969,"Ġfacilities":4970,"ĠStar":4971,"Ġclimb":4972,"Ġfreed":4973,"Ġhurt":4974,"Ġcoverage":4975,"cket":4976,"MS":4977,"Ġdepartment":4978,"Ġegg":4979,"Â®":4980,"ĠLear":4981,"ĠAtt":4982,"Ġwinter":4983,"Ġkid":4984,"Ġstarts":4985,"\\\\\\\\\\\\\\\\":4986,"Ġthoughts":4987,"Ġwhom":4988,"Ġfill":4989,"Ġwine":4990,"Ġton":4991,"Ġshowing":4992,"Ġadding":4993,"Ġtow":4994,"OW":4995,"Ġmotor":4996,"ĠDemocr":4997,"Ġfilled":4998,"Ġdepos":4999,"Ġadapt":5000,"amin":5001,"Ġschedule":5002,"Ġdocuments":5003,"Ġsongs":5004,"rad":5005,"ĠCur":5006,"Ġarm":5007,"Ġpreviously":5008,"night":5009,"asp":5010,"active":5011,"no":5012,"Ġdelic":5013,"Ġconcerns":5014,"Ġcrowd":5015,"Ġwedding":5016,"Ġresponsibility":5017,"Ġcrim":5018,"Ġcoach":5019,"ĠMia":5020,"ĠHam":5021,"ĠVis":5022,"bert":5023,"Ġagreed":5024,"VID":5025,"Ġdebt":5026,"ĠAlex":5027,"Ġchanging":5028,"unction":5029,"Your":5030,"ĠDistrict":5031,"ĠAP":5032,"rog":5033,"pet":5034,"Ġer":5035,"ii":5036,"Ġbeat":5037,"Ġride":5038,"istan":5039,"49":5040,"Ġlabor":5041,"Ġcore":5042,"point":5043,"cel":5044,"Ġproceed":5045,"rd":5046,"Ġship":5047,"Ġsitu":5048,"reek":5049,"Ġcompar":5050,"idential":5051,"Ġvolunte":5052,"Ġeventually":5053,"Ġposted":5054,"Ġdiscussion":5055,"Ġsorry":5056,"ĠSil":5057,"ette":5058,"Ġfeels":5059,"Ġbrief":5060,"Ġprofessionals":5061,"Ġrise":5062,"how":5063,"ulture":5064,"88":5065,"Ġtask":5066,"Ġvisual":5067,"47":5068,"Ġmeasures":5069,"Ġbuying":5070,"ĠSum":5071,"Ġhearing":5072,"life":5073,"but":5074,"coh":5075,"fection":5076,"Ġcareful":5077,"Ġcontext":5078,"Ġdinner":5079,"ĠDet":5080,"ender":5081,"Ġasking":5082,"ĠLake":5083,"Ġcraft":5084,"Ġadvanced":5085,"ĠAmericans":5086,"Ġmanaged":5087,"ĠBrown":5088,"Ġnegative":5089,"Bl":5090,"ĠMount":5091,"Ġ2000":5092,"Ġindic":5093,"ĠCommunity":5094,"agram":5095,"Ġencourage":5096,"31":5097,"ĠCarol":5098,"igr":5099,"Ġsounds":5100,"Ġexpensive":5101,"ĠVe":5102,"Ġtypically":5103,"iture":5104,"Ġwaste":5105,"ĠUN":5106,"Ġsmooth":5107,"Ġartists":5108,"Ġhar":5109,"Ġtaste":5110,"pan":5111,"Ġconflic":5112,"oles":5113,"press":5114,"Ġur":5115,"Ġboat":5116,"Ġthrow":5117,"ht":5118,"Ġpurposes":5119,"ĠUnion":5120,"ection":5121,"craft":5122,"ĠIsland":5123,"ĠGrand":5124,"Ġneighbor":5125,"Ġinfluence":5126,"race":5127,"Ġteachers":5128,"tion":5129,"ulated":5130,"win":5131,"Ġimportance":5132,"Ġadministration":5133,"last":5134,"Ġspect":5135,"Ġpair":5136,"ghed":5137,"Ġhelpful":5138,"ĠCentral":5139,"ya":5140,"Ġenjoyed":5141,"ĠTimes":5142,"Ġsem":5143,"Ġvs":5144,"Ġgeneration":5145,"Ġalternative":5146,"aked":5147,"Ġjoined":5148,"Ġlisted":5149,"Ġproperties":5150,"Ġtight":5151,"ĠFranc":5152,"01":5153,"ĠMusic":5154,"ĠSociety":5155,"ĠBlue":5156,"word":5157,"Ġtruck":5158,"nel":5159,"fin":5160,"Ġconsid":5161,"ĠDiv":5162,"ĠEngine":5163,"Ġbought":5164,"Ġbug":5165,"door":5166,"Ġintellig":5167,"Ġbrings":5168,"olate":5169,"Ġanymore":5170,"Ġnotes":5171,"Ġconnected":5172,"Ġdecor":5173,"Ġmur":5174,"Ġlaun":5175,"Ġcab":5176,"Ġselected":5177,"Ġcommitted":5178,"ĠConst":5179,"Ġsched":5180,"Ġputting":5181,"fr":5182,"odd":5183,"Ġcities":5184,"Ġdance":5185,"ĠDi":5186,"Ġunless":5187,"Ġoptim":5188,"ĠHill":5189,"olars":5190,"Ġprocesses":5191,"Ġconcent":5192,"ĠJo":5193,"Ġcombination":5194,"Ġarticles":5195,"top":5196,"46":5197,"Ġupdate":5198,"ĠMom":5199,"Ġassistance":5200,"Ġexciting":5201,"Ġdisp":5202,"Ġtemperature":5203,"Ġkick":5204,"Ġteach":5205,"Ġspecies":5206,"Ġap":5207,"Ġfemale":5208,"Ġtechniques":5209,"App":5210,"ano":5211,"Ġentry":5212,"ĠDown":5213,"gage":5214,"ĠLove":5215,"outs":5216,"Ġscale":5217,"ĠToday":5218,"Ġreturned":5219,"spe":5220,"Ġshopping":5221,"Ġthr":5222,"Ġexchange":5223,"ĠSecurity":5224,"Ġaccident":5225,"ĠData":5226,"icken":5227,"ius":5228,"Ġselling":5229,"Ġminute":5230,"rolled":5231,"Ġcake":5232,"Ġbroken":5233,"Ġcultural":5234,"Ġbeauty":5235,"Ġder":5236,"ixt":5237,"ĠWomen":5238,"what":5239,"Ġmostly":5240,"Ġallowing":5241,"Ġleads":5242,"ĠHy":5243,"Ġhug":5244,"Ġholding":5245,"Ġsurvey":5246,"Ġmarried":5247,"Ġenhance":5248,"à¤":5249,"Ġcorner":5250,"Ġappeared":5251,"Ġelection":5252,"Ġrou":5253,"Just":5254,"Ġoperation":5255,"Ġlaughed":5256,"icians":5257,"ĠChicago":5258,"Ġfees":5259,"Ġkilled":5260,"Ġemp":5261,"Ġessay":5262,"Ġjoint":5263,"Ġquiet":5264,"ĠFood":5265,"Ġsitting":5266,"ulate":5267,"Ġban":5268,"Ġmap":5269,"Ġcircumst":5270,"Ġbattle":5271,"uable":5272,"isher":5273,"However":5274,"eed":5275,"Ġarrest":5276,"Ġcloser":5277,"Ġju":5278,"Ġsty":5279,"Ġrestaurant":5280,"Ġmarriage":5281,"Ġinterests":5282,"Ġposts":5283,"tered":5284,"Ġfee":5285,"Ġaccompl":5286,"Ġdistance":5287,"hab":5288,"Ġdefense":5289,"ĠAfrican":5290,"Ġdistrict":5291,"Ġbeach":5292,"illa":5293,"ship":5294,"Ġlaugh":5295,"Ġradio":5296,"Ġholiday":5297,"Ġmetal":5298,"ĠAccording":5299,"iat":5300,"which":5301,"Ġapplied":5302,"ĠMass":5303,"Ġsymptoms":5304,"Ġwebsites":5305,"ĠAcadem":5306,"Ġstated":5307,"while":5308,"eal":5309,"Ġdu":5310,"Ġtransform":5311,"Ġfuel":5312,"ĠNor":5313,"orter":5314,"orthern":5315,"odies":5316,"Ġshut":5317,"Read":5318,"Ġtrail":5319,"Ġacademic":5320,"Ġminor":5321,"Ġveget":5322,"Ġ2004":5323,"Ġalle":5324,"ini":5325,"gl":5326,"SA":5327,"Ġperformed":5328,"ĠAmazon":5329,"Ġsouth":5330,"âĢĺ":5331,"Ġanimal":5332,"Ġvalid":5333,"May":5334,"Ġcitizens":5335,"Get":5336,"Ġyouth":5337,"Ġabsolutely":5338,"Ġquant":5339,"asks":5340,"Ġdoubt":5341,"Ġbound":5342,"cr":5343,"rive":5344,"ĠWood":5345,"Ġpredict":5346,"Ġsigned":5347,"inating":5348,"Ġswim":5349,"Ġclassic":5350,"IR":5351,"Ġminimum":5352,"fortunately":5353,"osen":5354,"Ġourselves":5355,"Ġforces":5356,"ubb":5357,"Ġnorth":5358,"Ġcorporate":5359,"Ġnoted":5360,"ĠDuring":5361,"ĠCheck":5362,"ĠJud":5363,"ĠQue":5364,"Ġarg":5365,"ĠMad":5366,"Ġbutter":5367,"Ġpush":5368,"bre":5369,"ears":5370,"ĠCD":5371,"emic":5372,"ĠFrance":5373,"itutions":5374,"ĠLucy":5375,"Ġweap":5376,"ĠYes":5377,"cipl":5378,"ommod":5379,"Ġresearc":5380,"atures":5381,"Ġwriter":5382,"Ġdim":5383,"Ġviolence":5384,"ĠPay":5385,"Ġpm":5386,"Ġsequ":5387,"Ġrid":5388,"Then":5389,"LC":5390,"Ġstrategies":5391,"Ġ45":5392,"Ġraise":5393,"ĠLeague":5394,"Ġmanner":5395,"ĠElect":5396,"irty":5397,"ĠScott":5398,"ĠGerman":5399,"Ġunex":5400,"Ġmedium":5401,"Ste":5402,"ulty":5403,"Ġconversation":5404,"Ġsurprise":5405,"Ġslightly":5406,"idden":5407,"phas":5408,"ĠRoy":5409,"ĠMain":5410,"ifts":5411,"Ġfaster":5412,"Ġbusy":5413,"Ġexplain":5414,"ĠEarth":5415,"Ġdyn":5416,"ĠCEO":5417,"essions":5418,"ĠTor":5419,"Ġfruit":5420,"ĠMer":5421,"Ġplays":5422,"den":5423,"ilding":5424,"gers":5425,"itionally":5426,"Ġsport":5427,"ĠCustom":5428,"Ġsymb":5429,"Ġbigger":5430,"ait":5431,"Des":5432,"Ġreligious":5433,"ĠPeter":5434,"ĠReal":5435,"Ġmale":5436,"Ġprocessing":5437,"ĠLat":5438,"ket":5439,"ĠTwo":5440,"ĠGermany":5441,"Ġeffic":5442,"ĠWho":5443,"ĠVirgin":5444,"Ġpackage":5445,"Ġbond":5446,"Ġrepair":5447,"Ġconsequ":5448,"fol":5449,"unning":5450,"05":5451,"Ġemployee":5452,"ĠFamily":5453,"CT":5454,"Ġrooms":5455,"ĠParty":5456,"Ġflat":5457,"Ġpromote":5458,"anda":5459,"Ġconv":5460,"Ġpal":5461,"Ġseeking":5462,"Ġment":5463,"rastructure":5464,"Ġproposed":5465,"Ġcourses":5466,"arrant":5467,"Ġmotiv":5468,"Ġfacility":5469,"Ġintended":5470,"Ġcart":5471,"Every":5472,"Ġturns":5473,"Ġbrows":5474,"Ġpu":5475,"inos":5476,"Ġaspects":5477,"Ġcaught":5478,"Ġoccup":5479,"ograp":5480,"Ġbelong":5481,"Ġphil":5482,"ĠAward":5483,"oom":5484,"ometimes":5485,"oses":5486,"Ġassum":5487,"Ġfamiliar":5488,"ĠSpecial":5489,"Ġtells":5490,"related":5491,"Ġspecifically":5492,"Ġsav":5493,"ĠJim":5494,"Ġsudd":5495,"Ġreaders":5496,"Ġchemical":5497,"rier":5498,"Ġdetermined":5499,"igan":5500,"Ġyes":5501,"ĠWestern":5502,"ĠRobert":5503,"77":5504,"rical":5505,"esterday":5506,"ĠJoe":5507,"ĠIts":5508,"otic":5509,"Ġtail":5510,"Ġcomprehens":5511,"Ġtheme":5512,"Ġinternal":5513,"ĠMedical":5514,"UN":5515,"Ġsister":5516,"eah":5517,"II":5518,"Ġpun":5519,"Ġmovies":5520,"Ġconsumers":5521,"Ġedge":5522,"cean":5523,"Ġdecades":5524,"rm":5525,"Ġinstance":5526,"Ġproperly":5527,"Ġflowers":5528,"ĠWil":5529,"Ġsoul":5530,"mes":5531,"Ġvisitors":5532,"Lily":5533,"ĠFort":5534,"Ġreference":5535,"Ġelim":5536,"Ġjoy":5537,"Ġuniversity":5538,"ĠTechnology":5539,"pot":5540,"ĠTre":5541,"According":5542,"Ġking":5543,"Ġrecommended":5544,"Ġcheap":5545,"Ġmagic":5546,"van":5547,"ĠBi":5548,"Ġmaintenance":5549,"ĠClick":5550,"Ġlandsc":5551,"Ġadults":5552,"ivered":5553,"obe":5554,"Ġaccounts":5555,"Ġtopic":5556,"Ġfreedom":5557,"cking":5558,"Ġdetect":5559,"ishing":5560,"ena":5561,"nergy":5562,"cohol":5563,"water":5564,"iveness":5565,"Ġsets":5566,"Ġcalling":5567,"Ġsigns":5568,"LA":5569,"adian":5570,"ĠFrank":5571,"ĠMuseum":5572,"ĠHuman":5573,"Ġcharges":5574,"Ġstre":5575,"Add":5576,"Ġcrisis":5577,"Ġserving":5578,"Tom":5579,"ĠFire":5580,"Ġvan":5581,"Ġguests":5582,"Ġfactor":5583,"Ġtherapy":5584,"ĠMedia":5585,"inations":5586,"Ġmo":5587,"avig":5588,"Ĥ¬":5589,"Ġprison":5590,"Ġunits":5591,"ulations":5592,"Ġfabric":5593,"ĠOrgan":5594,"Ġseat":5595,"ĠKore":5596,"Ġpregn":5597,"ĠValley":5598,"Ġapproximately":5599,"pal":5600,"ĠLos":5601,"ĠTest":5602,"ĠTur":5603,"Ġstret":5604,"Ġsmile":5605,"Ġdesire":5606,"Ġ500":5607,"ĠLook":5608,"Ġamb":5609,"Ġrapid":5610,"list":5611,"Ġmissing":5612,"Ġrevenue":5613,"ĠColor":5614,"Ġdie":5615,"ario":5616,"yal":5617,"esome":5618,"Ġ2003":5619,"Ġsteel":5620,"Ġcauses":5621,"}}":5622,"Ġtrading":5623,"Ġdecre":5624,"Ġarrived":5625,"Ġcontem":5626,"Ġdollars":5627,"ĠBack":5628,"Ġcalcul":5629,"rag":5630,"PR":5631,"ultural":5632,"Ġeducational":5633,"Ġmir":5634,"Ġexecutive":5635,"Ġfailure":5636,"Ġtough":5637,"Ġhousing":5638,"ĠAtl":5639,"Ġintroduced":5640,"ĠThanks":5641,"luding":5642,"Ġweak":5643,"Ġwire":5644,"erry":5645,"ola":5646,"ĠEconom":5647,"ĠTeam":5648,"Ġdepending":5649,"ĠLouis":5650,"Ġfif":5651,"Ġconsumer":5652,"Ġemergency":5653,"Ġloud":5654,"ĠDig":5655,"Ġdrugs":5656,"Ġbelief":5657,"Ġconfidence":5658,"Ġwitness":5659,"Ġstars":5660,"ria":5661,"Ġincorpor":5662,"cher":5663,"ĠOffic":5664,"Ġgather":5665,"zen":5666,"Ġroof":5667,"ĠSecret":5668,"Ġcommitment":5669,"Ġoblig":5670,"Ġfunny":5671,"ĠLong":5672,"ĠÃ":5673,"ĠCard":5674,"alled":5675,"Ġtechnologies":5676,"Ġtheory":5677,"Ġfailed":5678,"noon":5679,"road":5680,"Ġrealize":5681,"Ġnine":5682,"Ġprovider":5683,"ifications":5684,"Ġstanding":5685,"bour":5686,"Ġmaximum":5687,"Ġstores":5688,"aser":5689,"Ġsupported":5690,"78":5691,"Ġpanel":5692,"ĠMot":5693,"Ġath":5694,"Ġdangerous":5695,"IF":5696,"Ġparticipants":5697,"bu":5698,"Ġprofile":5699,"Ġdiscovered":5700,"ĠFil":5701,"arsh":5702,"Ġplastic":5703,"Ġprop":5704,"Ġdogs":5705,"Ġthick":5706,"Ġfourth":5707,"Ġaccommod":5708,"Ġapproved":5709,"Ġcarried":5710,"xi":5711,"Ġlocations":5712,"Phone":5713,"ĠMel":5714,"prise":5715,"Ġelement":5716,"oted":5717,"bo":5718,"yan":5719,"Ġingredients":5720,"elines":5721,"ocation":5722,"ita":5723,"Ġknowing":5724,"OP":5725,"Ġdiscount":5726,"Look":5727,"een":5728,"met":5729,"Ġassets":5730,"ĠFund":5731,"Ġdur":5732,"ocolate":5733,"Ġsupposed":5734,"ĠShow":5735,"under":5736,"ĠRad":5737,"ĠNY":5738,"Ġdatab":5739,"ĠMinister":5740,"Ġarrange":5741,"burg":5742,"ĠExper":5743,"Ġherself":5744,"ĠPerson":5745,"ĠRussia":5746,"that":5747,"ĠBur":5748,"Ġspons":5749,"Ġannounce":5750,"ĠInvest":5751,"Ġchat":5752,"ĠReport":5753,"Ġcombined":5754,"Ġdiscl":5755,"ĠWord":5756,"Ġmine":5757,"ĠRE":5758,"Well":5759,"uce":5760,"Ġclinical":5761,"iration":5762,"Ġconcerned":5763,"Ġcleaning":5764,"Ġunexpected":5765,"Ġremoved":5766,"Ġpossibly":5767,"Ġhyd":5768,"ideo":5769,"Ġforced":5770,"Posted":5771,"Ġtelevision":5772,"Ġswitch":5773,"Ġcircumstances":5774,"Ġgoods":5775,"ĠThomas":5776,"Ġapparent":5777,"Ġofficer":5778,"ĠOld":5779,"Ġaid":5780,"ician":5781,"Ġauthority":5782,"tra":5783,"edia":5784,"igration":5785,"Ġnom":5786,"DF":5787,"Ġvolume":5788,"Ġburn":5789,"ĠMa":5790,"Ġperspective":5791,"Ġvehicles":5792,"CE":5793,"Ġjudge":5794,"Ġnoise":5795,"ĠHistory":5796,"SP":5797,"Ġchief":5798,"ogue":5799,"Ġcop":5800,"Ġdetailed":5801,"inding":5802,"ĠBeach":5803,"Last":5804,"prene":5805,"Ġuns":5806,"ĠStand":5807,"ĠIll":5808,"Ġtast":5809,"Ġbringing":5810,"oti":5811,"Ġwealth":5812,"ĠThank":5813,"Ġdistribution":5814,"kins":5815,"Res":5816,"ĠÐ":5817,"ĠNov":5818,"you":5819,"66":5820,"Ġeditor":5821,"Ġhero":5822,"Ġadvertising":5823,"okes":5824,"ĠCath":5825,"Ġunivers":5826,"abet":5827,"ilit":5828,"ums":5829,"Ġsquare":5830,"Ġprepare":5831,"Ġsurgery":5832,".âĢĻ":5833,"reprene":5834,"ĠRussian":5835,"ossible":5836,"eper":5837,"Ġpoly":5838,"ĠLand":5839,"Ġdesk":5840,"Ġfold":5841,"rooms":5842,"encing":5843,"nding":5844,"ref":5845,"Ġgreatest":5846,"ĠFederal":5847,"urban":5848,"uclear":5849,"Ġissued":5850,"Ġdelivered":5851,"Ġtotally":5852,"Ġpaying":5853,"Ġcomponents":5854,"ĠProduct":5855,"Ġlit":5856,"ĠEnter":5857,"Ġlaunched":5858,"Ġanywhere":5859,"Ġfollows":5860,"Ġfunctions":5861,"Ġexplained":5862,"Ġaffected":5863,"Ġsole":5864,"Ġcoord":5865,"ĠOR":5866,"Ġblow":5867,"Ġshock":5868,"ĠAL":5869,"Ġboost":5870,"arp":5871,"Americ":5872,"respond":5873,"Ġtun":5874,"^{":5875,"ĠAngeles":5876,"Ġmatters":5877,"cles":5878,"08":5879,"Ġring":5880,"Ġfilms":5881,"Ġformat":5882,"Ġappearance":5883,"Ġlunch":5884,"Ġidentified":5885,"ye":5886,"Ġbegins":5887,"Ġhundreds":5888,"aks":5889,"Ġsignificantly":5890,"Ġlibrary":5891,"Ġserver":5892,"osoph":5893,"erg":5894,"UT":5895,"Ġsuit":5896,"Ġagent":5897,"Ġinstitutions":5898,"tr":5899,"ĠWall":5900,"Ġspeech":5901,"Ġvary":5902,"Ġsupporting":5903,"ĠCy":5904,"ĠLead":5905,"ensions":5906,"anish":5907,"Ġadvoc":5908,"Ġimproved":5909,"ĠJose":5910,"Ġcommand":5911,"ĠMont":5912,"Ġemotional":5913,"Ġcreation":5914,"ems":5915,"Ġidentity":5916,"Ġreduced":5917,"Ġodd":5918,"ibilities":5919,"Ġworse":5920,"Ġresol":5921,"ĠSar":5922,"Ġupgr":5923,"Ġadvis":5924,"Ġemphas":5925,"ĠCorpor":5926,"Ġcrime":5927,"oration":5928,"ĠID":5929,"Ġconcern":5930,"Ġterror":5931,"Ġupdated":5932,"ĠYOU":5933,"Ġbike":5934,"Ġtests":5935,"Ġgrew":5936,"Ke":5937,"Ġgall":5938,"Ġeffectively":5939,"Fr":5940,"Ġchoices":5941,"ĠLibr":5942,"Ġconsidering":5943,"merce":5944,"Tr":5945,"ĠTake":5946,"Ġcriminal":5947,"Ġbrown":5948,"Ġliber":5949,"ĠOper":5950,"azz":5951,"Ġshares":5952,"ĠSeries":5953,"Ġmilk":5954,"ĠSk":5955,"cknow":5956,"Ġfixed":5957,"ĠId":5958,"ĠGlobal":5959,"Ġapps":5960,"Ġrom":5961,"ĠSand":5962,"Ġveter":5963,"ĠDen":5964,"ĠRev":5965,"Ġkinds":5966,"Ġec":5967,"Ġproviders":5968,"ĠJul":5969,"Ġsevere":5970,"Ġorders":5971,"Ġscientific":5972,"42":5973,"Ġrecovery":5974,"Ġliqu":5975,"ĠNetwork":5976,"Ġshipping":5977,"Ġcompetitive":5978,"Ġkill":5979,"ĠLo":5980,"ef":5981,"Ġtelling":5982,"hetic":5983,"ĠCall":5984,"Ġinvestors":5985,"ĠArts":5986,"Ġexamples":5987,"Ġtrouble":5988,"iest":5989,"Ġrisks":5990,"wo":5991,"ĠGen":5992,"Ġbattery":5993,"Ġshap":5994,"hi":5995,"Ġhole":5996,"cal":5997,"xy":5998,"ĠBoth":5999,"ĠAbout":6000,"Ġtall":6001,"ĠLight":6002,"Ġtaught":6003,"Ġvaluable":6004,"Ġhat":6005,"Ġagencies":6006,"Oh":6007,"Ġcoast":6008,"aren":6009,"ĠAdminist":6010,"Ġclothes":6011,"hand":6012,"Ġsides":6013,"Ġrestrict":6014,"Ġstone":6015,"Ġcarefully":6016,"Ġdial":6017,"never":6018,"03":6019,"ĠProte":6020,"ml":6021,"ĠLast":6022,"Ġafternoon":6023,"can":6024,"??":6025,"real":6026,"Ġlicense":6027,"Ġnoticed":6028,"Ġadministr":6029,"ca":6030,"Ġcomprehensive":6031,"lla":6032,"Ġemployment":6033,"ĠHave":6034,"Ġspeaking":6035,"ĠMaster":6036,"Ġinvolve":6037,"Ġseconds":6038,"Ġindustrial":6039,"FL":6040,"Ġhur":6041,"Ġtreated":6042,"Ġcommission":6043,"Ġhighlight":6044,"04":6045,"Ġhistorical":6046,"Dr":6047,"Ġinfrastructure":6048,"Ġregistered":6049,"Another":6050,"Ġfavour":6051,"07":6052,"Ġsubstant":6053,"ĠMexico":6054,"Ġbuildings":6055,"Ġremark":6056,"oston":6057,"ĠInstead":6058,"Ġremote":6059,"lets":6060,"Ġcategory":6061,"Ġneck":6062,"irmed":6063,"Ġprotected":6064,"Ġvacc":6065,"Ġmagn":6066,"ĠAsia":6067,"Ġrecorded":6068,"ĠCOVID":6069,"Ġisland":6070,"Ġdraft":6071,"SS":6072,"Ġreput":6073,"ĠMicrosoft":6074,"Ġmut":6075,"09":6076,"Ġflight":6077,"Ġtro":6078,"ĠMike":6079,"Ġsalt":6080,"Ġteen":6081,"illy":6082,"Ġequal":6083,"Ġinvestigation":6084,"erves":6085,"comm":6086,"ĠCas":6087,"ĠIsl":6088,"Ġchain":6089,"AG":6090,"Ġtea":6091,"Ġdefined":6092,"Ġsymbol":6093,"Ġregulations":6094,"ĠTown":6095,"icit":6096,"Ġconstruct":6097,"Ġepisode":6098,"06":6099,"First":6100,"Ġfort":6101,"elly":6102,"Ġgrass":6103,"Te":6104,"estyle":6105,"Ġspiritual":6106,"Ġwal":6107,"arian":6108,"Ġaccepted":6109,"ĠTri":6110,"tters":6111,"Ġinspired":6112,"Ġlabel":6113,"ĠVict":6114,"ta":6115,"Ġpractical":6116,"ĠMaybe":6117,"Ġexpertise":6118,"Ġrelatively":6119,"Ġworksh":6120,"ĠOnly":6121,"Ind":6122,"ownt":6123,"po":6124,"Ġparticipate":6125,"ĠCat":6126,"Ġmenu":6127,"ĠChief":6128,"Ġrenew":6129,"ĠKnow":6130,"Ġ195":6131,"hors":6132,"ĠCir":6133,"ĠSto":6134,"Ġholds":6135,"alian":6136,"ĠIndust":6137,"ĠJohnson":6138,"Ġwearing":6139,"Ġrealized":6140,"ĠProv":6141,"Ġofficers":6142,"uated":6143,"About":6144,"Ġrough":6145,"Ġperman":6146,"Ġfeedback":6147,"Ġlux":6148,"arrow":6149,"Ġjustice":6150,"Ġneighborhood":6151,"Ġ2002":6152,"Su":6153,"pret":6154,"Ġhappening":6155,"Ġfields":6156,"Ġreliable":6157,"atre":6158,"Ġtrib":6159,"ambling":6160,"Ġoccasion":6161,"Ġcritic":6162,"Ġwet":6163,"Ġpoll":6164,"orough":6165,"Im":6166,"ingly":6167,"Ġelig":6168,"ĠIP":6169,"Most":6170,"OD":6171,"Ġentirely":6172,"Ġtopics":6173,"ĠâĢ¢":6174,"Ġinn":6175,"Che":6176,"Ġfulf":6177,"ĠConference":6178,"ĠAmy":6179,"ĠWhere":6180,"MP":6181,"ĠBo":6182,"Ġriver":6183,"Ġacknow":6184,"ĠAT":6185,"Ġyellow":6186,"ATION":6187,"ĠGal":6188,"ĠJapanese":6189,"igure":6190,"ua":6191,"ĠCup":6192,"Ġpure":6193,"Ġfantastic":6194,"Ġfoods":6195,"ĠEnergy":6196,"Ġpulled":6197,"See":6198,"ev":6199,"Ġforth":6200,"ĠEU":6201,"Ġdesigns":6202,"Ġregister":6203,"199":6204,"ias":6205,"Ġmel":6206,"85":6207,"Ġwatched":6208,"Ġsan":6209,"Ġmassive":6210,"Ġflo":6211,"Ġremaining":6212,"Ġchart":6213,"Ġscr":6214,"Ġnurs":6215,"Ġben":6216,"ĠWay":6217,"OC":6218,"Ġworldwide":6219,"41":6220,"hent":6221,"oosing":6222,"Ġconducted":6223,"Ġbreast":6224,"En":6225,"rete":6226,"orders":6227,"EE":6228,"Ġ2001":6229,"Ġ32":6230,"achel":6231,"02":6232,"Ġinnovative":6233,"Ġunf":6234,"ĠPenn":6235,"Ġimagine":6236,"ployment":6237,"mosp":6238,"Ġreceiving":6239,"ĠAuthor":6240,"Ġrevealed":6241,"43":6242,"Ġsick":6243,"Ġbasket":6244,"comes":6245,"ighter":6246,"Ġslot":6247,"Ġmotion":6248,"Ġtwice":6249,"Ġfighting":6250,"icial":6251,"Ġenforce":6252,"Ġhousehold":6253,"Am":6254,"Ġsam":6255,"Ġcompens":6256,"Ġgrown":6257,"Ġphotograph":6258,"Ġmedicine":6259,"ether":6260,"Ġchosen":6261,"Ġends":6262,"Ġpayments":6263,"Ġresource":6264,"Ġhealthcare":6265,"Ġrand":6266,"Are":6267,"Ġbrands":6268,"Ġplanned":6269,"Qu":6270,"Ġelectronic":6271,"Ġmere":6272,"west":6273,"Ġabuse":6274,"Ġresearchers":6275,"irms":6276,"ĠLab":6277,"----":6278,"Ġhorse":6279,"Ġrecognized":6280,"ien":6281,"ĠHead":6282,"luded":6283,"Since":6284,"Ġmode":6285,"oga":6286,"Ġtiny":6287,"hus":6288,"eration":6289,"ĠDou":6290,"gas":6291,"Ġprocedure":6292,"lock":6293,"Ġaffili":6294,"Ġregularly":6295,"ĠAdv":6296,"Ġbirds":6297,"Or":6298,"Ġmeat":6299,"Ġattorney":6300,"raq":6301,"ĠPan":6302,"Ġglad":6303,"Ġarms":6304,"ĠMartin":6305,"Ġcharged":6306,"Ġpositions":6307,"ĠChris":6308,"Ġvillage":6309,"ĠList":6310,"Ġtickets":6311,"Ġmal":6312,"ðŁ":6313,"Ġmeal":6314,"Ġvirtual":6315,"ĠMcC":6316,"Ġincredible":6317,"}\\":6318,"Ġiron":6319,"Ġboys":6320,"ĠStart":6321,"pass":6322,"sm":6323,"ĠVirginia":6324,"Ġbread":6325,"}$":6326,"Ġerror":6327,"Ġtired":6328,"Ġenem":6329,"ato":6330,"ĠNOT":6331,"ĠCarolina":6332,"Ġreasonable":6333,"ĠMen":6334,"Ġinstitution":6335,"ĠON":6336,"Ġmanufacturing":6337,"Ġmissed":6338,"uts":6339,"Ġwarrant":6340,"Ġretire":6341,"Ġexcess":6342,"ĠCanadian":6343,"iors":6344,"reens":6345,"Ġaccurate":6346,"Ġengineering":6347,"anges":6348,"ĠGame":6349,"Ġ36":6350,"ĠArab":6351,"eless":6352,"Ġincl":6353,"Ġanswers":6354,"writ":6355,"ĠHen":6356,"EW":6357,"Us":6358,"Ġrot":6359,"Ġengage":6360,"Many":6361,"Ġdiss":6362,"Ġmonthly":6363,"Ġbelieved":6364,"ĠLim":6365,"John":6366,"Ġparking":6367,"Ġmoments":6368,"Ġrandom":6369,"Ġfrequently":6370,"Ġprocedures":6371,"ĠSupport":6372,"Ġtom":6373,"Ġvital":6374,"ĠSecond":6375,"Ġshoes":6376,"http":6377,"ĠWeek":6378,"Ġtalked":6379,"Ġsimpl":6380,"Ġaudio":6381,"Ġhun":6382,"MA":6383,"eries":6384,"Ġdomestic":6385,"Ġalcohol":6386,"rate":6387,"ĠJeff":6388,"ĠThose":6389,"Ġnone":6390,"Ġenable":6391,"Ġconfirm":6392,"Ġ<":6393,"bur":6394,"Ġupdates":6395,"appy":6396,"Ġcro":6397,"Ġcandidates":6398,"ĠIran":6399,"Ġlikes":6400,"ĠBas":6401,"Ġpump":6402,"person":6403,"Ġauthorities":6404,"ĠHaw":6405,"anged":6406,"ĠMur":6407,"Ġextensive":6408,"aniel":6409,"Ġguard":6410,"Ġautomatically":6411,"Ġhonor":6412,"ĠLee":6413,"Ġcentre":6414,"Man":6415,"Ġadventure":6416,"ĠAcademy":6417,"Ġtables":6418,"Ġcontro":6419,"Ġrecipe":6420,"Ġdestroy":6421,"Ġawesome":6422,"Ġportion":6423,"ĠMo":6424,"ĠRights":6425,"Ġjack":6426,"Ġobvious":6427,"Ġillustr":6428,"Ġappeal":6429,"Ġprotein":6430,"rency":6431,"Ġsuitable":6432,"Ġsin":6433,"Ġcorrespond":6434,"Ġregional":6435,"Ġyesterday":6436,"inet":6437,"Ġbonus":6438,"ĠCentre":6439,"Ġcarbon":6440,"ĠPac":6441,"tery":6442,"sembly":6443,"ansion":6444,"ĠPolicy":6445,"TA":6446,"ĠAndroid":6447,"rics":6448,"Ġaffordable":6449,"uting":6450,"aid":6451,"ĠAud":6452,"ĠBible":6453,"Ġreform":6454,"ora":6455,"ĠDev":6456,"ĠChildren":6457,"Ġentered":6458,"Over":6459,"Ġattacks":6460,"Ġille":6461,"paper":6462,"Ġhouses":6463,"ĠMiddle":6464,"olly":6465,"Ġven":6466,"ĠCA":6467,"Ġexpression":6468,"Ġguarantee":6469,"Ġawareness":6470,"andemic":6471,"ĠTem":6472,"Ġplate":6473,"Ġassessment":6474,"SE":6475,"Ġunlike":6476,"nic":6477,"osite":6478,"Ġnavig":6479,"rick":6480,"hered":6481,"Ġtaxes":6482,"Ġconclus":6483,"lines":6484,"Ġstatements":6485,"oster":6486,"Ġcounsel":6487,"ĠView":6488,"ĠParis":6489,"alse":6490,"Ġconstantly":6491,"Ġloans":6492,"!)":6493,"Ġcounty":6494,"BD":6495,"ĠFind":6496,"bal":6497,"Ġcommittee":6498,"Ġpurchased":6499,"ĠBow":6500,"GB":6501,"ummy":6502,"Ġsituations":6503,"Ġcampus":6504,"cuit":6505,"ulous":6506,"âĦ":6507,"Ġowned":6508,"gend":6509,"ĠTerm":6510,"Ġefficiency":6511,"mond":6512,"________":6513,"Up":6514,"abled":6515,"ĠIraq":6516,"host":6517,"Ġsample":6518,"law":6519,"âĢĻ.":6520,"Any":6521,"agon":6522,"ĠJones":6523,"ĠTherefore":6524,"ĠSite":6525,"Ġbless":6526,"Ġcooper":6527,"flow":6528,"Ġplug":6529,"wing":6530,"Pre":6531,"ĠBoston":6532,"ban":6533,"Ġprofit":6534,"ĠEnd":6535,"SC":6536,"Ġchallenging":6537,"ĠPolice":6538,"Ġmessages":6539,"Ġcheese":6540,"anger":6541,"pat":6542,"Ġwindows":6543,"Ġ300":6544,"Pe":6545,"Ġcolour":6546,"Ġcovers":6547,"Spe":6548,"Ġcycle":6549,"Ġinstallation":6550,"omy":6551,"ĠLink":6552,"Ġgro":6553,"ensity":6554,"ĠWild":6555,"Ġcontrast":6556,"Ġbirthday":6557,"Ġcutting":6558,"rome":6559,"Ġmeetings":6560,"ĠLibrary":6561,"Ġinstalled":6562,"elf":6563,"Ġearned":6564,"Ġassign":6565,"Ġfacts":6566,"86":6567,"Ġslowly":6568,"Ġvul":6569,"Ġusual":6570,"Ġmoral":6571,"Ġdiverse":6572,"va":6573,"Ġmillions":6574,"Ġconflict":6575,"ĠHospital":6576,"Ġancient":6577,"Ġchannel":6578,"Ġtasks":6579,"Of":6580,"Ġpil":6581,"ĠStep":6582,"ingu":6583,"Ġdifferences":6584,"Ġlights":6585,"Ġdoors":6586,"Ġpublish":6587,"astern":6588,"Ġscript":6589,"Ġtrend":6590,"Ġnegoti":6591,"ĠBefore":6592,"Mar":6593,"Ġteeth":6594,"Ġped":6595,"Ġguest":6596,"Ġentertainment":6597,"ĠiPhone":6598,"Ġatmosp":6599,"ĠCharl":6600,"ÃŃ":6601,"Ġdisappoint":6602,"Ġpolitics":6603,"Ġprivacy":6604,"Ġappreciate":6605,"Ġvictory":6606,"Ġfellow":6607,"ĠYoung":6608,"Ġoutdoor":6609,"Ġdiscussed":6610,"ĠGeorg":6611,"Sc":6612,"Ġlovely":6613,"cers":6614,"Ġincreases":6615,"Ġadm":6616,"Ġkeeps":6617,"Ġlosing":6618,"Ġamend":6619,"eline":6620,"isk":6621,"ĠGra":6622,"Ġcrucial":6623,"Ġextended":6624,"Ġinput":6625,"Ġdelicious":6626,"ĠCH":6627,"Ġsuggested":6628,"Ġokay":6629,"umin":6630,"Ġmachines":6631,"Ġcrew":6632,"ĠManager":6633,"ĠJewish":6634,"Ġgrade":6635,"Ġsettings":6636,"Ġwithd":6637,"Ġperfectly":6638,"Ġimpossible":6639,"ĠCode":6640,"Ġregistration":6641,"Ġfacing":6642,"ĠVer":6643,"Ġscholars":6644,"Ġstuck":6645,"Ġvisiting":6646,"otes":6647,"ĠTrust":6648,"Ġdeals":6649,"Ġtalent":6650,"Ġlicens":6651,"Ġauthors":6652,"Ġdropped":6653,"âĦ¢":6654,"72":6655,"Ġbanks":6656,"ĠEqu":6657,"Ġongoing":6658,"icing":6659,"itty":6660,"Ġdegrees":6661,"ĠAnna":6662,"date":6663,"ĠWal":6664,"Ġwalls":6665,"Ġcandidate":6666,"ĠDef":6667,"Ġdram":6668,"ĠAustralian":6669,"print":6670,"ĠIre":6671,"ĠWhether":6672,"Ġsurrounding":6673,"Ġstudio":6674,"Ġserves":6675,"Ġtransition":6676,"Ġdistinct":6677,"Ġchapter":6678,"oking":6679,"Ed":6680,"Ġkne":6681,"uality":6682,"Ġresolution":6683,"da":6684,"Ġformed":6685,"Ġspoke":6686,"Ġphase":6687,"Ġwinner":6688,"Ġroute":6689,"ĠAnother":6690,"Ġexpectations":6691,"Ġsolar":6692,"ĠSqu":6693,"Ġsupports":6694,"Ġsees":6695,"Ã¡":6696,"Ġacid":6697,"ĠKeep":6698,"Ġdelay":6699,"Ġpremium":6700,"Ġstands":6701,"ĠGar":6702,"ĠExt":6703,"Ġpursu":6704,"Ġreporting":6705,"Ġcooking":6706,"Ġdatabase":6707,"Ġloves":6708,"Ġdecade":6709,"ĠKh":6710,"Ġpatterns":6711,"Ġwheel":6712,"Ġfeatured":6713,"ĠRichard":6714,"Ġfurniture":6715,"Ġtypical":6716,"Ġprove":6717,"Ġload":6718,"Ġturning":6719,"Ġunable":6720,"ĠBoy":6721,"Ġpossibility":6722,"Ġflew":6723,"Ġpin":6724,"Ġindeed":6725,"Ġpartnership":6726,"Ġreward":6727,"xiety":6728,"Ġworst":6729,"ĠDu":6730,"Ġobtained":6731,"Ġast":6732,"Ġplanet":6733,"bsite":6734,"ĠSpirit":6735,"Ġrecognize":6736,"weight":6737,"Ġangry":6738,"greg":6739,"yers":6740,"Ġdrivers":6741,"Ġmusical":6742,"Ġbodies":6743,"Ġshooting":6744,"lymp":6745,"Ġinnovation":6746,"ĠInte":6747,"Ġdish":6748,"hem":6749,"Ġsuc":6750,"ĠCost":6751,"ĠSup":6752,"gypt":6753,"Ġfiled":6754,"Ġfeelings":6755,"Ġconsistent":6756,"Ġprompt":6757,"td":6758,"ĠThrough":6759,"Ġcorn":6760,"ugh":6761,"mar":6762,"ĠAri":6763,"ĠSenate":6764,"Ġreturns":6765,"Ġexternal":6766,"Today":6767,"Ġrelief":6768,"Ġchicken":6769,"Ġathlet":6770,"entle":6771,"Ġbroke":6772,"Ġrestaurants":6773,"ĠMatt":6774,"Ġbowl":6775,"Ġhung":6776,"Ġvast":6777,"Ġspin":6778,"ĠColumb":6779,"rible":6780,"ellect":6781,"Ġpresentation":6782,"ĠFestival":6783,"ĠPhot":6784,"Ġroutine":6785,"iverse":6786,"Ġwid":6787,"Ġagents":6788,"Sp":6789,"Ġnetworks":6790,"Ġmountain":6791,"Ġtrig":6792,"Ġpersons":6793,"ĠPR":6794,"Ġchocolate":6795,"ĠEr":6796,"Ġyounger":6797,"bar":6798,"Ġnative":6799,"Ġpromise":6800,".'":6801,"Ġentreprene":6802,"76":6803,"ĠFOR":6804,"Ġsubmit":6805,"Ġmixed":6806,"Ġfolks":6807,"Other":6808,"ansas":6809,"Ġskill":6810,"Ġimpressive":6811,"Although":6812,"grad":6813,"Ġupper":6814,"ĠPub":6815,"ila":6816,"Ġfoundation":6817,"Ġsmell":6818,"ĠSpring":6819,"Ġstim":6820,"ĠSoft":6821,"ĠJon":6822,"Ġgender":6823,"Ġreferred":6824,"Ġvit":6825,"ĠPlus":6826,"Ġfigures":6827,"Ġcapable":6828,"Ġpod":6829,"Ġinjuries":6830,"ĠControl":6831,"Ġdebate":6832,"rum":6833,"ogether":6834,"vy":6835,"Ġlegislation":6836,"Mr":6837,"ĠTour":6838,"ĠAD":6839,"iner":6840,"Ġdelight":6841,"ĠRight":6842,"ĠRest":6843,"Ġsessions":6844,"Ġlistening":6845,"Ġimprovement":6846,"Ġoutput":6847,"ĠĠĠĠĠĠĠĠ":6848,"Ġinstructions":6849,"ĠSon":6850,"ĠFull":6851,"ĠFurther":6852,"Ġcollected":6853,"agues":6854,"Ġinvent":6855,"bi":6856,"Ġnuclear":6857,"oral":6858,"ĠAccess":6859,"Ġspr":6860,"Ġyard":6861,"Ġmuseum":6862,"Ġempt":6863,"ĠWilliams":6864,"Ġultimately":6865,"ĠGall":6866,"Ġplatforms":6867,"Ġsuccessfully":6868,"UL":6869,"nam":6870,"ĠSports":6871,"long":6872,"ĠMuslim":6873,"Ġorganic":6874,"Int":6875,"abetes":6876,"car":6877,"Ġlayer":6878,"Ġlady":6879,"ĠSet":6880,"ĠJustice":6881,"isters":6882,"Ġmagazine":6883,"ĠOhio":6884,"ache":6885,"ĠFair":6886,"Ġscheduled":6887,"Ġenthus":6888,"Ġsustainable":6889,"ĠDigital":6890,"ĠSign":6891,"Ġbreakfast":6892,"Ġ75":6893,"profit":6894,"Ġextent":6895,"Ġgraduate":6896,"Ġupcoming":6897,"ĠExecutive":6898,"aturally":6899,"ĠBell":6900,"redit":6901,"ĠMichigan":6902,"ERS":6903,"Ġillness":6904,"ĠEp":6905,"AA":6906,"TC":6907,"Ġmand":6908,"Ġdescription":6909,"otal":6910,"Go":6911,"Ġsucceed":6912,"rid":6913,"ĠItalian":6914,"Ġarts":6915,"Ġtack":6916,"ĠLive":6917,"Ġoriginally":6918,"pel":6919,"stood":6920,"Ġnearby":6921,"Ġdepth":6922,"ĠCreat":6923,"Ġtiss":6924,"Ġsusp":6925,"Ġinfo":6926,"Ġoperate":6927,"uction":6928,"Ġclosely":6929,"Ġconfirmed":6930,"Ġ48":6931,"Ġincident":6932,"Ġhate":6933,"Ġsurf":6934,"Ġpandemic":6935,"Ġleague":6936,"ala":6937,"ĠFrancisco":6938,"Ġsufficient":6939,"ĠStat":6940,"Ġpainting":6941,"Ġprinciples":6942,"Ġorganized":6943,"ĠWin":6944,"Ġjumped":6945,"Ġcrazy":6946,"Ġcookies":6947,"Ġproof":6948,"ĠChair":6949,"Ġblocks":6950,"Ġinformed":6951,"Where":6952,"Ġfacilit":6953,"Ġicon":6954,"Ġrow":6955,"Ġaccessible":6956,"holders":6957,"oty":6958,"hire":6959,"ĠRom":6960,"acks":6961,"ĠKen":6962,"Ġsight":6963,"Ġedition":6964,"Ġticket":6965,"oup":6966,"Ġheight":6967,"Ġnarr":6968,"ographic":6969,"ĠPriv":6970,"Ġconver":6971,"Ġinches":6972,"ĠSpanish":6973,"inder":6974,"Ġforever":6975,"Ġshift":6976,"Ġstruggle":6977,"Ġguitar":6978,"ĠJackson":6979,"ĠUk":6980,"ĠBrand":6981,"itage":6982,"Ġbottle":6983,"59":6984,"Ġsyn":6985,"Ġtomorrow":6986,"ĠEnvironment":6987,"ĠHotel":6988,"Ġexpenses":6989,"Ġguidance":6990,"Ġrail":6991,"raid":6992,"Ġeverywhere":6993,"ĠLog":6994,"PC":6995,"ĠWalk":6996,"Ġrein":6997,"inem":6998,"ĠSaf":6999,"lights":7000,"resents":7001,"alle":7002,"cons":7003,"ogen":7004,"she":7005,"Ġexposure":7006,"Ġhook":7007,"ĠCatholic":7008,"Ġprepar":7009,"Ġcollaboration":7010,"ĠHim":7011,"Ġattrib":7012,"Ġsubsequ":7013,"Ġdealing":7014,"Ġurban":7015,"Ġintelligence":7016,"isms":7017,"ĠGirl":7018,"Ġestimated":7019,"EST":7020,"56":7021,"adow":7022,"Ġstrange":7023,"ĠVictor":7024,"stone":7025,"ĠAR":7026,"ĠIreland":7027,":||":7028,"uling":7029,"Ð¾":7030,"lder":7031,"ailability":7032,"ĠDan":7033,"ĠLittle":7034,"Ġintent":7035,"ĠSupp":7036,"Ġstrategic":7037,"Ġdiam":7038,"Ġbreath":7039,"ĠIss":7040,"cked":7041,"Ġpharm":7042,"ĠAff":7043,"AY":7044,"ashed":7045,"ĠGuide":7046,"Ġalleged":7047,"Ġimproving":7048,"ĠHand":7049,"Ġlegs":7050,"Ġresulting":7051,"Ġletters":7052,"ĠDom":7053,"Ġpapers":7054,"ampionship":7055,"79":7056,"ĠHD":7057,"Ġspaces":7058,"ih":7059,"Ġcontribute":7060,"ĠArmy":7061,"Ġdiscipl":7062,"uls":7063,"ĠFollow":7064,"ĠNext":7065,"olar":7066,"BI":7067,"ĠOlymp":7068,"earing":7069,"Ġseriously":7070,"Â°":7071,"Who":7072,"Ġlifestyle":7073,"Ġsuggests":7074,"Ġphilosoph":7075,"Ġdescribe":7076,"Ġid":7077,"celer":7078,"stream":7079,"ĠCross":7080,"Ġliquid":7081,"ĠPak":7082,"ppy":7083,"eding":7084,"ĠMic":7085,"lete":7086,"Ġpill":7087,"ĠAC":7088,"Ġvulner":7089,"folio":7090,"zil":7091,"orb":7092,"Ġincreasingly":7093,"fra":7094,"ĠDoes":7095,"Also":7096,"Ġsuffering":7097,"ĠPage":7098,"Ġfairly":7099,"Ġexclusive":7100,"Ġbelieves":7101,"Ġanticip":7102,"Ġexpressed":7103,"Ġexecut":7104,"Even":7105,"Ġcelebrate":7106,"Ġages":7107,"esides":7108,"awn":7109,"aper":7110,"(\\":7111,"ĠMid":7112,"Ðµ":7113,"ulf":7114,"class":7115,"yard":7116,"Ġcontest":7117,"During":7118,"Ġhumans":7119,"ras":7120,"away":7121,"89":7122,"Ġdates":7123,"racy":7124,"Ġevol":7125,"Ġthin":7126,"Ġargument":7127,"ĠRoman":7128,"ĠRepublican":7129,"Ġhall":7130,"DS":7131,"Ġauthent":7132,"sell":7133,"Ġconstant":7134,"Ġobjects":7135,"ĠTru":7136,"Ġrub":7137,"Ġpersonally":7138,"elcome":7139,"Ġelev":7140,"endar":7141,"Ġwarn":7142,"ĠItaly":7143,"utor":7144,"iana":7145,"Ġimmediate":7146,"ĠCharles":7147,"etime":7148,"Ġtrained":7149,"Ġlad":7150,"Ġconvenient":7151,"Ġinterpret":7152,"Ġlandscape":7153,"Ġforgot":7154,"Ġprimarily":7155,"ais":7156,"Ġflood":7157,"aning":7158,"ĠContin":7159,"ĠCook":7160,"Ġentit":7161,"Ġstretch":7162,"].":7163,"ĠEgypt":7164,"onym":7165,"ournament":7166,"ĠTit":7167,"Ġwidely":7168,"ĠSteve":7169,"Ġreligion":7170,"Ġcrus":7171,"Click":7172,"Ġconfident":7173,"ĠFinancial":7174,"ican":7175,"urse":7176,"Ġmonitoring":7177,"Ġnecessarily":7178,"Ġtrends":7179,"Ġstorm":7180,"Ġphen":7181,"Ġrepresents":7182,"ĠRoyal":7183,"aints":7184,"ĠApplic":7185,"olit":7186,"from":7187,"asters":7188,"Ġdeposit":7189,"rition":7190,"Ġwriters":7191,"ĠVan":7192,"Ġpercentage":7193,"Ġinvolves":7194,"PM":7195,"ĠBal":7196,"Ġappointment":7197,"Ġacts":7198,"ĠSection":7199,"CO":7200,"Ġroles":7201,"ĠSecretary":7202,"Ġlinked":7203,"enny":7204,"Ġsoil":7205,"Ġhell":7206,"Ġpassing":7207,"Ġfalse":7208,"Ġimplementation":7209,"ĠAssist":7210,"Ġborder":7211,"ĠSouthern":7212,"Ġdomain":7213,"ĠProfessor":7214,"ĠOpt":7215,"ĠNight":7216,"Tube":7217,"rage":7218,"VD":7219,"Ġmainly":7220,"rich":7221,"Ġhidden":7222,"arl":7223,"pay":7224,"whel":7225,"Ġentr":7226,"Ġmouse":7227,"Ġeveryday":7228,"Ġsilver":7229,"level":7230,"Bu":7231,"Ġstood":7232,"Ġresistance":7233,"Ġsoci":7234,"ĠFed":7235,"ĠDC":7236,"Ġsaved":7237,"Ġ)":7238,"uine":7239,"Ġadds":7240,"Ġinstruct":7241,"ĠPack":7242,"opyright":7243,"Ġengagement":7244,"Ġtested":7245,"cling":7246,"iable":7247,"Ġlesson":7248,"Ġbasically":7249,"Ġtag":7250,"ĠThus":7251,"ĠWatch":7252,"utch":7253,"ĠSP":7254,"Ġthorough":7255,"Ġordered":7256,"lastname":7257,"umes":7258,"Ġapproval":7259,".|":7260,"lements":7261,"Ġpink":7262,"HS":7263,"His":7264,"ĠDie":7265,"Ġduty":7266,"âĢĻ,":7267,"Col":7268,"Ġgolf":7269,"Ġagric":7270,"Ġtwe":7271,"ĠCoast":7272,"Ġcontemporary":7273,"Ġinstrument":7274,"ĠContact":7275,"Ġdownt":7276,"Ġmanaging":7277,"Ġcompr":7278,"lyn":7279,"Ġstreets":7280,"Ġshiny":7281,"Ġexceed":7282,"bered":7283,"Ġtrick":7284,"%.":7285,"Ġfaculty":7286,"liament":7287,"Ġchoosing":7288,"Ġdirected":7289,"Ġmuscle":7290,"Ġfaces":7291,"Ġindex":7292,"Ġwest":7293,"Ġclar":7294,"begin":7295,"Ġinterior":7296,"Ġapplicable":7297,"Ġtechnique":7298,"ĠForm":7299,"ĠLeg":7300,"ĠHor":7301,"aylor":7302,"berry":7303,"Ġguidelines":7304,"pha":7305,"ificate":7306,"abel":7307,"ument":7308,"Ġfounded":7309,"ĠMP":7310,"ĠPhys":7311,"ĠAccount":7312,"Ġreputation":7313,"Ġgenerate":7314,"Ġacting":7315,"Ġafraid":7316,"ĠCert":7317,"Ġcreates":7318,"Ġcommunications":7319,"Ġsignal":7320,"Ġbare":7321,"ĠMedicine":7322,"Ġrose":7323,"Ġprecise":7324,"Ġfasc":7325,"Ġlucky":7326,"Ġhabit":7327,"amental":7328,"!!!":7329,"ommy":7330,"then":7331,"Ġachieved":7332,"och":7333,"Ġrecording":7334,"iano":7335,"Ġexplains":7336,"ello":7337,"Book":7338,"Ġanxiety":7339,"Ġprospect":7340,"ifies":7341,"issions":7342,"ĠScot":7343,"Ġapartment":7344,"Ġoutstanding":7345,"ĠSupreme":7346,"stein":7347,"ĠPass":7348,"ĠGames":7349,"athy":7350,"Ġamounts":7351,"Ġhang":7352,"Ġengaged":7353,"Ġeligible":7354,"ĠInstagram":7355,"Ġexec":7356,"orable":7357,"ĠJun":7358,"ĠStudies":7359,"Ġterrit":7360,"ĠPlace":7361,"Ġconfig":7362,"ĠHon":7363,"Ġinvited":7364,"RS":7365,"ĠMS":7366,"Ġintegrated":7367,"ĠAS":7368,"Ġbathroom":7369,"ĠCast":7370,"Ġ1999":7371,"cue":7372,"Ġlie":7373,"Ġease":7374,"lude":7375,"Ġlessons":7376,"Ġheav":7377,"bel":7378,"ĠMarketing":7379,"Ġnormally":7380,"ĠSometimes":7381,"AB":7382,"Ġtech":7383,"ĠAndrew":7384,"Ġpushed":7385,"Ġobviously":7386,"Ġtalks":7387,"Ġerr":7388,"ĠJersey":7389,"Ġsupplies":7390,"Ġbeer":7391,"Ġ33":7392,"ĠGeorgia":7393,"Ġlawyer":7394,"REE":7395,"Ġtransportation":7396,"Ġdefinition":7397,"Ġmoves":7398,"Ġattended":7399,"Ġflower":7400,"ĠDivision":7401,"ĠÂ»":7402,"oned":7403,"Ġpp":7404,"Ġwise":7405,"Ġbrowser":7406,"Ġsolve":7407,"Ġpra":7408,"Ġphotograp":7409,"Ġstayed":7410,"etry":7411,"Ġ1990":7412,"ĠPrice":7413,"amber":7414,"Ġsuddenly":7415,"Ġaccord":7416,"ĠHard":7417,"Ġsauce":7418,"ĠUsing":7419,"Ġyards":7420,"pack":7421,"plete":7422,"worth":7423,"Ġfinds":7424,"Ġdrawing":7425,"Ġremem":7426,"Ġchose":7427,"ppers":7428,"quality":7429,"Ġfinance":7430,"Ġauto":7431,"ixture":7432,"Ġcock":7433,"ĠMult":7434,"Hi":7435,"Ġgambling":7436,"Ġpipe":7437,"ĠPoint":7438,"ĠHolly":7439,"inent":7440,"ĠPrem":7441,"Ġfeaturing":7442,"Ġqualified":7443,"ĠKn":7444,"LY":7445,"Ġreaction":7446,"neys":7447,"ĠUt":7448,"url":7449,"View":7450,"64":7451,"Ġcontributions":7452,"Ġatmosphere":7453,"ĠHoly":7454,"Ġslide":7455,"Ġmortgage":7456,"anna":7457,"Ġwave":7458,"Ġaside":7459,"ĠColorado":7460,"Ġvend":7461,"teen":7462,"isa":7463,"obs":7464,"ĠNon":7465,"Ġexperiment":7466,"Ġclaimed":7467,"Ġscored":7468,"Ġdepends":7469,"Ġperforming":7470,"ĠYet":7471,"Ġprofessor":7472,"Ġpleased":7473,"Ġshel":7474,"ults":7475,"Ġconscious":7476,"Per":7477,"VE":7478,"Ġstake":7479,"Ġweapons":7480,"ĠCre":7481,"Ġhoping":7482,"tle":7483,"iments":7484,"Ġbridge":7485,"Ġ38":7486,"ĠAgain":7487,"Ġsizes":7488,"ĠiP":7489,"ghan":7490,"ĠCa":7491,"zer":7492,"Ġparam":7493,"Ġremained":7494,"Ġknock":7495,"ĠFarm":7496,"oir":7497,"Ġpotentially":7498,"unny":7499,"Ġnob":7500,"arks":7501,"Ġhire":7502,"Ġdrag":7503,"ĠMov":7504,"ĠWrit":7505,"Ġvictims":7506,"Ġlargely":7507,"300":7508,"erate":7509,"case":7510,"Ġborrow":7511,"Ġreduction":7512,"Ġsomewhat":7513,"onna":7514,"Ġsomewhere":7515,"rip":7516,"Ġreader":7517,"enger":7518,"coin":7519,"ologist":7520,"Ġthread":7521,"ĠFour":7522,"Ġtank":7523,"ĠHelp":7524,"othe":7525,"zing":7526,"weet":7527,"ĠInf":7528,"des":7529,"quir":7530,"Ġsuspect":7531,"Ġconsideration":7532,"Ġsheet":7533,"Ġillegal":7534,"Ġlimits":7535,"Ġgaming":7536,"ĠLtd":7537,"ĠEll":7538,"Ġrepeated":7539,"Ġpermanent":7540,"ystem":7541,"Ġyield":7542,"front":7543,"Ġmembership":7544,"ĠKim":7545,"asts":7546,"ĠOil":7547,"ĠTax":7548,"Ġpurs":7549,"Ġdoctors":7550,"ĠSher":7551,"Ġtap":7552,"Ġswing":7553,"Ġconserv":7554,"Pr":7555,"ĠPacific":7556,"Ġchances":7557,"Ġsubmitted":7558,"Ġcomponent":7559,"Ġluck":7560,"inton":7561,"FC":7562,"inte":7563,"umps":7564,"Ġfirms":7565,"Ġdivid":7566,"tocol":7567,"ennis":7568,"Ð°":7569,"ĠConf":7570,"Ġsavings":7571,"Ġunderstood":7572,"iger":7573,"ogy":7574,"Ġvisited":7575,"RI":7576,"Ġformal":7577,"ters":7578,"ĠFather":7579,"Ġhasn":7580,"Ġreducing":7581,"Ġhardware":7582,"ĠZeal":7583,"Ġobserved":7584,"Ġexistence":7585,"Ġroot":7586,"rently":7587,"ĠPot":7588,"âĢ¦.":7589,"reement":7590,"Ġhide":7591,"Ġera":7592,"making":7593,"Ġmurder":7594,"Ġinterface":7595,"Ġheads":7596,"Ġproven":7597,"Ġhistoric":7598,"Ġoccurred":7599,"ellectual":7600,"ureau":7601,"live":7602,"uster":7603,"Ġdiseases":7604,"Ġoverwhel":7605,"Ġcausing":7606,"Thanks":7607,"stra":7608,"Ġpond":7609,"Ġflexible":7610,"ĠVideo":7611,"Ġrecommendations":7612,"Ġjur":7613,"cia":7614,"Ġempty":7615,"Ġtradition":7616,"TER":7617,"including":7618,"Ġweekly":7619,"idays":7620,"Ġdreams":7621,"Ġbat":7622,"Ġrevolution":7623,"Ġreject":7624,"Ġpoker":7625,"gor":7626,"arters":7627,"Ġcouncil":7628,"Ġthinks":7629,"Ġairport":7630,"ĠPract":7631,"Ġsurprising":7632,"Ġsuf":7633,"Ġnarrow":7634,"Ġcapture":7635,"Ġinteract":7636,"ĠAdministration":7637,"Ġhits":7638,"ĠKey":7639,"ĠCra":7640,"Ġgentle":7641,"ĠWebsite":7642,"Ġbedroom":7643,"Ġzone":7644,"Ġscientists":7645,"section":7646,"Ġtwenty":7647,"ĠSanta":7648,"Ġfro":7649,"Ġextract":7650,"Ġtransp":7651,"market":7652,"Ġprogramme":7653,"ran":7654,"Ġflying":7655,"Ġsearching":7656,"Ġseed":7657,"ĠCe":7658,"Ġfishing":7659,"Ġanyway":7660,"Ġdestination":7661,"ĠBudd":7662,"Ġcrypt":7663,"ĠLin":7664,"Ġcategories":7665,"American":7666,"Ġcurious":7667,"ĠDownload":7668,"asant":7669,"ione":7670,"alysis":7671,"Ġregions":7672,"ĠJoseph":7673,"Ġdrinking":7674,"ĠMach":7675,"ĠĠĠ":7676,"Ġneither":7677,"made":7678,"Ġindustries":7679,"Ġretirement":7680,"Ġpleasure":7681,"pir":7682,"ĠRose":7683,"Ġplot":7684,"EP":7685,"Ġenforcement":7686,"ĠBon":7687,"bet":7688,"ĠEngineering":7689,"Ġcable":7690,"Ġrecognition":7691,"sters":7692,"Ġfindings":7693,"Ġcontinuing":7694,"Ġgifts":7695,"ura":7696,"58":7697,"Ġcoal":7698,"Ġattached":7699,"ĠAsian":7700,"Ġaccomplish":7701,"ĠFriend":7702,"cific":7703,"Ġcompliance":7704,"ĠZealand":7705,"Ġsupplement":7706,"Ġliterature":7707,"Ġreplacement":7708,"leep":7709,"Ġprotest":7710,"ĠFred":7711,"ĠDog":7712,"Ġaggress":7713,"rieved":7714,"ĠEs":7715,"Ġdining":7716,"Ġevil":7717,"Ġclothing":7718,"Pub":7719,"uct":7720,"Ġhosting":7721,"Ġgod":7722,"inking":7723,"Bec":7724,"ĠDisney":7725,"Ġalive":7726,"ĠYouTube":7727,")(":7728,"being":7729,"ati":7730,"Ġawards":7731,"Ġblank":7732,"Ġvacation":7733,"Ġopposite":7734,"Ġeast":7735,"ruption":7736,"Ġbehalf":7737,"ĠCorporation":7738,"ĠFar":7739,"Ġwithdraw":7740,"Ġbench":7741,"ĠHa":7742,"Ġunus":7743,"ĠSystems":7744,"Ġbroadcast":7745,"ĠBox":7746,"phy":7747,"Ġbrill":7748,"Ġconsequences":7749,"Ġ150":7750,"Ġrecon":7751,"ĠMeet":7752,"Ġpossess":7753,"ĠBush":7754,"69":7755,"adel":7756,"Ġgiant":7757,"Ġhill":7758,"ESS":7759,"Reg":7760,"ounter":7761,"Ġplane":7762,"Ġsending":7763,"ĠPsych":7764,"Ġprosec":7765,"Ġoutcomes":7766,"VER":7767,"etary":7768,"adium":7769,"Ġoffices":7770,"oured":7771,"Ġrental":7772,"ĠStudents":7773,"Ġpublication":7774,"Ġshouldn":7775,"ilst":7776,"zona":7777,"Ġawarded":7778,"Ġreplaced":7779,"ĠKingdom":7780,"Ġpermission":7781,"ĠSn":7782,"Ġgay":7783,"Ġgranted":7784,"ĠClin":7785,"Â·":7786,"Ġphr":7787,"ounded":7788,"Ġgenuine":7789,"Ġinspiration":7790,"Ġhopes":7791,"Ġproposal":7792,"itals":7793,"Ġattractive":7794,"uffy":7795,"Ġtur":7796,"Free":7797,"Ġjew":7798,"Sub":7799,"52":7800,"ML":7801,"Ġtab":7802,"foot":7803,"ĠExpl":7804,"Ġwhenever":7805,"ĠLow":7806,"iversary":7807,"raine":7808,"Ġfirstname":7809,"Ġversions":7810,"Ġweren":7811,"friendly":7812,"rated":7813,"Ġincredibly":7814,"anned":7815,"thew":7816,"Ġregardless":7817,"ĠHarr":7818,"Ġlighting":7819,"Ġfilter":7820,"Ġ34":7821,"Ġfestival":7822,"Ġstronger":7823,"Ġconsent":7824,"ĠColl":7825,"lessly":7826,"essel":7827,"Ġcos":7828,"ventional":7829,"Ġorigin":7830,"Ġstructures":7831,"EA":7832,"Ġgear":7833,"Ġoutcome":7834,"ĠPo":7835,"Ġ37":7836,"ouch":7837,"oved":7838,"inson":7839,"Ġdust":7840,"ateful":7841,"Ġportfolio":7842,"ĠLiber":7843,"ĠBrazil":7844,"................":7845,"ĠJac":7846,"Ġprohib":7847,"Ġexpansion":7848,"Ġads":7849,"onto":7850,"nda":7851,"icted":7852,"Ġflour":7853,"Before":7854,"ĠOk":7855,"Ġje":7856,"acle":7857,"Ġate":7858,"ĠPen":7859,"Ġtreatments":7860,"Ġconsumption":7861,"Ġshots":7862,"Ġclock":7863,"Ġcontrolled":7864,"ba":7865,"CD":7866,"Ġpitch":7867,"Ġdivision":7868,"ampion":7869,"igen":7870,"Ġinner":7871,"Ġvirus":7872,"Ġ1998":7873,"Ġcommonly":7874,"ĠDaniel":7875,"Ġfraud":7876,"Ġpounds":7877,"iral":7878,"acc":7879,"68":7880,"Part":7881,"ĠAsh":7882,"Ġoven":7883,"Ġlies":7884,"Ġfavourite":7885,"ĠMrs":7886,"Ġending":7887,"Ġcompensation":7888,"Ġmemories":7889,"lers":7890,"itis":7891,"Ġhappily":7892,"Ġcapabilities":7893,"Ġsplit":7894,"ĠNote":7895,"Ġequival":7896,"uration":7897,"cular":7898,"Ġluxury":7899,"Ġtracks":7900,"Ġframework":7901,"ĠSpace":7902,"riers":7903,"Ġdevelopers":7904,"uter":7905,"ĠHeart":7906,"ressed":7907,"Ġfitness":7908,"star":7909,"plate":7910,"ĠSea":7911,"stery":7912,"Next":7913,"Ġrig":7914,"Ġpit":7915,"Ġscheme":7916,"Ġfundamental":7917,"Ġcomparison":7918,"Ġasks":7919,"Ġpriority":7920,"ĠEveryone":7921,"Ġexception":7922,"Ġwra":7923,"Ġ400":7924,"Ġalongside":7925,"Ġundert":7926,"Ġarchitecture":7927,"missions":7928,"Sec":7929,"athan":7930,"lled":7931,"Home":7932,"_{\\":7933,"Ġinvolving":7934,"Ġeggs":7935,"Ġspark":7936,"Ġcommunicate":7937,"Gu":7938,"Ġworried":7939,"ĠSU":7940,"iece":7941,"Ã¢":7942,"Ġharder":7943,"page":7944,"Ġrear":7945,"Ġsharp":7946,"cover":7947,"igation":7948,"arry":7949,"vi":7950,"ĠBlog":7951,"ĠNever":7952,"Ġdynamic":7953,"uing":7954,"Ġsubscrib":7955,"Ġ39":7956,"ATE":7957,"ĠLabor":7958,"OK":7959,"icide":7960,"imize":7961,"Rep":7962,"Ġrating":7963,"Ġrising":7964,"Ġmoist":7965,"Ġstyles":7966,"Ġunw":7967,"ĠCond":7968,"ĠArea":7969,"Ġassume":7970,"ĠJane":7971,"Ġpace":7972,"Ġwash":7973,"Ġresidential":7974,"57":7975,"ĠForce":7976,"ocracy":7977,"Sm":7978,"ĠQuest":7979,"Ġpresents":7980,"inois":7981,"Ġfo":7982,"ĠThree":7983,"ĠDaily":7984,"ĠCivil":7985,"ĠPersonal":7986,"Ġstrike":7987,"Ġru":7988,"\\\\\\\\\\\\\\\\\\\\\\\\\\\\\\\\":7989,"ĠSus":7990,"Ġconnections":7991,"iti":7992,"ĠFre":7993,"Ġbranch":7994,"Ġputs":7995,"Ġpig":7996,"Ġfalling":7997,"blog":7998,"Ġflash":7999,"Ġtip":8000,"Ġcontained":8001,"Have":8002,"Ġbact":8003,"Ġnaturally":8004,"ĠOrder":8005,"Ġliterally":8006,"Ġmanual":8007,"ĠSky":8008,"iki":8009,"Ġcarrying":8010,"Ġpointed":8011,"ĠTravel":8012,"Ġdriven":8013,"anes":8014,"izz":8015,"TV":8016,"Ġdebut":8017,"ĠVill":8018,"Ġintroduction":8019,"Ġstrict":8020,"bridge":8021,"ikes":8022,"53":8023,"Ġboss":8024,"erman":8025,"Ġbab":8026,"inity":8027,"Ġsoph":8028,"ership":8029,"ceived":8030,"Ġsensitive":8031,"ĠWorks":8032,"aved":8033,"Ġuncom":8034,"Ġproducing":8035,"una":8036,"ĠDub":8037,"ava":8038,"ĠMill":8039,"ĠHenry":8040,"Ġzero":8041,"anny":8042,"Ġcoc":8043,"Ġdesigner":8044,"icity":8045,"dis":8046,"ĠSH":8047,"Her":8048,"ĠStan":8049,"ĠPerform":8050,"otton":8051,"Ġdesired":8052,"Ġinfection":8053,"letter":8054,"urities":8055,"urd":8056,"Ġrecover":8057,"ĠNorthern":8058,"aine":8059,"Ġcopyright":8060,"Ġemployer":8061,"swe":8062,"ĠRay":8063,"ilty":8064,"Ġdump":8065,"Ġescape":8066,"Ġneighb":8067,"ĠUlt":8068,"iah":8069,".;":8070,"Ġmini":8071,"ĠJr":8072,"ĠThough":8073,"ĠEnt":8074,"ĠDisc":8075,"Med":8076,"Ġinvestments":8077,"uma":8078,"Ġstead":8079,"tics":8080,"Ġcute":8081,"Ġultimate":8082,"Ġsaving":8083,"Ġkm":8084,"Ġuncertain":8085,"Ġconcerning":8086,"Ġmarked":8087,"Ġdepression":8088,"inch":8089,"Ġentitled":8090,"Ġjoining":8091,"Ġhealing":8092,"Ġlatter":8093,"Ġadvent":8094,"Ġfaced":8095,"Ġexplan":8096,"ĠDate":8097,"Ġbrave":8098,"ĠDid":8099,"Ġensuring":8100,"Ġrequirement":8101,"tense":8102,"ĠFox":8103,"gel":8104,"uous":8105,"Ġisol":8106,"54":8107,"Ġdrawn":8108,"67":8109,"Ġbone":8110,"hemat":8111,"Ġthanked":8112,"ĠInsurance":8113,"ĠRam":8114,"bow":8115,"Ġinsight":8116,"Ġeverybody":8117,"Ġsubjects":8118,"ĠRyan":8119,"Press":8120,"Ġunknown":8121,"Ġfing":8122,"Good":8123,"ĠEss":8124,"Ġblind":8125,"Ġgenerated":8126,"Ġmob":8127,"Ġconsists":8128,"Ġparticipation":8129,"abeth":8130,"Ġrelative":8131,"uties":8132,"izer":8133,"Ġavailability":8134,"ĠHope":8135,"Ġelected":8136,"Ġjudgment":8137,"Jo":8138,"Ġreact":8139,"Ġunion":8140,"umm":8141,"ĠKorea":8142,"Ġpersonality":8143,"ĠRon":8144,"CS":8145,"Ġcontrols":8146,"ĠTer":8147,"ĠPop":8148,"ĠBritain":8149,"Ġmanagers":8150,"ĠConnect":8151,"Ġmole":8152,"Ġnewly":8153,"Ġcharm":8154,"Ġapparently":8155,"Ġconcrete":8156,"Ġpreferred":8157,"Ġoppon":8158,"Ġadopted":8159,"born":8160,"Ġmeals":8161,"vania":8162,"ĠWH":8163,"Ġstable":8164,"amps":8165,"Ġheaven":8166,"ĠKent":8167,"haust":8168,"ĠAdditionally":8169,"ints":8170,"ĠSearch":8171,"ĠTraining":8172,"Ġapproaches":8173,"Ġcriteria":8174,"ĠShould":8175,"Follow":8176,"Ġjuice":8177,"ĠSuch":8178,"Ġdispos":8179,"bury":8180,"Aut":8181,"Ġbetting":8182,"Ġassociation":8183,"iami":8184,"ĠAgency":8185,"apore":8186,"Ġtransaction":8187,"Ġpreparation":8188,"Ġbreaking":8189,"usal":8190,"Ġalt":8191,"Ġscenes":8192,"ĠSarah":8193,"ĠLLC":8194,"Ġpubl":8195,"Ġgovernments":8196,"Ġlegit":8197,"Ġrequests":8198,"aze":8199,"tes":8200,"iser":8201,"Ġexposed":8202,"Ġdefault":8203,"ĠAwards":8204,"Ġmanufacturer":8205,"800":8206,"Ġencouraged":8207,"âĢ¦]":8208,"usive":8209,"Ġdiabetes":8210,"Ġpowers":8211,"Ġpowder":8212,"Ġmood":8213,"ĠHun":8214,"Ġdivor":8215,"Ġrural":8216,"ocated":8217,"Ġacceler":8218,"Co":8219,"Ġ?":8220,"ensus":8221,"isd":8222,"ĠSpain":8223,"anwhile":8224,"ĠMA":8225,"ĠFord":8226,"Ġchannels":8227,"Ġarrive":8228,"Ġbags":8229,"sub":8230,"ĠTurn":8231,"Ġmaintaining":8232,"claim":8233,"Ġlaid":8234,"Whe":8235,"ĠFact":8236,"Ġarrested":8237,"ho":8238,"Ġquote":8239,"ĠField":8240,"zed":8241,"Ġcenters":8242,"Ġtonight":8243,"Ġlect":8244,"ruits":8245,"Because":8246,"roke":8247,"lls":8248,"Ġacquis":8249,"ouston":8250,"Ġcolleagues":8251,"ĠTaylor":8252,"izza":8253,"Ġenterprise":8254,"Ġcomplicated":8255,"Ġprovision":8256,"ĠAI":8257,"ĠPut":8258,"ĠOfficer":8259,"Ġrely":8260,"Ġsacr":8261,"Ġsought":8262,"ĠAvenue":8263,"Will":8264,"df":8265,"Ġevaluation":8266,"âĤ¬":8267,"ĠFinally":8268,"Ġmatches":8269,"ĠArticle":8270,"Ġtitles":8271,"ador":8272,")$":8273,"wan":8274,"ulum":8275,"Ġnic":8276,"Ġadequ":8277,"Ġrecy":8278,"Ġdiversity":8279,"Ben":8280,"Ġdeeply":8281,"Mom":8282,"rection":8283,"ĠWhich":8284,"Ġcertified":8285,"Ġinitiative":8286,"ilipp":8287,"ĠðŁ":8288,"ĠBa":8289,"Ġliability":8290,"anted":8291,"ĠAp":8292,"isdom":8293,"Ġpassword":8294,"ĠLy":8295,"remony":8296,"Ġcharacteristics":8297,"sts":8298,"Ġ($":8299,"icket":8300,"Ġ;":8301,"Ġfinger":8302,"ĠProper":8303,"aska":8304,"ĠSmall":8305,"aron":8306,"Ġlapt":8307,"Ġraw":8308,"ĠCON":8309,"oken":8310,"uddenly":8311,"war":8312,"Ġintense":8313,"Ġelectricity":8314,"Ġstunning":8315,"Ġhyper":8316,"pending":8317,"ortion":8318,"Ġsuffered":8319,"Ġobserv":8320,"ĠBuilding":8321,"enth":8322,"Ġlake":8323,"Ã¼":8324,"Ġloyal":8325,"Ġoccurs":8326,"ĠTreat":8327,"Ġcompare":8328,"Ġsynt":8329,"Ġaircraft":8330,"ĠSat":8331,"Ġmarks":8332,"this":8333,"iac":8334,"Ġobst":8335,"FA":8336,"Ġmerch":8337,"Jan":8338,"Ġcalm":8339,"Ġforum":8340,"ĠPrime":8341,"Ġcuts":8342,"Ġevolution":8343,"ĠQueen":8344,"Ġwins":8345,"Ġcontrovers":8346,"ĠCR":8347,"Ġsuffer":8348,"Ġphotography":8349,"iary":8350,"ĠEth":8351,"Ġprinted":8352,"words":8353,"Ġrepresented":8354,"isted":8355,"Ġstring":8356,"Ġ1980":8357,"ĠIrish":8358,"EG":8359,"51":8360,"Ġgap":8361,"Ġstored":8362,"Ġrespectively":8363,"Ġcourts":8364,"raction":8365,"Ġconclusion":8366,"jo":8367,"Ġdiscrim":8368,"Ġorange":8369,"Ġcolon":8370,"ĠResp":8371,"Ġcolumn":8372,"run":8373,"stal":8374,"Ġopinions":8375,"Ġsinging":8376,"ĠArizona":8377,"gorith":8378,"Ġvent":8379,"ĠEst":8380,"Ġextension":8381,"nders":8382,"Ġwrites":8383,"ormal":8384,"bell":8385,"Ġflavor":8386,"Ġtox":8387,"ĠMir":8388,"Like":8389,"Ġenjoying":8390,"ja":8391,"Ġprogramming":8392,"ĠRa":8393,"rogen":8394,"ĠCommon":8395,"Ġmanufacturers":8396,"Ġwake":8397,"Ġnations":8398,"ĠPakistan":8399,"Ġgained":8400,"Ġmistake":8401,"Ġdemands":8402,"gent":8403,"syl":8404,"ĠViet":8405,"ĠLi":8406,"angle":8407,"Ġocean":8408,"Ġ(âĢľ":8409,"Ġtub":8410,"Ġseasons":8411,"ĠCapital":8412,"ped":8413,"Ġclassroom":8414,"ĠOS":8415,"Ġprize":8416,"Ġinjured":8417,"Ġcovering":8418,"cm":8419,"Ġnewspaper":8420,"Ġelectrical":8421,"Ġ42":8422,"Ġstaying":8423,"Ġvisible":8424,"87":8425,"ĠRef":8426,"Ġgrace":8427,"}{":8428,"ĠSafety":8429,"Ġbasketball":8430,"ĠBall":8431,"ĠGarden":8432,"Ġfunctional":8433,"ordan":8434,"epend":8435,"ĠStore":8436,"ĠED":8437,"Ġphenomen":8438,"Ð¸":8439,"chester":8440,"},":8441,"MC":8442,"Ġinitially":8443,"ĠBroad":8444,"Ġnose":8445,"rix":8446,"Ġdecent":8447,"vard":8448,"Ã³":8449,"Inst":8450,"Ġpocket":8451,"iking":8452,"utors":8453,"Ġtact":8454,"Ġtroub":8455,"eling":8456,"2013":8457,"nce":8458,"Ġdeeper":8459,"Ġcow":8460,"html":8461,"Ġfrustr":8462,"ĠCase":8463,"Ġhandling":8464,"Ġobjective":8465,"ĠProm":8466,"ĠHollywood":8467,"ĠGreek":8468,"Ġmile":8469,"ĠIllinois":8470,"ĠMD":8471,"Ġthousand":8472,"Ġmerely":8473,"Ġstrongly":8474,"Ġ49":8475,"Ġindicate":8476,"Ġenables":8477,"ĠCarl":8478,"ĠMess":8479,"Ġlift":8480,"ĠâĢĻ":8481,"ART":8482,"Ġbills":8483,"aintiff":8484,"Ġheaded":8485,"Ġusage":8486,"Ġtransactions":8487,"Ġspokes":8488,"Ġchildhood":8489,"Ġemotions":8490,"erts":8491,"ĠLearning":8492,"Ġ1997":8493,"Ġclosing":8494,"Ġshops":8495,"ĠAgreement":8496,"nesota":8497,"Ġgate":8498,"Ġslots":8499,"Ġconvin":8500,"ulating":8501,"ĠLearn":8502,"ĠRequ":8503,"itutional":8504,"Ġloving":8505,"ials":8506,"ĠEastern":8507,"Ġvibr":8508,"Ġseats":8509,"ificial":8510,"ĠType":8511,"boy":8512,"Ġtie":8513,"ĠLind":8514,"Ġvessel":8515,"Ġminister":8516,"Ġham":8517,"ĠLocal":8518,"fall":8519,"Ġequity":8520,"AND":8521,"ĠDO":8522,"Ġtone":8523,"Two":8524,"Best":8525,"Ġsections":8526,"ĠStock":8527,"unicip":8528,"umer":8529,"ĠRoom":8530,"Ġaccordance":8531,"ĠRod":8532,"ĠTable":8533,"Ġtraveling":8534,"%,":8535,"ĠCru":8536,"ĠStill":8537,"Tra":8538,"Note":8539,"Ġactor":8540,"Ġlists":8541,"Ġconcert":8542,"Ġbunch":8543,"sylvania":8544,"Ġrice":8545,"Ġ65":8546,"Ġgrateful":8547,"Ġrepresentative":8548,"ali":8549,"Ġfifth":8550,"Ġmixture":8551,"izabeth":8552,"ilton":8553,"ĠPRO":8554,"atell":8555,"Ġstages":8556,"acher":8557,"Ġprayer":8558,"Ġtissue":8559,"HA":8560,"Ġrapidly":8561,"Ġasset":8562,"Ġlets":8563,"Ġfalls":8564,"TR":8565,"Ġcann":8566,"Ġtrave":8567,"Ġentering":8568,"olis":8569,"ĠIII":8570,"Ġboxes":8571,"ĠPolit":8572,"Ġbars":8573,"Rem":8574,"Ġstudied":8575,"Ġexhibition":8576,"Ġaband":8577,"Ġpurchasing":8578,"ĠBang":8579,"Ġforecast":8580,"Check":8581,"Art":8582,"eping":8583,"Ġfranch":8584,"ĠCN":8585,"Ġdollar":8586,"ĠSoftware":8587,"Ġsubstantial":8588,"Ġscan":8589,"Ġreturning":8590,"ĠSav":8591,"ĠKat":8592,"ĠLew":8593,"ĠPalest":8594,"Ġsmoke":8595,"GE":8596,"sect":8597,"Ġgotten":8598,"Ġchest":8599,"jection":8600,"Ġexists":8601,"Ġreserved":8602,"brid":8603,"ĠSenior":8604,"Ġsentence":8605,"2012":8606,"ĠDar":8607,"Ġleather":8608,"ĠMos":8609,"dated":8610,"ĠNumber":8611,"Ġkiss":8612,"Ġflag":8613,"Ġremoval":8614,"Ġinstant":8615,"Ġspots":8616,"Ġbatt":8617,"Ġtor":8618,"Ġupload":8619,"ĠUr":8620,"Ġshower":8621,"iot":8622,"cut":8623,"Ġcontribution":8624,"lections":8625,"heast":8626,"Ġengaging":8627,"Ġcalendar":8628,"ĠDavis":8629,"Ġrestrictions":8630,"irts":8631,"ĠAdam":8632,"Ġvice":8633,"ĠTele":8634,"Ġvegetables":8635,"iffe":8636,"Ġconcepts":8637,"Ġ55":8638,"ĠMountain":8639,"Ġlin":8640,"abb":8641,"ĠCountry":8642,"ller":8643,"annel":8644,"ĠMah":8645,"Ġmac":8646,"Ġarmy":8647,"phia":8648,"''":8649,"ĠDun":8650,"ĠTry":8651,"Ġlanguages":8652,"Ġfrog":8653,"ĠSummer":8654,"icious":8655,"eters":8656,"Ġassistant":8657,"Ġintellectual":8658,"pson":8659,"Ġsamples":8660,"ĠCBD":8661,"Fi":8662,"Ġunusual":8663,"eras":8664,"Ġ1996":8665,"Ġchronic":8666,"vas":8667,"ĠFall":8668,"Ġadvantages":8669,"Ġsubsid":8670,"ĠSwed":8671,"ĠFoot":8672,"ĠCredit":8673,"Ġintegration":8674,"Ġshoulder":8675,"Sim":8676,"ĠDemocratic":8677,"alog":8678,"Ġapplying":8679,"wart":8680,"Ġsurve":8681,"Ġdental":8682,"Comm":8683,"Ġequally":8684,"ĠNic":8685,"Ġfocuses":8686,"Ġfur":8687,"Ġ[âĢ¦]":8688,"Ġlosses":8689,"zes":8690,"aters":8691,"Ġpersonnel":8692,"400":8693,"iour":8694,"Ġshout":8695,"cker":8696,"CL":8697,"ĠMobile":8698,"Ġsuperior":8699,"burgh":8700,"Lear":8701,"Ġscope":8702,"Ġassault":8703,"ĠNFL":8704,"bro":8705,"ifer":8706,"Ġmeets":8707,"Ġtournament":8708,"Ġindicated":8709,"Ġimprovements":8710,"Ġbaseball":8711,"==":8712,"Ġtherap":8713,"Step":8714,"rite":8715,"Ġopposition":8716,"%)":8717,"onic":8718,"Ġfocusing":8719,"books":8720,"Ġequivalent":8721,"Ġgreatly":8722,"looking":8723,"Ġintention":8724,"Ġswimming":8725,"eties":8726,"Ġattitude":8727,"Ġstudying":8728,"Cons":8729,"Ġratio":8730,"je":8731,"Ġweird":8732,"Ġphones":8733,"ccer":8734,"Ġtape":8735,"ĠFun":8736,"ĠNeed":8737,"andy":8738,"Ġattempts":8739,"Ġhugged":8740,"adelphia":8741,"Ġguilty":8742,"ritten":8743,"ĠTech":8744,"ĠDam":8745,"ĠGuard":8746,"ĠRos":8747,"Ġpromised":8748,"ĠTal":8749,"People":8750,"ĠDNA":8751,"Hello":8752,"child":8753,"orous":8754,"Wor":8755,"Ġexhaust":8756,"Ġlogo":8757,"gov":8758,"Back":8759,"Ġmad":8760,"bbed":8761,"ĠÎ":8762,"Ġessentially":8763,"Ġwarning":8764,"ĠRun":8765,"Ġreaching":8766,"Ġseeds":8767,"alty":8768,"pany":8769,"Ġtracking":8770,"Ġtum":8771,"ERE":8772,"Ġcontaining":8773,"ĠUnfortunately":8774,"Ġdismiss":8775,"inals":8776,"ĠHold":8777,"intage":8778,"regon":8779,"Ġcoat":8780,"ĠAge":8781,"ington":8782,"nell":8783,"was":8784,"athered":8785,"Ġstruggling":8786,"ĠCP":8787,"ĠColumbia":8788,"ĠMinistry":8789,"ĠCro":8790,"ĠHaving":8791,"ĠDVD":8792,"ĠFilm":8793,"Ġcontracts":8794,"ĠAction":8795,"ĠRen":8796,"Ġmm":8797,"ounce":8798,"Ġstir":8799,"ĠBrad":8800,"ĠBit":8801,"link":8802,"mma":8803,"ardens":8804,"ffective":8805,"iform":8806,"Ġinteraction":8807,"Ġtied":8808,"Ġeleg":8809,"Ġopens":8810,"Ġspray":8811,"Ġfarmers":8812,"Ġrequested":8813,"DP":8814,"ught":8815,"Ġimper":8816,"Oct":8817,"Ġnerv":8818,"ĠProdu":8819,"Ġvoters":8820,"iscal":8821,"Ġbuyers":8822,"swered":8823,"Ġpreparing":8824,"63":8825,"Ġreveal":8826,"phones":8827,"ĠDrive":8828,"Ġappointed":8829,"ĠEmer":8830,"Ġtemporary":8831,"ĠStudent":8832,"Ġorient":8833,"Ġpodcast":8834,"ĠSales":8835,"bits":8836,"Ġwanting":8837,"ĠStory":8838,"Ġperiods":8839,"world":8840,"Ġsuggestions":8841,"ĠDespite":8842,"Ġequipped":8843,"elta":8844,"UM":8845,"Ġemails":8846,"Ġcompat":8847,"Ġinstruction":8848,"Ġprivile":8849,"ĠMember":8850,"alo":8851,"Ġtooth":8852,"ĠHarry":8853,"ĠProtection":8854,"Ġpermit":8855,"ĠLatin":8856,"ĠRadio":8857,"ĠSilver":8858,"Ġfounder":8859,"istent":8860,"Ġgym":8861,"Ġbutt":8862,"ĠWithout":8863,"roduction":8864,"Ġrefund":8865,"Ġsecondary":8866,"Ġraising":8867,"RC":8868,"Ġfewer":8869,"ĠVegas":8870,"ĠSS":8871,"ĠMs":8872,"ĠMiami":8873,"days":8874,"Ġrelation":8875,"sex":8876,"Ġbomb":8877,"Ġacquired":8878,"ĠFac":8879,"Ġcombat":8880,"Ġsoldiers":8881,"Ġemployers":8882,"Ġlegend":8883,"Ġperm":8884,"UD":8885,"Ġbull":8886,"ĠName":8887,"Ġaims":8888,"ĠMiller":8889,"inator":8890,"Ġphilosophy":8891,"orses":8892,"Ġdecline":8893,"Ġprovisions":8894,"yes":8895,"ĠEric":8896,"Ġaccuracy":8897,"Ġcasinos":8898,"proof":8899,"ĠCub":8900,"ĠFa":8901,"ĠBru":8902,"Ġscores":8903,"Ġvolunteers":8904,"season":8905,"char":8906,"owa":8907,"organ":8908,"theless":8909,"Ġhosp":8910,"Ġinsights":8911,"Ġjewel":8912,"ĠSEO":8913,"61":8914,"Ġexploring":8915,"allas":8916,"Ġkilling":8917,"Ġroads":8918,"ĠLas":8919,"ĠBuy":8920,"GA":8921,"aka":8922,"Ġhungry":8923,"Ġlifetime":8924,"Ġorganis":8925,"Ġmargin":8926,"aped":8927,"liers":8928,"ĠChange":8929,"ĠRetrieved":8930,"ĠSciences":8931,"ĠLA":8932,"ucks":8933,"2014":8934,"ĠSingapore":8935,"Ġgarage":8936,"olid":8937,"Ġenthusi":8938,"ĠSC":8939,"ĠHouston":8940,"ĠPDF":8941,"ĠOl":8942,"LS":8943,"rot":8944,"ĠBeing":8945,"power":8946,"ĠPennsylvania":8947,"Ġleaf":8948,"Ġminimal":8949,"Ġcasual":8950,"Ġtelephone":8951,"apped":8952,"ĠEvent":8953,"Ġdanger":8954,"Ġregulatory":8955,"Ġintroduce":8956,"Ġcomputers":8957,"ĠLine":8958,"Ġopposed":8959,"aret":8960,"Ġsurvive":8961,"ĠKong":8962,"73":8963,"Ġinterviews":8964,"gi":8965,"Ġneut":8966,"ifting":8967,"ribe":8968,"quis":8969,"makers":8970,"awa":8971,"ĠMembers":8972,"Ġfiction":8973,"Ġpepper":8974,"Ġinvesting":8975,"Ġapple":8976,"Ġske":8977,"Ġerrors":8978,"Â©":8979,"Ġpromoting":8980,"vol":8981,"Ġprincipal":8982,"anguage":8983,"Ġhosted":8984,"heim":8985,"ĠAfghan":8986,"ipt":8987,"ĠMinnesota":8988,"sen":8989,"ulpt":8990,"Ġalarm":8991,"2017":8992,"Ġspeaker":8993,"Ġhoney":8994,"oric":8995,"Ġbeneficial":8996,"Ġ1970":8997,"Ġalter":8998,"Ġceremony":8999,"Ġdescribes":9000,"Ġuniverse":9001,"Ġjurisd":9002,"Ġwaters":9003,"62":9004,"Ġlicensed":9005,"Ġbrilliant":9006,"oves":9007,"ĠÂ©":9008,"Ġpretend":9009,"ira":9010,"fers":9011,"ĠPu":9012,"Ġmaintained":9013,"Finally":9014,"Ġmistakes":9015,"Ġpregnancy":9016,"mod":9017,"igg":9018,"ĠSmart":9019,"rets":9020,"Ġ1995":9021,"roller":9022,"ashes":9023,"Ġworkshop":9024,"Ġsunny":9025,"ĠOrig":9026,"Under":9027,"emed":9028,"ĠBrian":9029,"Ġdowntown":9030,"ĠDiego":9031,"ĠDark":9032,"agraph":9033,"icking":9034,"gener":9035,"Ġdemonstrate":9036,"Stud":9037,"Ġposting":9038,"frac":9039,"Ġstom":9040,"Ġdrinks":9041,"Ġpricing":9042,"Ġdefine":9043,"Ġemployed":9044,"Ġmedication":9045,"Ġaccused":9046,"Ġloose":9047,"ĠProcess":9048,"ĠToronto":9049,"addy":9050,"Ġdisplayed":9051,"Ġdirty":9052,"Ġriding":9053,"ko":9054,"ĠNatural":9055,"Ġsegment":9056,"71":9057,"ĠTerms":9058,"ĠBern":9059,"Ġjun":9060,"ĠNO":9061,"wich":9062,"ĠCab":9063,"Ġownership":9064,"Ġperformances":9065,"Ġ~":9066,"Ġdispl":9067,"Ġinch":9068,"Ġstations":9069,"Ġrefuge":9070,"mates":9071,"Ġconstit":9072,"Ġresponses":9073,"Ġsatisfaction":9074,"2016":9075,"Ġalgorith":9076,"Ġspecialist":9077,"iler":9078,"ĠPA":9079,"Ġprotocol":9080,"ĠAnth":9081,"riculum":9082,"month":9083,"98":9084,"Ġrecipes":9085,"Ġcomprom":9086,"ospel":9087,"ĠBooks":9088,"Ġadmitted":9089,"Ġresident":9090,"Ġanswered":9091,"orgeous":9092,"Ġrab":9093,"ĠSir":9094,"verty":9095,"ĠOK":9096,"ourse":9097,"Find":9098,"ĠLiving":9099,"Ġregulation":9100,"ĠBrook":9101,"Ġplain":9102,"ĠKenn":9103,"ĠWilson":9104,"Ġcurrency":9105,"rary":9106,"ĠProfessional":9107,"rer":9108,"Ġsouthern":9109,"iden":9110,"ĠNick":9111,"ĠVice":9112,"Ġenemy":9113,"Ġheading":9114,"Ġprinciple":9115,"ĠPS":9116,"step":9117,"iley":9118,"Ġantib":9119,"Ġmanif":9120,"ĠKevin":9121,"ĠPartners":9122,"ĠSteel":9123,"Ġvisits":9124,"omething":9125,"Ġarray":9126,"Ġreplied":9127,"Ġcircle":9128,"Ġdeploy":9129,"Ġtill":9130,"aza":9131,"Ġnodd":9132,"vious":9133,"ĠMother":9134,"ĠStudy":9135,"site":9136,"ibl":9137,"ordinary":9138,"ĠCasino":9139,"Ġassigned":9140,"Ġbrothers":9141,"upid":9142,"Ġelections":9143,"Ġfrequency":9144,"kel":9145,"assion":9146,"Ġminds":9147,"wl":9148,"Ġtomat":9149,"ĠHas":9150,"novation":9151,"âĢ¦âĢ¦":9152,"Ġgene":9153,"Ġpoverty":9154,"Ġflexibility":9155,"style":9156,"Ġchecking":9157,"after":9158,"BO":9159,"Ġemerging":9160,"Ġtrem":9161,"Ġdrama":9162,"Ġly":9163,"stract":9164,"Ġattach":9165,"Ġordinary":9166,"Ġmoon":9167,"udes":9168,"Ġhearts":9169,"edge":9170,"intend":9171,"Ġpride":9172,"Ġtrips":9173,"Top":9174,"ĠWi":9175,"ĠBul":9176,"sa":9177,"ĠPerhaps":9178,"Ġrelating":9179,"ĠOx":9180,"Ġsomebody":9181,"Ã¶":9182,"rape":9183,"achelor":9184,"Each":9185,"Ġexport":9186,"zzle":9187,"Ġinitiatives":9188,"ifted":9189,"ĠContent":9190,"ending":9191,"Ġprime":9192,"Ġnights":9193,"sis":9194,"Ġremembered":9195,"Ġsingles":9196,"2018":9197,"ĠSara":9198,"Ġemotion":9199,"Ġrecre":9200,"Ġadmit":9201,"Ġstatistics":9202,"mo":9203,"Ġinspe":9204,"Ġheavily":9205,"Ġkit":9206,"Ġpursue":9207,"ĠClinton":9208,"Aug":9209,"Ġimplemented":9210,"Ġdiscussions":9211,"ĠCustomer":9212,"ĠGolden":9213,"tical":9214,"fly":9215,"Ġpul":9216,"74":9217,"iatric":9218,"ĠRog":9219,"ĠBad":9220,"uten":9221,"Ġtoler":9222,"Ġwondering":9223,"Ġexplo":9224,"ĠSally":9225,"through":9226,"Ġgrab":9227,"Ġdivided":9228,"Ġmassage":9229,"Ġsinger":9230,"Ġresort":9231,"cor":9232,"Ġproducer":9233,"Gl":9234,"2015":9235,"Ġpacked":9236,"Max":9237,"ockey":9238,"ĠDream":9239,"Ġtargeted":9240,"ĠPhilipp":9241,"Ġacknowled":9242,"uating":9243,"Ġterrible":9244,"iences":9245,"EX":9246,"vation":9247,"Car":9248,"Ġformula":9249,"ilarly":9250,"odge":9251,"Ġsomehow":9252,"Ġmild":9253,"Ġstruck":9254,"ĠÂ·":9255,"ĠOak":9256,"Ġwestern":9257,"py":9258,"Ġestimate":9259,"Ġpilot":9260,"Ġdent":9261,"Ġsolo":9262,"Ġuniversities":9263,"anth":9264,"onymous":9265,"apping":9266,"etts":9267,"Ġfactory":9268,"Ġcelebration":9269,"Ġtransmission":9270,"Ġvolunteer":9271,"Ġinfect":9272,"ĠTrade":9273,"Ġdivide":9274,"Ġhadn":9275,"Ġstability":9276,"Ġproport":9277,"ĠHIV":9278,"Ġaddresses":9279,"ĠTheatre":9280,"cite":9281,"hour":9282,"Ġemissions":9283,"Ġaddressed":9284,"Ġexceptional":9285,"Ġlawsu":9286,"Ġaccounting":9287,"Ġ120":9288,"Ġtestim":9289,"ludes":9290,"Ġanniversary":9291,"Ġrum":9292,"âĢĿ)":9293,"Ġattending":9294,"charge":9295,"ĠCapt":9296,"Ġracing":9297,"2011":9298,"Ġovercome":9299,"Ġdisorder":9300,"ĠMoreover":9301,"Ġencounter":9302,"achus":9303,"Christ":9304,"ĠDri":9305,"Ġcompete":9306,"Ġincent":9307,"Ġdecrease":9308,"acon":9309,"ds":9310,"Ġgraphics":9311,"ĠShop":9312,",âĢĻ":9313,"Ġmyth":9314,"Ġnervous":9315,"ĠStephen":9316,"Ġelectron":9317,"ĠPhiladelphia":9318,"Ġparticipating":9319,"ĠNations":9320,"Ġvoc":9321,"Ġdamaged":9322,"ĠPur":9323,"Ġresulted":9324,"Ġenorm":9325,"Ġdistributed":9326,"ĠBarb":9327,"Ġsatisfied":9328,"Ġporn":9329,"],":9330,"ĠIce":9331,"Ġconsultation":9332,"Ġmit":9333,"Ġshirt":9334,"ĠHong":9335,"ĠThings":9336,"Ġhappiness":9337,"ĠIde":9338,"Ġhotels":9339,"Ġhaz":9340,"Ġdiagnosis":9341,"Ġcrash":9342,"viously":9343,"Ġresidence":9344,"Ġcm":9345,"ĠOregon":9346,"Ġstrengthen":9347,"agan":9348,"ĠEstate":9349,"Ġfits":9350,"Ġelder":9351,"Ġtut":9352,"Ġphotographs":9353,"ĠEX":9354,"Ġyours":9355,"ĠAdvis":9356,"Ġhighlights":9357,"Ġprinting":9358,"who":9359,"RL":9360,"Ġoral":9361,"angers":9362,"Ġoverse":9363,"ĠFREE":9364,"Ġpregnant":9365,"ĠAnnual":9366,"Ġfest":9367,"cience":9368,"ĠEconomic":9369,"Ġdelivering":9370,"ĠCancer":9371,"BM":9372,"Ġdil":9373,"aws":9374,"ĠDemocrats":9375,"ĠJordan":9376,"Ġdeck":9377,"Ġinteractive":9378,"Ġwireless":9379,"aval":9380,"ILL":9381,"Ġouts":9382,"ĠMethod":9383,"Ġproved":9384,"Ġlisting":9385,"ĠGrow":9386,"Gener":9387,"eness":9388,"Ġcampaigns":9389,"left":9390,"vironments":9391,"igrants":9392,"Ġbanking":9393,"Ġ44":9394,"EF":9395,"ĠTony":9396,"Ġupgrade":9397,"ITY":9398,"Ġimmune":9399,"Ġadj":9400,"ĠJews":9401,"Ġcoup":9402,"Ġalign":9403,"Ġdomin":9404,"Ġexpanded":9405,"Ġrecip":9406,"uana":9407,"84":9408,"Ġcorrectly":9409,"olds":9410,"log":9411,"Ġwisdom":9412,"ĠMoney":9413,"Ġpromotion":9414,"Ġconventional":9415,"ĠChall":9416,"Ġodds":9417,"Ġlens":9418,"vals":9419,"ennes":9420,"ĠAng":9421,"ĠResources":9422,"Ġapplies":9423,"Ġcyber":9424,"udi":9425,"Ġyoga":9426,"Ġdistingu":9427,"ĠDonald":9428,"Ġworship":9429,"ĠUkraine":9430,"Ġexperiencing":9431,"Ġnursing":9432,"Ġdeclared":9433,"incess":9434,"ĠSex":9435,"ĠElizabeth":9436,"Ġroots":9437,"oding":9438,"atin":9439,"ĠWas":9440,"Ġdishes":9441,"Ġsettlement":9442,"Ġvulnerable":9443,"ĠTool":9444,"achusetts":9445,"HT":9446,"ĠMatthew":9447,"Ġrarely":9448,"ĠCloud":9449,"Ġjail":9450,"Ġthrew":9451,"ĠChristians":9452,"lee":9453,"ractions":9454,"abil":9455,"ĠIslam":9456,"Ġoffense":9457,"ĠChapter":9458,"Ġconversations":9459,"lesh":9460,"Ġtargets":9461,"Ġrug":9462,"ĠSem":9463,"Ġhes":9464,"Ġannouncement":9465,"Dis":9466,"Ġargue":9467,"Ġthemes":9468,"Ġmining":9469,"agers":9470,")|":9471,"Ġnodded":9472,"Ġmuscles":9473,"iro":9474,"Ġentrance":9475,"ĠGM":9476,"Ġhoriz":9477,"Ġresid":9478,"âĢ³":9479,"Ġpeak":9480,"Down":9481,"Ġsubstance":9482,"Ġrespective":9483,"Ġpic":9484,"Ġhiring":9485,"PD":9486,"inth":9487,"Ġcreativity":9488,"pled":9489,"opher":9490,"ĠStone":9491,"Ġdifficulty":9492,"Ġrac":9493,"xx":9494,"Ġtemperatures":9495,"ĠBrother":9496,"Ġofficially":9497,"ĠForest":9498,"ĠSelect":9499,"owed":9500,"ĠSeattle":9501,"ushing":9502,"Ġupset":9503,"Ġdisaster":9504,"utter":9505,"gments":9506,"han":9507,"Ġcomplaint":9508,"ĠAirport":9509,"ervice":9510,"Ġspeakers":9511,"Ġchecked":9512,"ĠDoc":9513,"igious":9514,"ĠGro":9515,"Ġearnings":9516,"Ġgrounds":9517,"Ġmovements":9518,"Ġshapes":9519,"oper":9520,"Ġwhilst":9521,"Ġnest":9522,"uan":9523,"Ġindu":9524,"ĠStandard":9525,"Ġsurge":9526,"omatic":9527,"Ġobjectives":9528,"Ġbaking":9529,"Ġdrove":9530,"Ġaimed":9531,"ayer":9532,"Ġaccessories":9533,"Ġdesper":9534,"Ġsafely":9535,"Ġcameras":9536,"terior":9537,"igma":9538,"Ġnorthern":9539,"mble":9540,"ĠQuality":9541,"Ġvert":9542,"Ġyummy":9543,"urches":9544,"Ġcopies":9545,"Ġholidays":9546,"Feb":9547,"Ġtherm":9548,"Ġbreaks":9549,"Ġrecruit":9550,"Ġtort":9551,"ĠDead":9552,"Ġkil":9553,"82":9554,"imental":9555,"Ġ64":9556,"aware":9557,"Ġcircuit":9558,"Ġpackages":9559,"iscons":9560,"ĠPers":9561,"ĠMu":9562,"'.":9563,"ima":9564,"Ġdamages":9565,"ĠPow":9566,"Ġdenied":9567,"Ġbid":9568,"ĠBand":9569,"Ġblend":9570,"Ġexamine":9571,"Ġgathered":9572,"rep":9573,"ĠOwn":9574,"Ġgonna":9575,"Ġdeaths":9576,"Ġtries":9577,"ĠSquare":9578,"Ġworkplace":9579,"Ġcul":9580,"83":9581,"Ġsed":9582,"Ġcha":9583,"isconsin":9584,"Ġsummary":9585,"Ġtalented":9586,"Ġbands":9587,"Ġhanging":9588,"ckets":9589,"ĠScotland":9590,"Ġ1994":9591,"ĠKansas":9592,"Ġarrival":9593,"Ġmeasured":9594,"Ġclubs":9595,"ĠPhoto":9596,"ĠVery":9597,"Ġpushing":9598,"Ġmath":9599,"Ġboards":9600,"ĠMagazine":9601,"Ġsigning":9602,"Ġletting":9603,"hyth":9604,"Ġabroad":9605,"Ġcombine":9606,"occ":9607,"elve":9608,"ECT":9609,"itative":9610,"hop":9611,"ji":9612,"Ġrepresentation":9613,"Ġsubsequent":9614,"there":9615,"ĠChem":9616,"Ġrefused":9617,"Ġevaluate":9618,"high":9619,"abis":9620,"ologists":9621,"Ġduties":9622,"cycle":9623,"ĠLED":9624,"Ġspa":9625,"Ġguaranteed":9626,"Ġcrack":9627,"Ġsleeping":9628,"fections":9629,"Ġscary":9630,"Ġadministrative":9631,"ĠConsult":9632,"ĠSeason":9633,"Ġfruits":9634,"Ġtower":9635,"Ġdiscovery":9636,"Ġactors":9637,"ĠCome":9638,"Take":9639,"Ġabilities":9640,"Ġgenerations":9641,"Ġmirror":9642,"AF":9643,"ĠJosh":9644,"Ġrelie":9645,"ĠNAS":9646,"Ġsne":9647,"Ġmg":9648,"iag":9649,"Ġaer":9650,"ĠImm":9651,"Ġvenue":9652,"',":9653,"criptions":9654,"Ġnarrative":9655,"96":9656,"chers":9657,"Ġformation":9658,"Ġfilling":9659,"pton":9660,"oen":9661,"ĠStation":9662,"Ġpassionate":9663,"Ġcompletion":9664,"amics":9665,"Ġversus":9666,"Ġlistened":9667,"Ġmeaningful":9668,"ĠLevel":9669,"Ġscar":9670,"ishop":9671,"Ġimportantly":9672,"Ġcodes":9673,"Ġlottery":9674,"orship":9675,"Ġabsence":9676,"ĠVen":9677,"ĠJenn":9678,"Ġdipl":9679,"pers":9680,"arents":9681,"Ġcompe":9682,"ĠDad":9683,"ao":9684,"ĠSep":9685,"2019":9686,"ALL":9687,"Ġcertificate":9688,"Ġhorm":9689,"Dav":9690,"Ġestimates":9691,"Ġorganisation":9692,"ĠAttorney":9693,"Ġsolely":9694,"ĠEnvironmental":9695,"Ġscrew":9696,"Ġgorgeous":9697,"called":9698,"axy":9699,"Ġconsistently":9700,"Ġsevent":9701,"ĠLady":9702,"Ġhip":9703,"ping":9704,"Ġsour":9705,"ĠSteven":9706,"dri":9707,"ANT":9708,"oln":9709,"unes":9710,"ĠJay":9711,"Ġcontributed":9712,"Ġbrush":9713,"pire":9714,"Ġelsewhere":9715,"ĠBeaut":9716,"ĠFL":9717,"hesis":9718,"Ġcontinuous":9719,"Ġreven":9720,"ĠDave":9721,"Ġholes":9722,")||":9723,"Ġcogn":9724,"ĠRemember":9725,"cope":9726,"Sam":9727,"aire":9728,"ÑĤ":9729,"Ġcoaching":9730,"97":9731,"eq":9732,"Ġ250":9733,"ĠAustin":9734,"Ġexplos":9735,"Ġfingers":9736,"dney":9737,"ĠLic":9738,"Ġtrusted":9739,"Ġsear":9740,"omed":9741,"mann":9742,"ĠKar":9743,"Ġoffensive":9744,"Ġabsorb":9745,"aul":9746,"Ġenvironments":9747,"Ġdisturb":9748,"ĠSaint":9749,"ĠCry":9750,"Ġvoting":9751,"Ġimmun":9752,"Ġwaves":9753,"ĠAnaly":9754,"****":9755,"limited":9756,"Ġtube":9757,"Ġlob":9758,"Fe":9759,"2010":9760,"Ġstocks":9761,"Ġactively":9762,"Ġviewed":9763,"ĠEN":9764,"ĠProducts":9765,".||":9766,"Ġtradem":9767,"lined":9768,"Ġrepresentatives":9769,"Ġfib":9770,".-":9771,"ĠTen":9772,"ĠUSB":9773,"Ġconvert":9774,"ĠSM":9775,"ĠShare":9776,"ĠGreg":9777,"ĠMonth":9778,"Ġheating":9779,"oked":9780,"Ġweigh":9781,"wear":9782,"ĠUser":9783,"Ġbold":9784,"Make":9785,"inst":9786,"graduate":9787,"Cur":9788,"Ġcolorful":9789,"aun":9790,"icked":9791,"Ġinstruments":9792,"Ġrolled":9793,"mic":9794,"Ġsurvival":9795,"Ġthreats":9796,"ĠHay":9797,"Ġexcite":9798,"ĠRepublicans":9799,"Ġcooperation":9800,"ishment":9801,"Ġproductivity":9802,"Ġrepeat":9803,"ĠRub":9804,"Ġromantic":9805,"irrel":9806,"Ġacquisition":9807,"ching":9808,"ustration":9809,"ĠDallas":9810,"Ġresponded":9811,"ĠTransport":9812,"ĠBridge":9813,"unate":9814,"Ġtrials":9815,"Ġlawyers":9816,"Ġtons":9817,"ĠUnivers":9818,"Ġcharity":9819,"ĠOnt":9820,"Ġlowest":9821,"Ġcats":9822,"Ġpainted":9823,"ĠFurthermore":9824,"Ġque":9825,"label":9826,"Ġuncle":9827,"ĠBull":9828,"atern":9829,"ĠModern":9830,"Ġknee":9831,"Ġmyster":9832,"ĠSche":9833,"ami":9834,"Ġfake":9835,"Ġrefers":9836,"engers":9837,"Ġarbit":9838,"Despite":9839,"roit":9840,"Ð½":9841,"giving":9842,"ricted":9843,"Ġrabbit":9844,"agen":9845,"prof":9846,"Ġdestroyed":9847,"ĠCreek":9848,"rine":9849,"ĠAtlanta":9850,"Ġballs":9851,"arring":9852,"ĠMassachusetts":9853,"acles":9854,"Ġterr":9855,"ĠBed":9856,"tail":9857,"2020":9858,"Ġpackaging":9859,"igence":9860,"Ġentrepreneurs":9861,"Ġbehaviour":9862,"Ġsemi":9863,"Ġdemonstrated":9864,"Ġgolden":9865,"Ġterritory":9866,"Ġgam":9867,"Ġlip":9868,"Ġsequence":9869,"Ġcups":9870,"Ġworker":9871,"Ġdisag":9872,"Ġneuro":9873,"Ġlaptop":9874,"Ġinvention":9875,"ĠRelations":9876,"Ġmask":9877,"Ġrecall":9878,"Ġministry":9879,"ultane":9880,"Ġdesigners":9881,"Ġbes":9882,"itzer":9883,"Ġvirtually":9884,"81":9885,"ouses":9886,"Ġdrives":9887,"Ġ41":9888,"itarian":9889,"Ġimpression":9890,"ĠMemorial":9891,"Ġpasses":9892,"ĠCL":9893,"Ġimmigration":9894,"rowse":9895,"Ġbite":9896,"otion":9897,"Ġax":9898,"Ġbuff":9899,"apse":9900,"avor":9901,"Ġcoron":9902,"fa":9903,"Ġexamination":9904,"Ġagenda":9905,"Ġdirt":9906,"bye":9907,"party":9908,"onder":9909,"Ġengines":9910,"cend":9911,"ĠLimited":9912,"Ġwalks":9913,"Ġexpense":9914,"ĠBeh":9915,"Ġlayers":9916,"ĠLewis":9917,"Ġhospitals":9918,"PP":9919,"Ġrocks":9920,"Ġbeliefs":9921,"Ġdirections":9922,"Welcome":9923,"ĠBase":9924,"Ġsalary":9925,"Ġpreced":9926,"Ġfranchise":9927,"ĠCS":9928,"ĠRegist":9929,"ĠâĤ¬":9930,"ĠNig":9931,"atile":9932,"Ġautomatic":9933,"Ġviewing":9934,"Ġstomach":9935,"ĠWars":9936,"ĠAh":9937,"ĠExchange":9938,"Ġpetition":9939,"Ġfool":9940,"scale":9941,"Ġmechanism":9942,"Contact":9943,"ĠHawai":9944,"ĠArm":9945,"Ġtransformation":9946,"oli":9947,"Ġfinancing":9948,"Ġ95":9949,"Ġprofits":9950,"ĠIowa":9951,"ĠBat":9952,"Out":9953,"ĠTurkey":9954,"ela":9955,"Ġexplanation":9956,"ĠJason":9957,"olt":9958,"Ġchampion":9959,"Ġtoile":9960,"Ġpublishing":9961,"Ġ43":9962,"Ġcertification":9963,"ouri":9964,"ijuana":9965,"Ġsculpt":9966,"Ġreviewed":9967,"Ġcabin":9968,"El":9969,"post":9970,"ictions":9971,"Ġamongst":9972,"Ġdivorce":9973,"Ġfiber":9974,"Ġfluid":9975,"ols":9976,"bra":9977,"Ġcollective":9978,"dep":9979,"Rel":9980,"Ġbass":9981,"Ġdisability":9982,"Ġcher":9983,"Ġdrum":9984,"Ġfunctionality":9985,"iders":9986,"Ġcompos":9987,"acular":9988,"Ġsli":9989,"Ġskilled":9990,"Ġfert":9991,"ĠAffairs":9992,"rous":9993,"Ġought":9994,"Ġgenetic":9995,"ĠMoo":9996,"Ġunem":9997,"ĠKitty":9998,"ĠPaper":9999,"ĠFinance":10000,"Ġmanip":10001,"CR":10002,"Ġeliminate":10003,"orneys":10004,"ĠIndepend":10005,"pool":10006,"Ġimpacts":10007,"uis":10008,"ĠMajor":10009,"ĠRome":10010,"Ġdisorders":10011,"esh":10012,"Ġsignature":10013,"oons":10014,"Ġunderlying":10015,"Ġrefe":10016,"esy":10017,"Ġpossibilities":10018,"itate":10019,"Ġweapon":10020,"Ġabund":10021,"ĠModel":10022,"Ġmountains":10023,"Ġwider":10024,"cest":10025,"Ġwhis":10026,"Mon":10027,"Ġglobe":10028,"roph":10029,"Ġcredits":10030,"ĠShort":10031,"Ġpenalty":10032,"ĠPrince":10033,"Ġdeveloper":10034,"Ġacquire":10035,"ĠForum":10036,"Ġprotecting":10037,"Ġdevelopments":10038,"oning":10039,"ĠMaterial":10040,"Ġprominent":10041,"Ġrepresenting":10042,"atal":10043,"ĠPrint":10044,"Ġphysician":10045,"Ġfrequent":10046,"they":10047,"vity":10048,"Ġadvertise":10049,"ĠFA":10050,"ĠIslamic":10051,"osystem":10052,"600":10053,"Ġinvite":10054,"Act":10055,"Ġhabits":10056,"Ġrolling":10057,"ito":10058,"Ġaged":10059,"Ġ1960":10060,"Ġburning":10061,"ĠiPad":10062,"ĠMoon":10063,"Ġsectors":10064,"Ġfed":10065,"ĠGallery":10066,"utical":10067,"Ġles":10068,"Ġathletes":10069,"Ġcomedy":10070,"Ġcrown":10071,"agged":10072,"ĠJam":10073,"Ġdramatic":10074,"Ġtroops":10075,"Ġlemon":10076,"Ġspecified":10077,"Ġphysically":10078,"Ġgallery":10079,"tains":10080,"Ġcrimes":10081,"ORE":10082,"ainless":10083,"oker":10084,"Ġpanels":10085,"Ġconvenience":10086,"ĠOcean":10087,"aping":10088,"gged":10089,"ori":10090,"Ġaccum":10091,"found":10092,"Ġcouples":10093,"incoln":10094,"Ġsoup":10095,"Ġindicates":10096,"cuse":10097,"Ġsettled":10098,"Ã¤":10099,"ÑĢ":10100,"Ġadoption":10101,"Ġresume":10102,"ĠWisconsin":10103,"Ġvotes":10104,"Ġ52":10105,"erving":10106,"Ġsetup":10107,"Use":10108,"Ġhorses":10109,"uates":10110,"Ġdose":10111,"Ġsubscription":10112,"Ġvoted":10113,"Ġpicking":10114,"ĠExam":10115,"cribed":10116,"Ġroughly":10117,"TO":10118,"Ġremarkable":10119,"Ġintervention":10120,"ĠTalk":10121,"ĠPast":10122,"Ġventure":10123,"ersion":10124,"Ġretired":10125,"Ġalleg":10126,"iate":10127,"ĠCooper":10128,"Ġfulfill":10129,"Ge":10130,"Whether":10131,"ĠExpress":10132,"Ġhitting":10133,"week":10134,"Ġpills":10135,"Ġoperational":10136,"enter":10137,"Ġprevention":10138,"aver":10139,"Ġoperated":10140,"ĠAuthority":10141,"Ġunlikely":10142,"Ġcaptured":10143,"Ġfault":10144,"function":10145,"ĠMaryland":10146,"unn":10147,"Ġeager":10148,"lix":10149,"lah":10150,"Ġbacteria":10151,"ĠIndustry":10152,"Ġsod":10153,"ĠÂ§":10154,"Ġgrocer":10155,"Ġranging":10156,"unicipal":10157,"Ġwoods":10158,"Ġconfused":10159,"ĠBE":10160,"ĠKelly":10161,"Ġparagraph":10162,"ĠAmong":10163,"ifferent":10164,"Ġsurely":10165,"Ġscreens":10166,"ĠGree":10167,"ĠRus":10168,"ĠEmploy":10169,"ĠBry":10170,"MM":10171,"Ġsque":10172,"Ġtremend":10173,"ĠGive":10174,"Ġemphasis":10175,"ĠIsraeli":10176,"Ġdiamond":10177,"ĠAnalysis":10178,"Ġutilize":10179,"150":10180,"Ġutility":10181,"Ġconcentration":10182,"Ġinventory":10183,"ĠOp":10184,"oof":10185,"author":10186,"Ġexch":10187,"fire":10188,"ĠSolutions":10189,"Ġintegrity":10190,"Google":10191,"will":10192,"ĠMade":10193,"ĠFront":10194,"rat":10195,"Ġediting":10196,"Ġtrim":10197,"xygen":10198,"Ġfiscal":10199,"Ġ99":10200,"High":10201,"Ġladies":10202,"Ġscenario":10203,"ĠCollection":10204,"Ġcomposition":10205,"ĠWould":10206,"Ġchips":10207,"Ġstops":10208,"avirus":10209,"Ġpublicly":10210,"ĠNob":10211,"Ġenormous":10212,"ĠConstitution":10213,"Wow":10214,"Ġconversion":10215,"Ġresponsibilities":10216,"ĠSound":10217,"Ġinvolvement":10218,"ĠBuild":10219,"nie":10220,"ĠTR":10221,"ften":10222,"winning":10223,"omic":10224,"Ġdialogue":10225,"Ġhub":10226,"Ġsynd":10227,"ĠMind":10228,"Ġdies":10229,"Ġpopularity":10230,"Ty":10231,"fish":10232,"ethe":10233,"HL":10234,"arrass":10235,"ĠGi":10236,"Ġdeserve":10237,"Ġsophist":10238,"ĠJudge":10239,"BN":10240,"Ġbelt":10241,"Ġsquirrel":10242,"via":10243,"Ġpresidential":10244,"asion":10245,"oa":10246,"Ġwaited":10247,"Ġboot":10248,"ĠImpro":10249,"don":10250,"asted":10251,"ĠPitt":10252,"PL":10253,"ĠThink":10254,"Ġhardly":10255,"ĠEverything":10256,"Ġdefect":10257,"Ġinsert":10258,"Ġdual":10259,"Ġconservative":10260,"Ġvine":10261,"ĠFuture":10262,"ĠHom":10263,"iox":10264,"Ġstupid":10265,"Ġconcluded":10266,"ĠDrug":10267,"ĠAlbert":10268,"ushed":10269,"Ġinhib":10270,"Ġsorts":10271,"Ġfollowers":10272,"isting":10273,"Ġexercises":10274,"Ġshell":10275,"Ġmystery":10276,"ĠSelf":10277,"Ġreverse":10278,"Ġdefensive":10279,"Ġresolve":10280,"Ġdirectors":10281,"home":10282,"Ġwinners":10283,"Ġpizza":10284,"ĠPatrick":10285,"Ġdancing":10286,"Ġtheater":10287,"Ġseam":10288,"Ġexpanding":10289,"minute":10290,"ennessee":10291,"Ġ46":10292,"ĠBh":10293,"ITH":10294,"bed":10295,"Ġcurriculum":10296,"Ġ1992":10297,"Ġcried":10298,"Ġwhereas":10299,"idth":10300,"Ġorganisations":10301,"Ġreserve":10302,"Ġscoring":10303,"IST":10304,"Ġ1000":10305,"ĠBody":10306,"Ġregime":10307,"about":10308,"Ġsmoking":10309,"Ġwarranty":10310,"Ġaccompan":10311,"Ġcotton":10312,"Ġrestore":10313,"iology":10314,"Ġinflamm":10315,"Ġpermitted":10316,"ĠALL":10317,"Ġ01":10318,"rend":10319,"ĠNature":10320,"ighth":10321,"atellite":10322,"ĠIndiana":10323,"Ġnutrition":10324,"allel":10325,"Ġalert":10326,"Ġscreening":10327,"ĠDeath":10328,"Ġsuppliers":10329,"Ġgathering":10330,"ĠStaff":10331,"Fl":10332,"Ġcompan":10333,"Ġpurchases":10334,"Ġrobust":10335,"ascular":10336,"ĠPalestin":10337,"irk":10338,"Ġski":10339,"imp":10340,"Net":10341,"Ġstack":10342,"Ġprocessed":10343,"Ġaest":10344,"Ġruling":10345,"Ġnutri":10346,"acter":10347,"Ġ1993":10348,"Ps":10349,"covery":10350,"abama":10351,"asty":10352,"ĠWordPress":10353,"Ġinquir":10354,"vo":10355,"mathcal":10356,"Ġdrain":10357,"Ġcontainer":10358,"Ġwooden":10359,"Ġpassage":10360,"atching":10361,"ĠMarc":10362,"Ġassembly":10363,"Ġthro":10364,"ista":10365,"ĠVietnam":10366,"Ġnobody":10367,"ĠImp":10368,"ĠDI":10369,"Ġextraordinary":10370,"Ġlaser":10371,"ĠOs":10372,"Ġacknowledge":10373,"ĠVillage":10374,"yd":10375,"ĠAnderson":10376,"Ġgraphic":10377,"screen":10378,"Ñģ":10379,"Ġproduces":10380,"ĠKids":10381,"Ġaffects":10382,"Ġ800":10383,"ĠWinter":10384,"ĠRoll":10385,"Ġethnic":10386,"ingham":10387,"Ġmold":10388,"Ġreleases":10389,"Ġestablishment":10390,"Work":10391,"ĠDefense":10392,"Ġmic":10393,"Ġlegacy":10394,"ĠSong":10395,"game":10396,"arat":10397,"Ġstreaming":10398,"ĠAtlantic":10399,"Ġsmartphone":10400,"Time":10401,"ĠForeign":10402,"ĠWorking":10403,"iy":10404,"ĠET":10405,"Ġchecks":10406,"gly":10407,"Ġreferr":10408,"ĠClark":10409,"Ġadequate":10410,"Ġservers":10411,"Did":10412,"ĠExperience":10413,"quarters":10414,"Ġretain":10415,"ĠKind":10416,"Ġtears":10417,"mate":10418,"oz":10419,"ropri":10420,"ĠGovernor":10421,"Ġdefendant":10422,"aceutical":10423,"Ġdocumentation":10424,"Ġfantasy":10425,"Ġbarely":10426,"Ġpsychological":10427,"Ġhopefully":10428,"Cal":10429,"ĠMotor":10430,"Ġoverwhelming":10431,"Ġmaps":10432,"Ġconvey":10433,"eman":10434,"ĠRou":10435,"Ġstem":10436,"Ġinvestigate":10437,"Ġbran":10438,"Ġsink":10439,"Ġgal":10440,"ĠAnton":10441,"ustain":10442,"Ġsimultane":10443,"Ġovers":10444,"ĠBureau":10445,"Ġentity":10446,"Ġnetworking":10447,"wall":10448,"abling":10449,"ousing":10450,"Ġcompassion":10451,"Ġinnoc":10452,"Ġranked":10453,"Ġenhanced":10454,"Ġ09":10455,"IVE":10456,"250":10457,"ront":10458,"ĠReading":10459,"ĠAuto":10460,"Ġchemicals":10461,"Ġkeys":10462,"rus":10463,"Ġexcitement":10464,"ĠNut":10465,"Ġlimitations":10466,"ĠToy":10467,"Ġ47":10468,"Ġsurrounded":10469,"Ġlung":10470,"cho":10471,"ĠGrant":10472,"aying":10473,"Ġinflation":10474,"ested":10475,"Ġraces":10476,"Ġuniform":10477,"Ġjury":10478,"ĠAli":10479,"ĠPlanning":10480,"elle":10481,"retion":10482,"$,":10483,"ĠLyn":10484,"Ġconj":10485,"Ġox":10486,"ĠWeight":10487,"ĠAvailable":10488,"Ġassociate":10489,"Ġinev":10490,"Ġimpressed":10491,"Ġworkshops":10492,"Ġmagical":10493,"igs":10494,"Ġhoped":10495,"Eng":10496,"backs":10497,"ĠRegional":10498,"Ġviolent":10499,"Ġcelebrated":10500,"Start":10501,"aa":10502,"Ġfascinating":10503,"Day":10504,"ĠMedic":10505,"Ġgenerous":10506,"ĠDoctor":10507,"Ġdifferently":10508,"ĠSize":10509,"Ġgang":10510,"ĠPict":10511,"ĠSydney":10512,"Ġsuspend":10513,"Ġmetab":10514,"ĠAllen":10515,"Ġmodified":10516,"FT":10517,"Ġbooking":10518,"ĠEdition":10519,"Ġbabies":10520,"Ġpor":10521,"ĠRoss":10522,"omin":10523,"erk":10524,"Ġlean":10525,"Photo":10526,"Ġencount":10527,"ounced":10528,"ĠLuc":10529,"Ġsignals":10530,"grade":10531,"Ġagreements":10532,"Ġharvest":10533,"fortable":10534,"bf":10535,"Ġcontents":10536,"inar":10537,"otive":10538,"iances":10539,"Ġcancell":10540,"ĠSant":10541,"ĠEasy":10542,"Ġcomplement":10543,"ĠRick":10544,"Ġpossession":10545,"spot":10546,"Ġcourage":10547,"2009":10548,"DR":10549,"ĠWW":10550,"Ġphrase":10551,"Ġdemocracy":10552,"Ġeffectiveness":10553,"UC":10554,"gra":10555,"PN":10556,"Ġreferences":10557,"Ġprecious":10558,"obb":10559,"Ġensures":10560,"ĠComputer":10561,"forward":10562,"gree":10563,"rett":10564,"Ġencouraging":10565,"Av":10566,"Great":10567,"Ġblame":10568,"Ġgrabbed":10569,"Ġradical":10570,"Ġburden":10571,"Ġcust":10572,"Ġaggressive":10573,"ĠAst":10574,"ĠSix":10575,"ĠAssistant":10576,"Ġcinem":10577,"orse":10578,"igenous":10579,"Ġhired":10580,"sea":10581,"ĠDrag":10582,"ĠYeah":10583,"ateral":10584,"93":10585,"wa":10586,"Ġauthorized":10587,"ĠHell":10588,"Ġfired":10589,"ĠStudio":10590,"aph":10591,"Hey":10592,"Ġinstantly":10593,"Ġembarrass":10594,"uminum":10595,"offs":10596,"ĠAk":10597,"Ġwishes":10598,"break":10599,"Ġrehab":10600,"Ġempower":10601,"izations":10602,"Ġ08":10603,"Ġqualify":10604,"ĠNavy":10605,"core":10606,"ĠCore":10607,"Ġnewsletter":10608,"uther":10609,"Ġquantity":10610,"Ġdisrupt":10611,"Ġurg":10612,"ifier":10613,"only":10614,"Ġtu":10615,"ĠOntario":10616,"Ġhosts":10617,"Ġreply":10618,"NS":10619,"health":10620,"walk":10621,"ĠCell":10622,"Ġhunt":10623,"Ġadopt":10624,"ĠCF":10625,"Ġinteractions":10626,"piece":10627,"Ġsupporters":10628,"Ġpiano":10629,"Ġgraduated":10630,"ricts":10631,"$.":10632,"Ġartificial":10633,"Ġrobot":10634,"March":10635,"ĠCut":10636,"ĠParliament":10637,"Ø§":10638,"ICE":10639,"ĠSE":10640,"Ġblogs":10641,"Ġjewelry":10642,"tw":10643,"esty":10644,"estion":10645,"Ġhomeown":10646,"Em":10647,"ĠInterest":10648,"Ġproducers":10649,"aya":10650,"Ġ600":10651,"oting":10652,"Ġheritage":10653,"ĠMarsh":10654,"Ġspectrum":10655,"hol":10656,"LO":10657,"Ġye":10658,"Pres":10659,"MI":10660,"Ġwing":10661,"ĠClean":10662,"Ġbuyer":10663,"ĠiOS":10664,"Ġspeaks":10665,"Ġpractition":10666,"aga":10667,"Ġauthentic":10668,"ĠBird":10669,"92":10670,"istical":10671,"Ġannoy":10672,"ĠIV":10673,"ocratic":10674,"ĠVictoria":10675,"ĠLes":10676,"rapeut":10677,"Ġbeef":10678,".[":10679,"heart":10680,"rec":10681,"Ġrecept":10682,"Ġepisodes":10683,"ĠPeace":10684,"osit":10685,"Ġlands":10686,"esis":10687,"Ġgrants":10688,"Ġcaf":10689,"such":10690,"Vis":10691,"Ġmedications":10692,"ĠBlo":10693,"Ġangle":10694,"bourne":10695,"ĠEditor":10696,"Copyright":10697,"Ju":10698,"ĠSale":10699,"Ġveteran":10700,"Ġvaccine":10701,"Ġbalanced":10702,"ĠTam":10703,"Ġoldest":10704,"Ġclicking":10705,"otte":10706,"Ġrescue":10707,"Ġtong":10708,"Ġmattress":10709,"Ġplaintiff":10710,"Source":10711,"Ġpour":10712,"Ġshortly":10713,"Ġdesktop":10714,"ĠHR":10715,"Ġarrangements":10716,"ĠAfghanistan":10717,"Ġconservation":10718,"Ġoperators":10719,"rior":10720,"ĠAz":10721,"Ġbegun":10722,"ĠConc":10723,"rell":10724,"ĠSO":10725,"ickets":10726,"Ġhyp":10727,"ĠEag":10728,"Ġtent":10729,"TE":10730,"Ġcarpet":10731,"THE":10732,"ĠCorp":10733,"rox":10734,"ĠRecords":10735,"Ġinterpretation":10736,"ez":10737,"ĠSym":10738,"alm":10739,"ĠThird":10740,"Ġmathemat":10741,"Ġtempt":10742,"Ġcultures":10743,"lahoma":10744,"ĠTrib":10745,"94":10746,"Trans":10747,"ventions":10748,"urer":10749,"Okay":10750,"Ġconstructed":10751,"ĠApplication":10752,"ĠBarn":10753,"Ġfacilitate":10754,"plant":10755,"Ġtackle":10756,"Ġchurches":10757,"aud":10758,"Ġgrat":10759,"itches":10760,"bound":10761,"ĠDise":10762,"Ġspoken":10763,"elling":10764,"Ġcenturies":10765,"Ġedit":10766,"ĠJean":10767,"Ġidentification":10768,"Ġpromises":10769,"Ġfunded":10770,"ĠSov":10771,"ĠRepresent":10772,"ĠPrivate":10773,"Ġprescription":10774,"Ġtrailer":10775,"ĠPharm":10776,"Ġstepped":10777,"mn":10778,"ishers":10779,"ĠPerformance":10780,"Ġ00":10781,"interest":10782,"Ġliberal":10783,"ĠAssembly":10784,"Ġdependent":10785,"Ġhumanity":10786,"Ġcomply":10787,"ĠKorean":10788,"ĠBan":10789,"kind":10790,"Ġdesignated":10791,"ĠNC":10792,"Ġears":10793,"owered":10794,"Ġreveals":10795,"Hel":10796,"ĠEdward":10797,"Ġlone":10798,"Ġanger":10799,"Ġcultiv":10800,"ĠBBC":10801,"Ġdozen":10802,"Ġdifficulties":10803,"commun":10804,"eta":10805,"Ġaccomplished":10806,"email":10807,"Ġparks":10808,"Ġcompetitors":10809,"Ġsudden":10810,"ĠâĢĿ":10811,"sung":10812,"mind":10813,"best":10814,"KE":10815,"ationally":10816,"Ġscream":10817,"ĠBC":10818,"Os":10819,"ĠRs":10820,"ĠHarris":10821,"ĠHind":10822,"oving":10823,"Join":10824,"Ġlying":10825,"ĠAG":10826,"91":10827,"Ġgross":10828,"opt":10829,"Ġarmed":10830,"ĠBowl":10831,"ĠSure":10832,"Ġdestruction":10833,"Ġgenre":10834,"ĠCli":10835,"ĠTennessee":10836,"Ġreception":10837,"ierce":10838,"ĠTai":10839,"Ġfiling":10840,"bd":10841,"Ġtablet":10842,"Ġpets":10843,"Ġnurse":10844,"idal":10845,"ĠElectric":10846,"Ġpatent":10847,"ĠHills":10848,"itivity":10849,"WH":10850,"Ġtranslation":10851,"ĠArchitect":10852,"olen":10853,"Ġpeaceful":10854,"ntil":10855,"Ġovernight":10856,"Ġquotes":10857,"apes":10858,"Ġoperator":10859,"Ġdeleg":10860,"ĠLincoln":10861,"ĠDJ":10862,"Ġflights":10863,"ĠIndones":10864,"Ġfallen":10865,"trans":10866,"sole":10867,"Ġthy":10868,"ĠComments":10869,"ĠExp":10870,"reedom":10871,"Mod":10872,"azing":10873,"ĠBenef":10874,"utive":10875,"Ġcooked":10876,"Ġuniversal":10877,"Ġcomic":10878,"Ġnavigate":10879,"airy":10880,"Ġfinishing":10881,"Ġships":10882,"ĠPhD":10883,"ĠYouth":10884,"ĠSyria":10885,"Ġ1991":10886,"Ġargued":10887,"Ġpoetry":10888,"Ġcollections":10889,"Ġproductive":10890,"Ġsteam":10891,"Maybe":10892,"Ġtexture":10893,"Ġwheels":10894,"def":10895,"ĠHart":10896,"Ġconnecting":10897,"ĠDetroit":10898,"Ġobligations":10899,"ova":10900,"ĠScient":10901,"Ġmechanical":10902,"Ġdisplays":10903,"Ġvoices":10904,"Ġthoroughly":10905,"elson":10906,"Ġremoving":10907,"Ġgains":10908,"inction":10909,"Ġduration":10910,"Ġactress":10911,"Ġattempted":10912,"Ġartistic":10913,"Ġvendors":10914,"pling":10915,"Ġ:)":10916,"Ġaccommodation":10917,"ĠSnow":10918,"Ġecosystem":10919,",\\":10920,"ĠAgric":10921,"onut":10922,"Ġmatching":10923,"Ġoffe":10924,"ĠContinue":10925,"Ġdefeat":10926,"ĠLegal":10927,"Ġtransferred":10928,"ĠHoward":10929,"Ġadmission":10930,"cure":10931,"ĠVisit":10932,"Ġfemin":10933,"Ġwrap":10934,"Ġdocumentary":10935,"Ġaffairs":10936,"Ġweakness":10937,"Ġhorror":10938,"Ġfundra":10939,"Ġparameters":10940,"ĠBaby":10941,">>":10942,"ĠBalt":10943,"imm":10944,"ĠMichel":10945,"Ġhal":10946,"Ġmakeup":10947,"Ġfence":10948,"ĠPH":10949,"Ġtowns":10950,"Ġjunior":10951,"Ġpurple":10952,"Ġgently":10953,"ocur":10954,"ĠChampionship":10955,"ĠIntegr":10956,"ĠCreative":10957,"ĠBased":10958,"ĠFlow":10959,"ĠAlabama":10960,"Ġignore":10961,"Ġcandy":10962,"ĠEnjoy":10963,"ĠAdvent":10964,"Ġsail":10965,"Ġdiscrimination":10966,"Ġ85":10967,"Ġglow":10968,"ĠEmail":10969,"plex":10970,"inf":10971,"Ġhunting":10972,"Ġdys":10973,"aha":10974,"Ġcheaper":10975,"Ġdrops":10976,"Ġworn":10977,"atoes":10978,"father":10979,"ĠEarly":10980,"Ġaddiction":10981,"ĠHT":10982,"ĠMove":10983,"Hz":10984,"Ġgovernor":10985,"Ġdough":10986,"Ġduck":10987,"Ġdrew":10988,"ilation":10989,"ĠIntell":10990,"Ġexclusively":10991,"uum":10992,"Ġwore":10993,"ĠMachine":10994,"Ġrecru":10995,"akh":10996,"Ġbankrupt":10997,"Ġconsec":10998,"hist":10999,"Ġwings":11000,"Ġplacing":11001,"open":11002,"Ġconsiderable":11003,"Ġlocked":11004,"uke":11005,"card":11006,"Ġcig":11007,"Ġshadow":11008,"Ġtreasure":11009,"ĠBab":11010,"ĠMoore":11011,"Ġtouched":11012,"Those":11013,"2008":11014,"Ġdetermination":11015,"News":11016,"Ġcloth":11017,"Ġteasp":11018,"apolis":11019,"ĠReviews":11020,"Ġsuicide":11021,"Red":11022,"Ġrepairs":11023,"rait":11024,"Ġsettle":11025,"mother":11026,"Ġdepartments":11027,"attan":11028,"Learn":11029,"Ġsoccer":11030,"Ġstamp":11031,"Ġmeters":11032,"Ġrubber":11033,"Ġlayout":11034,"Through":11035,"ĠSimon":11036,"Ġeuro":11037,"pert":11038,"Ġviolation":11039,"dem":11040,"Ġcaring":11041,"ĠAnthony":11042,"ader":11043,"Ġtours":11044,"acco":11045,"Ġwildlife":11046,"Ġmusicians":11047,"ĠMap":11048,"Ġdisappointed":11049,"Ġtender":11050,"Ġcookie":11051,"Ġoperates":11052,"Ġmonster":11053,"ĠCommunications":11054,"ĠHu":11055,"VI":11056,"Ġslic":11057,"Ġaudiences":11058,"ĠMort":11059,"Ġinspection":11060,"Ġsustainability":11061,"2022":11062,"Ġwished":11063,"Ġlion":11064,"necess":11065,"Ġoccasionally":11066,"ĠYears":11067,"Ġpassengers":11068,"aus":11069,"Ġobligation":11070,"gain":11071,"bean":11072,"ĠBlu":11073,"ĠBerlin":11074,"ifice":11075,"ĠPL":11076,"ĠHP":11077,"Ġadvised":11078,"Pat":11079,"Ġft":11080,"dale":11081,"selling":11082,"orical":11083,"olph":11084,"Ġlanding":11085,"Ġdelivers":11086,"Ġconce":11087,"Both":11088,"ĠChairman":11089,"Ġengineers":11090,"orious":11091,"zens":11092,"Ġalike":11093,"Ġbene":11094,"stic":11095,"Ġlegitimate":11096,"ĠRh":11097,"Download":11098,"Ġloop":11099,"ĠIron":11100,"Ġdurable":11101,"ĠRail":11102,"Ġintelligent":11103,"andal":11104,"ĠOrganization":11105,"Ġindependence":11106,"ĠOxford":11107,"Ġoxygen":11108,"ĠFive":11109,"Ġlocally":11110,"Ġseal":11111,"Ġanybody":11112,"Ġcompleting":11113,"ĠDutch":11114,"FOR":11115,"DC":11116,"Prof":11117,"ĠBreak":11118,"tainment":11119,"Ġcolours":11120,"Ġbell":11121,"Ġparad":11122,"ĠHur":11123,"icating":11124,"Ġbreathing":11125,"BB":11126,"Ġmature":11127,"Ġjurisdiction":11128,"exp":11129,"ounding":11130,"Ġgarlic":11131,"Ġcater":11132,"Ġliver":11133,"Date":11134,"ĠLO":11135,"Cor":11136,"cip":11137,"ĠVeter":11138,"ĠMorgan":11139,"Ġpublications":11140,"Ġtension":11141,"Ġconfront":11142,"Ġarguments":11143,"Ġsalad":11144,"ĠLess":11145,"Ġaffiliate":11146,"Black":11147,"Ġcomplaints":11148,"Ġoverview":11149,"Ġknife":11150,"ĠMissouri":11151,"Ġdeadline":11152,"Ġunlock":11153,"à¸":11154,"Ġmos":11155,"UST":11156,"ika":11157,"Ġtreats":11158,"Ġsons":11159,"Ġpopulations":11160,"Ġ72":11161,"Ġbunny":11162,"ĠAmend":11163,"Ġclimbed":11164,"Ġfought":11165,"ĠPoly":11166,"Ġcoaches":11167,"ailing":11168,"ĠPlant":11169,"ĠSamsung":11170,"Ġceiling":11171,"thur":11172,"phan":11173,"ĠTan":11174,"Ġcriticism":11175,"athon":11176,"semble":11177,"Ġspo":11178,"prises":11179,"Ġgreet":11180,"ĠPed":11181,"Ġoccasions":11182,"good":11183,"Ġpup":11184,"ĠJess":11185,"irlines":11186,"ubble":11187,"plo":11188,"ĠBuff":11189,"ĠProperty":11190,"ĠMalays":11191,"ĠPortug":11192,"Sept":11193,"ĠHum":11194,"Ġessays":11195,"ĠAve":11196,"Ġmedic":11197,"Ġsilly":11198,"Ġpainful":11199,"doors":11200,"wed":11201,"Ġlasting":11202,"Ġrhyth":11203,"ĠGrad":11204,"orms":11205,"VA":11206,"oenix":11207,"June":11208,"aug":11209,"Ġexplicit":11210,"Ġrequiring":11211,"Met":11212,"Ġthrown":11213,"Ġheal":11214,"Ġmarijuana":11215,"Ġworkforce":11216,"?)":11217,"Bel":11218,"ĠCompet":11219,"Off":11220,"fig":11221,"God":11222,"Ġbranches":11223,"Ġreceipt":11224,"ĠIndex":11225,"Ġpoliticians":11226,"Ġagricultural":11227,"Ġslee":11228,"ĠWales":11229,"Ġtrigger":11230,"Ġneighbors":11231,"Ġdevast":11232,"ĠLeon":11233,"Ġelegant":11234,"ĠBlood":11235,"Ġacceptance":11236,"Ġsemin":11237,"vit":11238,"April":11239,"Ġthirty":11240,"ĠLib":11241,"Ġsho":11242,"table":11243,"Ġconvinced":11244,"Ġfancy":11245,"iva":11246,"aki":11247,"Ġrefrig":11248,"Ġaver":11249,"ĠArk":11250,"oween":11251,"ĠMust":11252,"ĠDean":11253,"Ġspecialized":11254,"ĠEve":11255,"ĠFast":11256,"ĠMexican":11257,"ĠDays":11258,"Ġbarrel":11259,"Ġguns":11260,"ĠKentucky":11261,"Ġ51":11262,"ĠTro":11263,"ĠUtah":11264,"ĠBurn":11265,"ĠGh":11266,"ĠAlexander":11267,"Ġdeemed":11268,"Ġappet":11269,"Ġ!":11270,"erior":11271,"Ġacres":11272,"ĠLaure":11273,"Ġchef":11274,"Ġshelter":11275,"ĠUC":11276,"Ġspectacular":11277,"TP":11278,"Ġworkout":11279,"ixed":11280,"ĠCov":11281,"Ac":11282,"Ġpreserve":11283,"Ġachieving":11284,"asm":11285,"ĠOlympic":11286,"ĠSD":11287,"ĠPy":11288,"ĠChampions":11289,"itudes":11290,"Ġexecution":11291,"writer":11292,"Ġtutorial":11293,"Ġcord":11294,"Ġanch":11295,"Ġinsect":11296,"Ġidentifying":11297,"ĠBetter":11298,"Ġsensor":11299,"ĠMoh":11300,"ĠManchester":11301,"FF":11302,"Ġaccompanied":11303,"ĠFinal":11304,"ailed":11305,"Ob":11306,"ĠQuick":11307,"Ġachievement":11308,"Ġexit":11309,"owing":11310,"Ġembrace":11311,"ocks":11312,"ĠLiter":11313,"Ġhybrid":11314,"tech":11315,"ussion":11316,"ĠIdent":11317,"whe":11318,"ĠEffect":11319,"Ġpleasant":11320,"Ġvintage":11321,"unct":11322,"Ġtourism":11323,"ĠNigeria":11324,"ropical":11325,"obby":11326,"ĠAnne":11327,"ĠContract":11328,"Ġtimely":11329,"Having":11330,"ĠPrim":11331,"Ġchairman":11332,"holder":11333,"Ġenjoyable":11334,"Ġassert":11335,"Ġannually":11336,"ĠIM":11337,"Mich":11338,"Ġreceives":11339,"Ġsteady":11340,"ĠSac":11341,"laim":11342,"Ġglory":11343,"Ġalternatives":11344,"Ġstraw":11345,"Ġbeans":11346,"papers":11347,"Ġdesert":11348,"your":11349,"ĠRevolution":11350,"Ġdict":11351,"ĠEver":11352,"ĠLaur":11353,"Ġenemies":11354,"Ġevident":11355,"news":11356,"Ġincom":11357,"Ġrib":11358,"ndry":11359,"ĠInside":11360,"Ġacceptable":11361,"guard":11362,"Ġimplications":11363,"Ġgray":11364,"jud":11365,"Gr":11366,"Ġrealistic":11367,"Ġinspire":11368,"aft":11369,"ĠGene":11370,"ĠAndy":11371,"otherapy":11372,"perform":11373,"Ġconfiguration":11374,"Ġappreciated":11375,"Ġbroker":11376,"irtual":11377,"Intern":11378,"ĠDur":11379,"Friday":11380,"Ġolive":11381,"Ġlawsuit":11382,"Ġclip":11383,"ĠSide":11384,"Ġcompatible":11385,"Ġadverse":11386,"gie":11387,"Ġforgotten":11388,"chain":11389,"Sign":11390,"ĠConvention":11391,"BL":11392,"ĠNBA":11393,"ĠSport":11394,"Ġelderly":11395,"Ġefficiently":11396,"Ġrejected":11397,"Ġreflects":11398,"Ġphotographer":11399,"ĠManufact":11400,"Ġchampionship":11401,"Star":11402,"Ġ54":11403,"equation":11404,"Ġcapability":11405,"Looking":11406,"Ġtreating":11407,"Ġlips":11408,"Ġprofiles":11409,"SU":11410,"ilitation":11411,"ĠTogether":11412,"ĠMuch":11413,"ĠMit":11414,"PG":11415,"ĠWriting":11416,"Ġharmful":11417,"Ġaccommodate":11418,"Ġcharging":11419,"dog":11420,"Ġmodule":11421,"ĠPrior":11422,"Ġboundaries":11423,"ĠCC":11424,"ĠNether":11425,"Ġcrying":11426,"lihood":11427,"ĠCrit":11428,"Ġpaintings":11429,"Ġindoor":11430,"Ġconsulting":11431,"Ġtemplate":11432,"Ġcompact":11433,"Ġdealer":11434,"David":11435,"ĠSchools":11436,"lette":11437,"Ġseller":11438,"Ġbeings":11439,"Ġderived":11440,"plus":11441,"Ġvitamin":11442,"Äģ":11443,"lected":11444,"Ġcheer":11445,"ĠGolf":11446,"Ġcorresponding":11447,"ouver":11448,"Ġnewest":11449,"Ġneutral":11450,"Call":11451,"Ġbiological":11452,"Ġfinest":11453,"Ġcitizen":11454,"Ġattorneys":11455,"Ġtemple":11456,"Ġcastle":11457,"Ġdetection":11458,"ĠHappy":11459,"test":11460,"Ġviewers":11461,"Ġsexy":11462,"ĠAlliance":11463,"ĠDenver":11464,"Ġimplementing":11465,"ĠBY":11466,"ĠLisa":11467,"Ġtaxpay":11468,"Ġdiscipline":11469,"Ġsophisticated":11470,"iel":11471,"Ġspouse":11472,"ĠBitcoin":11473,"Ġtiming":11474,"ĠComb":11475,"ĠGil":11476,"Ġbuttons":11477,"INE":11478,"ĠHarvard":11479,"Ġrational":11480,"IES":11481,"Orig":11482,"Ġdeliber":11483,"}(":11484,"Ġguides":11485,"imens":11486,"Ġcarries":11487,"mont":11488,"Ġsits":11489,"Ġbonds":11490,"ĠGre":11491,"Ġrush":11492,"Ġdonations":11493,"Ġvocal":11494,"ĠLinux":11495,"ĠPhone":11496,"oub":11497,"Ġsixth":11498,"ĠDick":11499,"ĠOrange":11500,"Ġroyal":11501,"ĠMarine":11502,"Ġimagination":11503,"ĠMeeting":11504,"Min":11505,"Ġbearing":11506,"ĠOklahoma":11507,"Ġmotivation":11508,"etch":11509,"Ġpron":11510,"cur":11511,"Ġrebu":11512,"store":11513,"ĠPractice":11514,"Ġassignment":11515,"ĠJob":11516,"Ġtweet":11517,"Ret":11518,"ĠDor":11519,"Ġoh":11520,"ĠWy":11521,"Dec":11522,"leans":11523,"Ġturb":11524,"Ġmainstream":11525,"aration":11526,"Ġridic":11527,"Ġassemb":11528,"Ass":11529,"isan":11530,"}.":11531,"Ġendless":11532,"Ġobserve":11533,"Ġdiscretion":11534,"scribe":11535,"Ġ(\"":11536,"imore":11537,"Ġcarrier":11538,"ĠIC":11539,"Ġfriendship":11540,"Ġsignificance":11541,"Ġmommy":11542,"acent":11543,"SM":11544,"Ġfastest":11545,"ĠPain":11546,"SW":11547,"Ġinfections":11548,"ĠChoose":11549,"Ġseeks":11550,"Ġstructural":11551,"Ġdonation":11552,"requ":11553,"writing":11554,"ĠFootball":11555,"ARD":11556,"ĠNa":11557,"ĠCulture":11558,"Ġstriking":11559,"Ġsupplements":11560,"ordon":11561,"Ġiconic":11562,"php":11563,"visor":11564,"Ġintim":11565,"PT":11566,"ĠDue":11567,"Ġcompliment":11568,"ĠAdvanced":11569,"Ġwashing":11570,"Ġbackup":11571,"Ġghost":11572,"ĠBilly":11573,"Ġadventures":11574,"ostic":11575,"ĠSoon":11576,"Ġabortion":11577,"Ġchairs":11578,"osph":11579,"ĠFriends":11580,"etheless":11581,"asses":11582,"first":11583,"eem":11584,"Ġtitled":11585,"Ġbot":11586,"Direct":11587,"Ġpatch":11588,"Ġdiagnosed":11589,"ĠNaz":11590,"Ġpants":11591,"cs":11592,"Ġinfluenced":11593,"Ġ07":11594,"Bet":11595,"}^":11596,"Ġdispute":11597,"Ġjudges":11598,"Ġdiscussing":11599,"Ġtear":11600,"Ġprogressive":11601,"ĠANY":11602,"Ġtremendous":11603,"Ġcoin":11604,"ĠNothing":11605,"Ġdying":11606,"Ġties":11607,"Ġmanifest":11608,"Ġscholarship":11609,"Ã¨":11610,"fulness":11611,"Ġhanded":11612,"Ġwage":11613,"ĠHost":11614,"Pal":11615,"Ġdesigning":11616,"kers":11617,"Ġcareers":11618,"nowned":11619,"Ġ02":11620,"Ġarrangement":11621,"Ġhandful":11622,"Ð¾Ð":11623,"edu":11624,"ĠSug":11625,"Ġoz":11626,"QU":11627,"range":11628,"Ġretailers":11629,"Ġreminded":11630,"à¥":11631,"lu":11632,"Ġdetermining":11633,"ĠChannel":11634,"Ġbulk":11635,"Ġtwist":11636,"itters":11637,"ims":11638,"Ġpreferences":11639,"Ġreduces":11640,"LD":11641,"NY":11642,"Ġsecured":11643,"abs":11644,"Ġoverseas":11645,"ridge":11646,"ĠSoviet":11647,"aux":11648,"Ġexhibit":11649,"ĠAth":11650,"ĠNation":11651,"Ġpione":11652,"Ġshame":11653,"Ġtechnological":11654,"Ġ1989":11655,"Ġcorporations":11656,"Ġattempting":11657,"ĠAsk":11658,"ĠPhill":11659,"Ġrelate":11660,"Ġcontacts":11661,"aughters":11662,"ĠEC":11663,"ĠGas":11664,"Ġprecisely":11665,"Ġpulling":11666,"arency":11667,"ĠMayor":11668,"Ġcolleges":11669,"Ġpersonalized":11670,"Ġsnap":11671,"ĠRand":11672,"mouth":11673,"Ġspir":11674,"arest":11675,"Ġbin":11676,"Ġboring":11677,"Ġash":11678,"Ġlease":11679,"Ġwarned":11680,"ĠText":11681,"Je":11682,"ancouver":11683,"di":11684,"ĠVin":11685,"ippi":11686,"Ġtheatre":11687,"Ġofferings":11688,"Ġcomposed":11689,"closure":11690,"ĠEmpire":11691,"ipes":11692,"olitan":11693,"eron":11694,"ĠUSD":11695,"ĠNE":11696,"Ġaddressing":11697,"Ġtoilet":11698,"Ġ56":11699,"mg":11700,"ĠExcell":11701,"lishing":11702,"herent":11703,"lar":11704,"oca":11705,"Ġproceedings":11706,"Ġ53":11707,"IB":11708,"plates":11709,"ĊĊ":11710,"ĠHal":11711,"Ġfears":11712,"auc":11713,"ĠAltern":11714,"Ġirrit":11715,"ĠBol":11716,"Ġthrowing":11717,"town":11718,"!!!!":11719,"ĠLanguage":11720,"Ġbeds":11721,"ĠâĨ":11722,"Ġhence":11723,"ulin":11724,"sl":11725,"Ġgoodbye":11726,"Ġpollution":11727,"ige":11728,"Ġtale":11729,"iamond":11730,"matic":11731,"Ġengineer":11732,"Ġcognitive":11733,"Does":11734,"ĠReturn":11735,"Ġcalories":11736,"Donald":11737,"ĠPear":11738,"2021":11739,"uh":11740,"Ġsurfaces":11741,"ĠTrail":11742,"Ġshade":11743,"Ġassured":11744,"inge":11745,"iar":11746,"count":11747,"Ġjar":11748,"Ġauction":11749,"2007":11750,"Ġentrepreneur":11751,"Ġtrucks":11752,"specific":11753,"Ġsheets":11754,"alties":11755,"Ġhandy":11756,"Ġincorporate":11757,"ĠPrinci":11758,"Ġwelf":11759,"Ġconfidential":11760,"wind":11761,"Ġcollecting":11762,"Ġintrig":11763,"Ġbeloved":11764,"Ġware":11765,"ĠEmb":11766,"Open":11767,"Ġvertical":11768,"Ġmechanisms":11769,"alpha":11770,"veland":11771,"Ġstakeholders":11772,"amous":11773,"ĠCow":11774,"Ġdefic":11775,"Ġchip":11776,"Ġclever":11777,"Ġcabinet":11778,"Ġ1950":11779,"Ġyeah":11780,"Ġperpet":11781,"Health":11782,"Ġsubtle":11783,"oria":11784,"\")":11785,"Ġlaughing":11786,"stop":11787,"uters":11788,"ella":11789,"ACT":11790,"Ġproposals":11791,"Ġmeasurement":11792,"IO":11793,"Ġwelfare":11794,"Ġtire":11795,"estone":11796,"Ġadmin":11797,"Ġfeeding":11798,"Ġlawn":11799,"ĠSA":11800,"ĠIslands":11801,"Ġportray":11802,"Ġgirlfriend":11803,"ĠReserve":11804,"--------":11805,"essed":11806,"Ġvib":11807,"adesh":11808,"Life":11809,"ĠMission":11810,"Ġspan":11811,"Ġende":11812,"Ġclinic":11813,"Ġhiding":11814,"Ġexpecting":11815,"Ġfrozen":11816,"Ġsoap":11817,"Ġanalyze":11818,"ĠBeat":11819,"Ġelectro":11820,"ĠPick":11821,"Mc":11822,"ikip":11823,"ĠMO":11824,"Ġinstances":11825,"Ġtrash":11826,"ĠDra":11827,"offee":11828,"ĠIndeed":11829,"Ġconsolid":11830,"Ġstrip":11831,"Ġharsh":11832,"itations":11833,"ĠGirls":11834,"ĠGab":11835,"Ġvibrant":11836,"rying":11837,"overs":11838,"Ġuncomfortable":11839,"Ġtang":11840,"emption":11841,"Ġexploration":11842,"ĠTitle":11843,"ĠKy":11844,"Ġedges":11845,"ĠOsc":11846,"eps":11847,"burn":11848,"Ġsac":11849,"Ġwrapped":11850,"})":11851,"Ġtheore":11852,"ĠAB":11853,"Ġjazz":11854,"ĠFlo":11855,"Ġbatteries":11856,"Ġentities":11857,"Ġagriculture":11858,"Ġentries":11859,"Ġdensity":11860,"Ġgut":11861,"Ġtestimony":11862,"Ġdivers":11863,"Ġrated":11864,"Ġdess":11865,"Ġ03":11866,"Ġoils":11867,"dam":11868,"cently":11869,"ĠURL":11870,"ivery":11871,"Ġstroke":11872,"Ġcave":11873,"Watch":11874,"apters":11875,"ribution":11876,"ĠEntertainment":11877,"Ġdevoted":11878,"Ġcannabis":11879,"Ġregards":11880,"reach":11881,"Ġsisters":11882,"Ġpropri":11883,"ĠNetherlands":11884,"HD":11885,"Ġnuts":11886,"Ġbacked":11887,"ĠTree":11888,"ĠHad":11889,"ĠCand":11890,"Ġtune":11891,"security":11892,"Ġspecialists":11893,"Ġlanded":11894,"Ġrevers":11895,"Ġsilence":11896,"Ġpeer":11897,"ĠKitchen":11898,"onia":11899,"Ġenroll":11900,"ACK":11901,"onda":11902,"ĠRap":11903,"Ġwherever":11904,"Ġfleet":11905,"Ġsquad":11906,"normal":11907,"tage":11908,"uns":11909,"Ġprofound":11910,"Ġlobby":11911,"ĠCape":11912,"Ġanalys":11913,"Ġparticipated":11914,"Pol":11915,"rison":11916,"advant":11917,"Ġratings":11918,"ĠBron":11919,"Ġcited":11920,"Ġsurviv":11921,"2000":11922,"ĠCreate":11923,"Ġmud":11924,"ĠMississ":11925,"Ġentertaining":11926,"ï¿":11927,"Ġdisabilities":11928,"QL":11929,"children":11930,"Ġrefres":11931,"Ġ%":11932,"irable":11933,"ĠTemple":11934,"Ġgrid":11935,"ĠJen":11936,"Ġlegally":11937,"Ġgradually":11938,"arner":11939,"Ġcalculated":11940,"Ġcompeting":11941,"Ġtoss":11942,"Ġlaboratory":11943,"Ġrewards":11944,"Ġseemingly":11945,"Ġveterans":11946,"Ġcooling":11947,"Ġquit":11948,"Ġrival":11949,"ĠOrleans":11950,"Ġparallel":11951,"ĠUnit":11952,"ĠSource":11953,"Jack":11954,"Ġfloors":11955,"Ġprovince":11956,"Ġfigured":11957,"Ġmoderate":11958,"ĠSingle":11959,"AST":11960,"Ġhorn":11961,"ĠFluffy":11962,"beat":11963,"Ġultra":11964,"ĠNEW":11965,"ctic":11966,"Ġloaded":11967,"Ġbark":11968,"Ġsponsored":11969,"Ġstere":11970,"Ġexcessive":11971,"ĠPrize":11972,"Ġshelf":11973,"ĠServer":11974,"Big":11975,"Ġtempor":11976,"Ġcontractor":11977,"Ġbudd":11978,"Ġamen":11979,"Ġdressed":11980,"Ġautomated":11981,"Ġenabled":11982,"ĠYOUR":11983,"illance":11984,"July":11985,"Ġampl":11986,"ĠChen":11987,"ĠEle":11988,"Ġaggreg":11989,"Ġtourist":11990,"Ġoptimal":11991,"Ġward":11992,"Ġpowered":11993,"usalem":11994,"ĠAutom":11995,"Ġsupplied":11996,"Ġmoisture":11997,"boards":11998,"Mus":11999,"ĠVA":12000,"Ġthereby":12001,"ĠDelhi":12002,"ĠWhit":12003,"Ġshake":12004,"Ġqualities":12005,"ĠBear":12006,"erals":12007,"pread":12008,"ĠFrancis":12009,"idity":12010,"Ġpadd":12011,"Ġmutual":12012,"Ġwides":12013,"Ġbones":12014,"Ġfuck":12015,"ĠClassic":12016,"Ġartwork":12017,"ĠCash":12018,",'":12019,"ĠSprings":12020,"Ġanalytics":12021,"ĠBattle":12022,"ĠRaj":12023,"ĠRound":12024,"position":12025,"aria":12026,"Ġexcellence":12027,"Ġdeclined":12028,"Ġhomeless":12029,"ikipedia":12030,"Ġinvested":12031,"}_":12032,"iere":12033,"edded":12034,"iagra":12035,"Ġshorter":12036,"Ġbottles":12037,"Ġmotivated":12038,"Ġprospects":12039,"ĠLot":12040,"ĠInn":12041,"ĠRoberts":12042,"Ġcounts":12043,"ounge":12044,"Ġvariable":12045,"ĠHan":12046,"Ġglob":12047,"Ġnotion":12048,"Ġembra":12049,"Ġcountless":12050,"Ġunnecess":12051,"ĠBelg":12052,"Ġdozens":12053,"Ġreserv":12054,"inates":12055,"commerce":12056,"ĠCourse":12057,"Ġgeneric":12058,"Ġemerged":12059,"Ġsilent":12060,"Inc":12061,"nut":12062,"ĠBond":12063,"phant":12064,"Ġsimultaneously":12065,"Ġbust":12066,"Ġappl":12067,"Ġenjoys":12068,"ĠIL":12069,"Ġconstra":12070,"Ġpicks":12071,"Ġstimul":12072,"Ġ(@":12073,"Ġsupplier":12074,"brew":12075,"Published":12076,"Ġok":12077,"ĠRain":12078,"ĠTrue":12079,"ĠRO":12080,"ĠNurs":12081,"ĠSab":12082,"ĠPortland":12083,"Ġallerg":12084,"Ġouter":12085,"erest":12086,"Ġ\\\\":12087,"Ġ360":12088,"Ġgre":12089,"Ġbicy":12090,"ĠKennedy":12091,"ĠMedicare":12092,"Ġjoke":12093,"ĠGreece":12094,"Ġshy":12095,"ĠFollowing":12096,"ĠCambridge":12097,"Monday":12098,"bage":12099,"ĠNear":12100,"Ġtasty":12101,"Love":12102,"World":12103,"umni":12104,"Ġrecommendation":12105,"ĠFle":12106,"Ġdisabled":12107,"ĠGary":12108,"Ġ..":12109,"ĠSaudi":12110,"Ġtraditions":12111,"ĠHem":12112,"Ġlogic":12113,"State":12114,"pectives":12115,"Ġspare":12116,"Ġreads":12117,"pres":12118,"Ġslip":12119,"Ġenabling":12120,"ĠAmb":12121,"ĠTurk":12122,"Ġclim":12123,"Ġadvocate":12124,"Ġsnack":12125,"ĠOcc":12126,"Ġanticipated":12127,"ĠDeb":12128,"Ġwondered":12129,"Ġhypot":12130,"ĠEvents":12131,"ĠGulf":12132,"Ġfailing":12133,"flix":12134,"sized":12135,"ĠConstruction":12136,"asures":12137,"Ġink":12138,"Ġliterary":12139,"ĠCompl":12140,"Ġrestricted":12141,"Ġcruise":12142,"width":12143,"Ġprocessor":12144,"ĠHamilton":12145,"ĠAF":12146,"Ġearning":12147,"Ġcous":12148,"Ġsuits":12149,"gon":12150,"ĠSuccess":12151,"Ġperception":12152,"icut":12153,"ĠWITH":12154,"Ġshaped":12155,"IDS":12156,"ĠHERE":12157,"Ġcum":12158,"ĠTel":12159,"Ġbother":12160,"ĠSave":12161,"ĠChamber":12162,"ategory":12163,"Ġadvise":12164,"ĠFDA":12165,"Ġjacket":12166,"ailand":12167,"Ġrelaxed":12168,"Ġthesis":12169,"amine":12170,"Ġcomputing":12171,"irates":12172,"Ġminim":12173,"hard":12174,"Ġdiffer":12175,"La":12176,"Ġstrain":12177,"ĠScript":12178,"even":12179,"Ġromance":12180,"ĠLuke":12181,"hot":12182,"Ġgrain":12183,"Ġrounds":12184,"Ġcub":12185,"Ġvisa":12186,"Ġcompelling":12187,"Ġprest":12188,"ĠWE":12189,"Ġshoe":12190,"held":12191,"have":12192,"ĠDE":12193,"ĠDiet":12194,"Ġinher":12195,"Ġinclusion":12196,"arts":12197,"Ġexpend":12198,"ended":12199,"Ġbeneath":12200,"ĠEsc":12201,"vada":12202,"Ġpersu":12203,"owship":12204,"ĠKings":12205,"Ġ`":12206,"ĠSpeed":12207,"Ġsquee":12208,"Ġfolk":12209,"Ġdistricts":12210,"type":12211,"owned":12212,"Ġwand":12213,"Ġinval":12214,"Ġshore":12215,"ĠConsider":12216,"liest":12217,"Ġblessed":12218,"Ġshipped":12219,"ĠTips":12220,"cca":12221,"Ġhandled":12222,"ĠSuddenly":12223,"ĠBruce":12224,"Ġshield":12225,"umbing":12226,"berries":12227,"Ġgig":12228,"atar":12229,"Ġconsultant":12230,"Ġgrocery":12231,"Ġplacement":12232,"natural":12233,"Ġestablishing":12234,"Ġaudit":12235,"Ġtoxic":12236,"Ġ06":12237,"ĠSony":12238,"Ġ04":12239,"Ġassumed":12240,"ivities":12241,"Ġtongue":12242,"ĠBrooklyn":12243,"oyd":12244,"some":12245,"Ġcorruption":12246,"Ġanx":12247,"gic":12248,"ĠComment":12249,"Ġvolunt":12250,"ĠBrew":12251,"Ġmemorable":12252,"ĠChallenge":12253,"gence":12254,"atherine":12255,"ptic":12256,"ĠMcK":12257,"itual":12258,"Ġstones":12259,"Ġfails":12260,"Ġcryptocur":12261,"Ġcrop":12262,"Which":12263,"Ġsatisfy":12264,"Ġbroader":12265,"Ġmysterious":12266,"Ġclassical":12267,"Ġplates":12268,"Ġpile":12269,"Ġsurvived":12270,"itched":12271,"Ġshit":12272,"istle":12273,"ï¿½":12274,"Ġaccidents":12275,"Ġscratch":12276,"Ġcomplexity":12277,"Ġorganize":12278,"Ġstopping":12279,"Ġvel":12280,"Ġreflection":12281,"Ġworthy":12282,"Ġfoster":12283,"chi":12284,"Ġbugs":12285,"Ġmarketplace":12286,"Ġapolog":12287,"ĠPrivacy":12288,"ĠAqu":12289,"Ġinvestor":12290,"ĠImage":12291,"Ġcere":12292,"chell":12293,"Ġreactions":12294,"Ġdelighted":12295,"Saturday":12296,"Using":12297,"ĠBirth":12298,"ĠTell":12299,"ĠLooking":12300,"Ġaging":12301,"Ġethical":12302,"Ġaccompany":12303,"ĠMaria":12304,"Ġinhab":12305,"Ġkeyboard":12306,"blogspot":12307,"Ġranks":12308,"GR":12309,"Based":12310,"ĠStadium":12311,"Ġpreventing":12312,"Ġintu":12313,"ĠJerry":12314,"SL":12315,"Ġunemployment":12316,"ĠBiden":12317,"Ġruled":12318,"gam":12319,"Ġapplicants":12320,"ĠLeadership":12321,"Ġthreatened":12322,"inery":12323,"Online":12324,"ĠCT":12325,"Ġboots":12326,"Ġcoins":12327,"Inter":12328,"ãĢ":12329,"orient":12330,"attered":12331,"struct":12332,"ĠHalloween":12333,"agine":12334,"Ġteaches":12335,"Ġreportedly":12336,"Ġren":12337,"ugg":12338,"?!":12339,"Author":12340,"ĠBlock":12341,"ĠAlaska":12342,"Ġradiation":12343,"ĠIndustrial":12344,"Ġexperiments":12345,"Ġkingdom":12346,"uz":12347,"Ġspell":12348,"ĠStrateg":12349,"Review":12350,"Ġabstract":12351,"Ġharass":12352,"asting":12353,"Ġstolen":12354,"Ġeastern":12355,"ĠSEC":12356,"ĠCaptain":12357,"Ġincorporated":12358,"ĠBM":12359,"Ġpermits":12360,"Ġseparated":12361,"may":12362,"Ġarranged":12363,"Ġdear":12364,"Ġhonestly":12365,"ĠWalker":12366,"Ġgenes":12367,"ĠInvestment":12368,"Ġportable":12369,"Ġinspiring":12370,"Ġconfusion":12371,"ĠFab":12372,"uations":12373,"ĠCool":12374,"bey":12375,"Ġclaiming":12376,"Ġarise":12377,"Ġcure":12378,"Ġconsecutive":12379,"Ġintensity":12380,"Ġsuppose":12381,"pur":12382,"BR":12383,"ĠHop":12384,"Ġreserves":12385,"Ġracial":12386,"Ġdimensions":12387,"Ġinterpre":12388,"Ġsatellite":12389,"Ġ66":12390,"rapeutic":12391,"ĠMail":12392,"Ġancest":12393,"azy":12394,"Ġpoem":12395,"Ġdiscounts":12396,"Ġcamps":12397,"aneous":12398,"Ġvariations":12399,"fund":12400,"ĠRather":12401,"Ġbeautifully":12402,"Ġgrows":12403,"Ġproportion":12404,"issa":12405,"ĠPitts":12406,"Ġpays":12407,"ĠLock":12408,"Ġtennis":12409,"Ġrender":12410,"Ġcorporation":12411,"eland":12412,"shine":12413,"ĠCentury":12414,"ĠTotal":12415,"ĠYan":12416,"Ġutilizing":12417,"Ġdisclosure":12418,"Ġabandoned":12419,"ĠJerusalem":12420,"Ġselecting":12421,"DI":12422,"lend":12423,"ĠMars":12424,"Ms":12425,"ĠWire":12426,"Ġregarded":12427,"Ġsuite":12428,"Ġnegotiations":12429,"General":12430,"itzerland":12431,"Ġconsciousness":12432,"Ġdemanding":12433,"Ġtrauma":12434,"Ġnonprofit":12435,"Ġsurg":12436,"Ġmakers":12437,"ĠPremier":12438,"otype":12439,"Ġkeen":12440,"mad":12441,"Ġsheep":12442,"Ġglasses":12443,"Ġvaried":12444,"Ġshr":12445,"Ġbio":12446,"Ġvig":12447,"ĠDyn":12448,"Ġsymbols":12449,"cow":12450,"Ġ05":12451,"Ġdried":12452,"Ġ110":12453,"gets":12454,"ĠVolume":12455,"ĠHeritage":12456,"ĠEV":12457,"ĠCorn":12458,"cap":12459,"kee":12460,"Ġunfortunately":12461,"othy":12462,"ĠDeep":12463,"roduct":12464,"Ġbonuses":12465,"Ġwidespread":12466,"Ġcontributing":12467,"ĠLater":12468,"ĠCastle":12469,"ĠSeveral":12470,"ricane":12471,"Ġ1988":12472,"Though":12473,"rons":12474,"Ġaffecting":12475,"icop":12476,"ĠLam":12477,"Ġpromising":12478,"ĠInstall":12479,"Ġstays":12480,"ĠSW":12481,"ĠNik":12482,"Ġbrut":12483,"isure":12484,"ĠRestaur":12485,"Ġcontractors":12486,"Ġirre":12487,"enged":12488,"Ġpassenger":12489,"annah":12490,"ante":12491,"GBT":12492,"ĠJoin":12493,"Ġintake":12494,"Ġjam":12495,"Ġhumor":12496,"Ġrepeatedly":12497,"Ġmarine":12498,"Ġshed":12499,"Ġattendance":12500,"Ġbits":12501,"Ġfolder":12502,"ĠComplete":12503,"oples":12504,"ĠRussell":12505,"ĠPhilippines":12506,"ĠCrim":12507,"Ġassists":12508,"ĠCharlie":12509,"ĠSafe":12510,"Ġjet":12511,"Ġdeciding":12512,"Ġburied":12513,"ĠGO":12514,"icular":12515,"igrant":12516,"Ġbinding":12517,"ĠCole":12518,"icts":12519,"ders":12520,"Ġboats":12521,"Ġmeasurements":12522,"Ġidentical":12523,"ĠCoach":12524,"October":12525,"Ġdive":12526,"mega":12527,"Ġroutes":12528,"ASE":12529,"Ġowns":12530,"ĠMaking":12531,"ingle":12532,"Ġranking":12533,"ĠJoy":12534,"Ġbarriers":12535,"Ġgardens":12536,"ĠNash":12537,"Ġsecurities":12538,"rowing":12539,"Ġ58":12540,"Ġwrest":12541,"Ġnicely":12542,"uscript":12543,"ĠAssess":12544,"ĠKate":12545,"Ġbrick":12546,"effective":12547,"hyd":12548,"ĠPhoenix":12549,"ĠJacob":12550,"Ġfabulous":12551,"Ġrevenues":12552,"Ġholy":12553,"Ġrust":12554,"ĠABC":12555,"Ġverify":12556,"Ġshine":12557,"ĠValent":12558,"Ġreflected":12559,"ĠWat":12560,"ceive":12561,"2006":12562,"Ġconcentr":12563,"NC":12564,"~\\":12565,"Ġcrystal":12566,"ĠLane":12567,"Ġamid":12568,"Ġpraise":12569,"Ġtwelve":12570,"ĠVancouver":12571,"sk":12572,"________________":12573,"Ġbreed":12574,"Ġcustomized":12575,"Ġcelebrating":12576,"Ġscal":12577,"Ġcorrel":12578,"Ġbreach":12579,"Ġproteins":12580,"chestra":12581,"Ġtexts":12582,"Ġepic":12583,"tic":12584,"IAL":12585,"urious":12586,"leading":12587,"Ġessence":12588,"Ġexperimental":12589,"ĠGalaxy":12590,"Ġedited":12591,"Ġsecretary":12592,"working":12593,"ĠQuestions":12594,"reated":12595,"Ġ57":12596,"Ġembod":12597,"Ġpoison":12598,"rue":12599,"Ġnap":12600,"Ã±":12601,"Ġbinary":12602,"Ġmarch":12603,"Ġfut":12604,"Ġoutdoors":12605,"Ġinstitutional":12606,"ĠFish":12607,"Ġprotective":12608,"Ġaqu":12609,"SH":12610,"aments":12611,"Ġbeaches":12612,"\\\\\\\\\\\\\\\\\\\\\\\\\\\\\\\\\\\\\\\\\\\\\\\\\\\\\\\\\\\\\\\\":12613,"ĠDuke":12614,"Ġrenewable":12615,"mers":12616,"Ġwidth":12617,"Ġintimate":12618,"Ġtransparent":12619,"Ġunp":12620,"plan":12621,"Ġpriorities":12622,"ĠCleveland":12623,"Ġgest":12624,"ĠScholars":12625,"vable":12626,"oded":12627,"Ġalien":12628,"ĠFran":12629,"bes":12630,"gate":12631,"ĠDak":12632,"Ġgovernance":12633,"outheast":12634,"ĠBapt":12635,"Ġster":12636,"Ġlabels":12637,"cd":12638,"ĠCann":12639,"ĠGlass":12640,"Ġguided":12641,"shore":12642,"Ġblanket":12643,"August":12644,"Ġclouds":12645,"Ġminority":12646,"zo":12647,"ĠMississippi":12648,"ĠCompanies":12649,"Ġappreciation":12650,"olk":12651,"ĠGrace":12652,"ĠApr":12653,"Ġreadily":12654,"Ġgrey":12655,"ĠGib":12656,"Ġcondem":12657,"Ġreaches":12658,"Ġreferring":12659,"Ġsake":12660,"apel":12661,"Ġtourists":12662,"Ġmothers":12663,"ĠAlways":12664,"Ġlocate":12665,"aro":12666,"urred":12667,"Ġaluminum":12668,"Ġopponents":12669,"Ġugly":12670,"Ġfarmer":12671,"Ġsuspension":12672,"Ġflags":12673,"Ġutilized":12674,"ĠJustin":12675,"quer":12676,"Ġreporter":12677,"Cle":12678,"Gen":12679,"angel":12680,"ĠBath":12681,"ĠSurvey":12682,"adi":12683,"Ġjournalists":12684,"Ġsubmission":12685,"Ġsituated":12686,"aton":12687,"Ġcreatures":12688,"ĠCou":12689,"ĠUnlike":12690,"Ġtablets":12691,"Ġinspect":12692,"Ġblew":12693,"Public":12694,"olas":12695,"ĠUrban":12696,"Ġclassified":12697,"rup":12698,"Ġwholes":12699,"ceptions":12700,"ĠNative":12701,"arer":12702,"Ġcopper":12703,"thod":12704,"ĠDance":12705,"PE":12706,"azines":12707,"Ġrings":12708,"Ġchopped":12709,"Ġuncertainty":12710,"ni":12711,"Ġneat":12712,"ĠME":12713,"Ġclimbing":12714,"ĠJonathan":12715,"Ġjournalist":12716,"emet":12717,"ptions":12718,"Ġreprodu":12719,"Ġdarkness":12720,"Ġnationwide":12721,"Ġsyndrome":12722,"ĠHo":12723,"Ġcontroversial":12724,"ĠSweden":12725,"gs":12726,"vernment":12727,"Ġfoam":12728,"immer":12729,"ITE":12730,"ELL":12731,"Ġfootage":12732,"ĠBesides":12733,"ĠNich":12734,"ĠFreedom":12735,"hr":12736,"Ġexterior":12737,"ĠStay":12738,"school":12739,"arity":12740,"ressing":12741,"Ġrect":12742,"ĠPerfect":12743,"ĠFat":12744,"enna":12745,"Ġleak":12746,"Ġconverted":12747,"Ġpotatoes":12748,"ĠAndre":12749,"ĠCold":12750,"Ġretreat":12751,"comed":12752,"Mark":12753,"ĠLarge":12754,"ĠWithin":12755,"hew":12756,"ĠBuck":12757,"ORT":12758,"ĠWolf":12759,"ĠBB":12760,"ĠAlan":12761,"big":12762,"Ġelite":12763,"google":12764,"Ġdash":12765,"ey":12766,"iov":12767,"ĠCart":12768,"ugs":12769,"Ġcontrary":12770,"Ġlabour":12771,"ĠCopyright":12772,"Meanwhile":12773,"Ġaccred":12774,"ĠMagic":12775,"Ġexamined":12776,"ĠFalls":12777,"Sometimes":12778,"ĠHig":12779,"Ġcatalog":12780,"ĠNort":12781,"sur":12782,"Bar":12783,"Ġshoulders":12784,"Ġcourtesy":12785,"ĠProp":12786,"Ġaccepting":12787,"Ġreson":12788,"struction":12789,"when":12790,"pi":12791,"ibbean":12792,"ocate":12793,"Ġrelaxing":12794,"ĠIncre":12795,"ĠCelebr":12796,"ĠRow":12797,"September":12798,"Ġtatt":12799,"Only":12800,"arma":12801,"ĠEaster":12802,"Ġchamber":12803,"Ġstrive":12804,"Ġperceived":12805,"Ġmeditation":12806,"ĠSusan":12807,"ĠCher":12808,"bird":12809,"erator":12810,"ĠDisease":12811,"Anna":12812,"ROM":12813,"Ġrefuse":12814,"ĠRace":12815,"produ":12816,"Ġadditionally":12817,"ĠMcG":12818,"har":12819,"Ġwellness":12820,"Ġgaining":12821,"eared":12822,"ĠBah":12823,"Ġteaspoon":12824,"ĠVit":12825,"mitting":12826,".:":12827,"Ġbund":12828,"Ġballoon":12829,"rolog":12830,"ĠCommercial":12831,"Ġcleaned":12832,"700":12833,"wer":12834,"Ġanytime":12835,"Ġteens":12836,"ĠEmma":12837,"Ġoverlook":12838,"ĠCos":12839,"ĠMR":12840,"ĠThompson":12841,"flu":12842,"ĠCommerce":12843,"note":12844,"km":12845,"Ġpreval":12846,"Ġreasonably":12847,"Ġapproached":12848,"Ġisolated":12849,"ĠCould":12850,"Ġmum":12851,"Ġtends":12852,"oline":12853,"Ġavo":12854,"ĠPil":12855,"Ġtrails":12856,"Ġcosm":12857,"Ġepid":12858,"Ġsupportive":12859,"ĠMelbourne":12860,"Ġgran":12861,"stock":12862,"Ġmunicipal":12863,"izable":12864,"ĠTrad":12865,"uming":12866,"chair":12867,"ĠAmendment":12868,"Ġnotable":12869,"Ġwheat":12870,"Ġcurve":12871,"ĠSom":12872,"Ġhem":12873,"jack":12874,"has":12875,"Ġdoct":12876,"raham":12877,"Ġsacrifice":12878,"erver":12879,"ĠDomin":12880,"List":12881,"ensively":12882,"ĠExplore":12883,"ĠJimmy":12884,"Thursday":12885,"Ġprosper":12886,"Ġignored":12887,"Ġ62":12888,"ĠPath":12889,"wick":12890,"Ġlegislative":12891,"Ġrenowned":12892,"Ġpsychology":12893,"breaking":12894,"ĠMuslims":12895,"cos":12896,"Ġstainless":12897,"ĠAntonio":12898,"Ġremed":12899,"ĠTX":12900,"hou":12901,"Ġencry":12902,"ĠML":12903,"ĠBus":12904,"ĠOthers":12905,"ORD":12906,"isons":12907,"ĠMarg":12908,"Ġstruggles":12909,"Ġtricks":12910,"Ġbankruptcy":12911,"Ġopponent":12912,"cat":12913,"ĠSenator":12914,"Ġprospective":12915,"Ġstylish":12916,"Second":12917,"GM":12918,"Ġovert":12919,"Ġ59":12920,"Ġdelicate":12921,"pered":12922,"Ġjumping":12923,"Ġcollaborative":12924,"Ġfairy":12925,"ĠDer":12926,"Ġmomentum":12927,"Ġstraightforward":12928,"ĠIsa":12929,"Ġhydro":12930,"Keep":12931,"Ġpeers":12932,"Ġmeasuring":12933,"January":12934,"Ġlyrics":12935,"Ġrestoration":12936,"ĠBaltimore":12937,"belie":12938,"Ġboyfriend":12939,"Ġtorn":12940,"ictionary":12941,"ĠCM":12942,"Ġrally":12943,"Contin":12944,"Ġcarb":12945,"igue":12946,"hill":12947,"Ġapples":12948,"ĠDouble":12949,"lan":12950,"ĠSimply":12951,"Ġacute":12952,"Ġpublisher":12953,"ĠHawaii":12954,"ĠMun":12955,"Ġexecutives":12956,"Comp":12957,"ĠTreatment":12958,"ui":12959,"ĠER":12960,"Ġmaker":12961,"Ġphenomenon":12962,"ĠThailand":12963,"Ġreminder":12964,"Ġkilomet":12965,"Ġimmigrants":12966,"Ġconducting":12967,"Ġcaptain":12968,"Ġsang":12969,"Ġnail":12970,"Dep":12971,"ĠShel":12972,"ĠLad":12973,"ĠClimate":12974,"arios":12975,"Ġmanufactured":12976,"Ġislands":12977,"Ġphysicians":12978,"Ġsemester":12979,"ĠHung":12980,"ĠHighway":12981,"ĠSi":12982,"Ġconstitutional":12983,"ĠLeave":12984,"Come":12985,"Ġdaughters":12986,"driven":12987,"Ġlikewise":12988,"isers":12989,"ambda":12990,"Ġattacked":12991,"Ġreliability":12992,"ĠToo":12993,"Ġtouchdown":12994,"appropri":12995,"orted":12996,"mediate":12997,"ĠConnecticut":12998,"Ġnit":12999,"Ġdiff":13000,"Ġloads":13001,"Ġpartnerships":13002,"ahoo":13003,"cop":13004,"Ġflesh":13005,"pdf":13006,"hattan":13007,"Ġintr":13008,"Three":13009,"ĠRule":13010,"ĠPas":13011,"Ġvalued":13012,"Ġmart":13013,"aisy":13014,"ĠRules":13015,"Custom":13016,"amon":13017,"Ġalbums":13018,"Ġmush":13019,"Ġnaked":13020,"ĠPant":13021,"Ġoutfit":13022,"Following":13023,"iche":13024,"Ġbadly":13025,"ardless":13026,"ĠBor":13027,"Ġnovels":13028,"Ġcrossed":13029,"ĠSustain":13030,"ĠMeanwhile":13031,"Ġcoronavirus":13032,"orph":13033,"ĠGordon":13034,"Ġfacial":13035,"bn":13036,"Paul":13037,"Ġrevel":13038,"Ġpriest":13039,"Ġber":13040,"Key":13041,"Ġrecipient":13042,"ographical":13043,"Ġconfirmation":13044,"ĠLouisiana":13045,"Ġhighlighted":13046,"ĠLiver":13047,"oops":13048,"Ġ1987":13049,"ĠGiven":13050,"Ġinternationally":13051,"Ġheadquarters":13052,"CAA":13053,"etics":13054,"Ġ101":13055,"clusive":13056,"ĠTechnical":13057,"ĠEnterprise":13058,"emetery":13059,"Ġindirect":13060,"Ġvariables":13061,"amins":13062,"Ġlately":13063,"Ġonion":13064,"Ġshowcase":13065,"ĠMagn":13066,"lon":13067,"pin":13068,"pring":13069,"Ġutter":13070,"Ġcustody":13071,"ĠCircuit":13072,"Ġbutterfly":13073,"Ġpresentations":13074,"ĠLawrence":13075,"Ġ1986":13076,"Ġdesires":13077,"ĠHit":13078,"ĠKit":13079,"Ġwages":13080,"Ġliable":13081,"ĠLegisl":13082,"Ġexplaining":13083,"Ġà¤":13084,"ĠScottish":13085,"Ġclosest":13086,"Ġbehaviors":13087,"Ġcontacted":13088,"Ġpy":13089,"Ġpresum":13090,"mu":13091,"Ġfunctioning":13092,"ĠConserv":13093,"Ġfavorites":13094,"Ġhonored":13095,"shot":13096,"achers":13097,"Ġunderground":13098,"Ġreceiver":13099,"ivals":13100,"ĠRecord":13101,"ĠArgent":13102,"uru":13103,"agger":13104,"Ġsuspended":13105,"ĠPlayer":13106,"ĠBeck":13107,"ĠMand":13108,"ĠClinical":13109,"ĠIntelligence":13110,"VP":13111,"Ġflavors":13112,"umble":13113,"Ġsurgical":13114,"Ġattracted":13115,"Ġdivine":13116,"Ġhack":13117,"doi":13118,"Ġparliament":13119,"=\"":13120,"ĠSri":13121,"ĠSwitzerland":13122,"ĠGP":13123,"Ġunto":13124,"Bob":13125,"WS":13126,"Ġpointing":13127,"Ġappealing":13128,"Ġanth":13129,"cycl":13130,"ĠResults":13131,"Ġlogin":13132,"forced":13133,"ĠFant":13134,"Tuesday":13135,"Ġflaw":13136,"Sen":13137,"CP":13138,"Ġprizes":13139,"Ġcontroller":13140,"Ġpresenting":13141,"olves":13142,"assador":13143,"ĠIndonesia":13144,"Ġglobally":13145,"ĠFile":13146,"ĠHE":13147,"ĠAngel":13148,"ĠRegion":13149,"November":13150,"Ġdedication":13151,"ateur":13152,"ampa":13153,"ĠAlong":13154,"ĠImages":13155,"agu":13156,"hat":13157,"Ġcritics":13158,"Ġbets":13159,"ĠGate":13160,"aco":13161,"Figure":13162,"Ġmodify":13163,"maker":13164,"ĠChristopher":13165,"Ġwoke":13166,"Ġcancel":13167,"Ġsuperb":13168,"ĠTHIS":13169,"Ġvessels":13170,"ĠDiamond":13171,"ĠJennifer":13172,"Ġdisappear":13173,"amel":13174,"woman":13175,"Ġvacuum":13176,"Ġdraws":13177,"Ġwelcomed":13178,"ĠSER":13179,"Ġpatience":13180,"ĠCommissioner":13181,"Michael":13182,"ussy":13183,"ĠPric":13184,"ĠImport":13185,"Ġunnecessary":13186,"Ġvir":13187,"western":13188,"Ġnutrients":13189,"ĠFBI":13190,"Ġfreel":13191,"Wednesday":13192,"Ġworlds":13193,"Ġlitigation":13194,"ĠMB":13195,"ĠParticip":13196,"Ġmagnetic":13197,"Ġsteep":13198,"Ġhazard":13199,"Search":13200,"IGHT":13201,"Ġwealthy":13202,"ĠAdams":13203,"National":13204,"||$":13205,"Ġallegedly":13206,"Ġorientation":13207,"Ġgrades":13208,"vised":13209,"Ġpaths":13210,"iop":13211,"ĠPresent":13212,"Ġsymp":13213,"Ġpension":13214,"Ġdecreased":13215,"ĠEP":13216,"Ġvendor":13217,"Ġneighbour":13218,"Ġwarming":13219,"reamed":13220,"Ġpunch":13221,"track":13222,"Ġeconomics":13223,"Ġsubsequently":13224,"Ġmobility":13225,"anne":13226,"ĠApart":13227,"ĊĠĠĠ":13228,"Ġsubstitute":13229,"arious":13230,"Ġfitting":13231,"Ġrope":13232,"Ġbuzz":13233,"2005":13234,"pg":13235,"Ġintegrate":13236,"ĠMaine":13237,"South":13238,"ocy":13239,"Ġprivilege":13240,"Ġlovers":13241,"Ġfreely":13242,"Ġendorse":13243,"depth":13244,"Ġshouted":13245,"Ġflows":13246,"speed":13247,"Ġseparately":13248,"ĠMovie":13249,"ividually":13250,"ĠEconomics":13251,"Ġkicked":13252,"asket":13253,"Ġrod":13254,"ĠTechnologies":13255,"Ġ*||":13256,"Ġsword":13257,"bian":13258,"Ġlonely":13259,"Ġ350":13260,"Ġadjusted":13261,"Ġbitter":13262,"ĠImpact":13263,"Sunday":13264,"ĠRelease":13265,"glas":13266,"Ġtheft":13267,"ĠNelson":13268,"Ġterrorist":13269,"compass":13270,"Ġtransparency":13271,"Ġparticles":13272,"Point":13273,"worthy":13274,"Det":13275,"Ġsticks":13276,"Ġsecrets":13277,"ICK":13278,"West":13279,"Ġna":13280,"Ġhockey":13281,"ĠObs":13282,"kyo":13283,"Ġchallenged":13284,"ĠDirectors":13285,"ĠNetflix":13286,"ĠRoc":13287,"ulu":13288,"Ġobtaining":13289,"Ġcontinuously":13290,"Ġshowc":13291,"Ġdealt":13292,"FS":13293,"Ġhiking":13294,"Ġequality":13295,"Link":13296,"vance":13297,"Ġinflammation":13298,".),":13299,"user":13300,"Ġritual":13301,"Ġclarity":13302,"Ġ63":13303,"Ġdragon":13304,"Ġcostly":13305,"Yeah":13306,"Ġversatile":13307,"Ġlightweight":13308,"Ġseparation":13309,"wen":13310,"Ġpreview":13311,"Ġlegendary":13312,"Ġattractions":13313,"ĠMix":13314,"ĠWant":13315,"Ġautomation":13316,"Ġcommod":13317,"Ġdeparture":13318,"Ġcoinc":13319,"Ġbackyard":13320,"Ġstruggled":13321,"Ġtransformed":13322,"Ġaccurately":13323,"Ġwithdrawal":13324,"ĠMas":13325,"Ġsuggesting":13326,"ĠHug":13327,"Ġterminal":13328,"ĠGA":13329,"fight":13330,"OUR":13331,"Ġconferences":13332,"Ġbarrier":13333,"Business":13334,"Ġmixing":13335,"Ġfuneral":13336,"ĠPoland":13337,"Ġdisadvant":13338,"ĠWayne":13339,"ĠPod":13340,"aired":13341,"Ġbay":13342,"ĠCover":13343,".]":13344,"Ġ1984":13345,"Ġpenet":13346,"inance":13347,"Ġdistract":13348,"ĠRu":13349,"eous":13350,"ĠStewart":13351,"Ġdrawings":13352,"ĠWorth":13353,"Ġmandatory":13354,"sum":13355,"alling":13356,"Ġric":13357,"posed":13358,"Ġrespected":13359,"large":13360,"Ġvariation":13361,"Ġwars":13362,"Ġcoconut":13363,"ĠStop":13364,"Ġreplacing":13365,"ĠBR":13366,"ĠAPI":13367,"Ġprovin":13368,"Ġdumpster":13369,"Ġlinear":13370,"ollar":13371,"ĠLGBT":13372,"Ġdisk":13373,"ĠStyle":13374,"Ġblocked":13375,"Ġpuzzle":13376,"ĠMalaysia":13377,"ĠDeal":13378,"ĠSweet":13379,"ĠVi":13380,"ĠHousing":13381,"Ġrend":13382,"Ġauton":13383,"ĠCaribbean":13384,"Ġmodest":13385,"Ġindependently":13386,"ju":13387,"ĠAssociate":13388,"ĠCarter":13389,"Remember":13390,"Ġcush":13391,"ĠWright":13392,"Ġdramatically":13393,"alia":13394,"Ġapplicant":13395,"Ġformats":13396,"Ġleverage":13397,"istant":13398,"ĠInnovation":13399,"ĠFell":13400,"Ġdiameter":13401,"Ġsustained":13402,"idges":13403,"Ġconvention":13404,"Ġcouch":13405,"ĠAdministr":13406,"ĠBoo":13407,"Ġpropag":13408,"Ġbee":13409,"Ġforming":13410,"Ġunpre":13411,"ĠStra":13412,"Ġunlimited":13413,"content":13414,"February":13415,"Being":13416,"Ġprol":13417,"urring":13418,"Ġsubscribe":13419,"Ġinfant":13420,"Ġencourages":13421,"Further":13422,"Ġcombines":13423,"Ġloyalty":13424,"Ġpant":13425,"asury":13426,"Ġspecialty":13427,"Ġlibraries":13428,"ĠSin":13429,"Ġtheories":13430,"Ġdisagree":13431,"ĠNevada":13432,"Ġdated":13433,"Ġallegations":13434,"afe":13435,"Ġcharts":13436,"Ġamenities":13437,"Ġpine":13438,"mal":13439,"Ġwines":13440,"VC":13441,"Ġtravelling":13442,"dy":13443,"lay":13444,"master":13445,"ergy":13446,"Ġpuppy":13447,"Del":13448,"eddy":13449,"rencies":13450,"urers":13451,"Ġstrengths":13452,"istance":13453,"ĠWoman":13454,".).":13455,"ĠLinked":13456,"around":13457,"Ġtraveled":13458,"service":13459,"UK":13460,"jections":13461,"Ġpartial":13462,"Ġrubb":13463,"adows":13464,"Ġthankful":13465,"Ġchains":13466,"osa":13467,"ãĥ":13468,"Ant":13469,"ĠCharlotte":13470,"ques":13471,"oni":13472,"Ġevolved":13473,"Person":13474,"ĠBetween":13475,"Ġpredicted":13476,"Ġmaj":13477,"Ġmerchand":13478,"umbled":13479,"qual":13480,"Ġframes":13481,"Ã§":13482,"ĠQueens":13483,"Ġdeny":13484,"ancer":13485,"Ġmineral":13486,"Ġactivists":13487,"ropolitan":13488,"Ġbol":13489,"Ġsuited":13490,"Ġtargeting":13491,"two":13492,"Ġfer":13493,"check":13494,"Mat":13495,"ritis":13496,"archy":13497,"Ġbored":13498,"Ġthumb":13499,"ĠRisk":13500,"isode":13501,"Ġfright":13502,"ymph":13503,"ĠDubai":13504,"ĠScholar":13505,"Ġamendment":13506,"fare":13507,"Ġundergraduate":13508,"Ġtrademark":13509,"apor":13510,"ĠBarbara":13511,"Ġcloset":13512,"Ġdefence":13513,"Ġathletic":13514,"onge":13515,"ĠLem":13516,"Ġhealthier":13517,"Ġseniors":13518,"ĠUpdate":13519,"Ġstadium":13520,"Ġnurses":13521,"ĠIssue":13522,"hu":13523,"ĠFeatures":13524,"ï¼":13525,"Ġoptional":13526,"ĠES":13527,"ĠAppro":13528,"Ġminimize":13529,"Ġthrilled":13530,"ĠPittsburgh":13531,"stage":13532,"ĠSalt":13533,"rin":13534,"Ġexcuse":13535,"IE":13536,"Ġphysics":13537,"Ġcongress":13538,"Ġmounted":13539,"PH":13540,"chnology":13541,"ĠFigure":13542,"President":13543,"Ġintend":13544,"ĠIndividual":13545,"Ġtraged":13546,"ĠFlash":13547,"aci":13548,"Ġpose":13549,"Ġpriced":13550,"istically":13551,"ĠPope":13552,"Ġgau":13553,"Ġchemistry":13554,"ĠCoord":13555,"Sur":13556,"Rec":13557,"Ġspokesman":13558,"Ġchampions":13559,"Ġ1985":13560,"ĠRot":13561,"Ġimmense":13562,"Ġlaundry":13563,"nered":13564,"Ġcontrolling":13565,"ĠHyd":13566,"product":13567,"Ġmagazines":13568,"ĠFederation":13569,"Ġlap":13570,"ĠDetails":13571,"Mart":13572,"osex":13573,"ĠChel":13574,"Ġsafer":13575,"Ġ180":13576,"ĠZe":13577,"Ġbullet":13578,"erald":13579,"Ġobservations":13580,"ãģ":13581,"Ġtar":13582,"Ġcree":13583,"Ġramp":13584,"Ġshocked":13585,"Ġtob":13586,"Ġasleep":13587,"Ġsurveillance":13588,"Ġdominant":13589,"ĠIniti":13590,"Ġinfring":13591,"ĠHA":13592,")\\":13593,"cled":13594,"heimer":13595,"Ġborders":13596,"ĊĠ":13597,"Ġsmiles":13598,"Ġcharming":13599,"ĠNJ":13600,"bably":13601,"Ġimposed":13602,"iblical":13603,"ĠTherapy":13604,"robe":13605,"Ġradi":13606,"Ġmonetary":13607,"Ġgrip":13608,"Ġnerve":13609,"Ġexecuted":13610,"ĠElement":13611,"fty":13612,"Ġelectronics":13613,"ĠPalestinian":13614,"Ġunderstands":13615,"Ġcrusher":13616,"zech":13617,"Ġthresh":13618,"Ġfrustrated":13619,"Ġdistant":13620,"Ġneglig":13621,"ometric":13622,"ĠTommy":13623,"Ġcaps":13624,"non":13625,"Euro":13626,"ĠMC":13627,"Ġprints":13628,"ĠValue":13629,"Ġscrap":13630,"atility":13631,"ĠScreen":13632,"Ġvisitor":13633,"Full":13634,"ĠGov":13635,"Ġinstructor":13636,"Ġearthqu":13637,"Ġpix":13638,"Ġgel":13639,"Ġprinter":13640,"Ġdelete":13641,"Ġpasta":13642,"green":13643,"Ġinnocent":13644,"ĠFaith":13645,"olester":13646,"Ġlifted":13647,"riving":13648,"ĠChi":13649,"ĠBaker":13650,"December":13651,"Ġnavigation":13652,"ĠTower":13653,"Ġprofitable":13654,"Ġfate":13655,"ĠManhattan":13656,"ĠArthur":13657,"Ġcomplain":13658,"ĠGR":13659,"Jul":13660,"rena":13661,"neath":13662,"ĠMini":13663,"building":13664,"Ġspeeds":13665,"rella":13666,"Ġgenerating":13667,"Ġdynamics":13668,"ĠWine":13669,"Share":13670,"Ġbrew":13671,"urchase":13672,"Ġmilit":13673,"Ġquoted":13674,"GS":13675,"Lu":13676,"Ġsteal":13677,"Ġseventh":13678,"Ġprohibited":13679,"conf":13680,"ĠAnti":13681,"Ġdigest":13682,"Ġstartup":13683,"Ġinfected":13684,"Ġbump":13685,"Ġdirectory":13686,"ĠBart":13687,"Ġsweat":13688,"Ġnewspapers":13689,"Ġstrikes":13690,"ĠSolar":13691,"ĠTaiwan":13692,"Ġvolumes":13693,"Ġtalents":13694,"Ġviolations":13695,"ĠLuther":13696,"mary":13697,"ĠCraig":13698,"Ġexped":13699,"itutes":13700,"ĠThanksgiving":13701,"ĠFocus":13702,"Ġdesp":13703,"vement":13704,"Ġarom":13705,"Ġincidents":13706,"Ġobservation":13707,"Ġpreference":13708,"rors":13709,"Ġ68":13710,"olo":13711,"inkle":13712,"Ġincorrect":13713,"Ġposter":13714,"ulent":13715,"Ġsubt":13716,"Ġfilmm":13717,"Ġqueen":13718,"Ġprox":13719,"Ġdestinations":13720,"Ġfounding":13721,"Ġbeating":13722,"uced":13723,"Ġstabil":13724,"ontal":13725,"ciplinary":13726,"dig":13727,"ĠBio":13728,"also":13729,"GO":13730,"ĠResort":13731,"Ġpracticing":13732,"Ġhighway":13733,"psy":13734,"ĠConditions":13735,"Ġimaging":13736,"Ġdemocratic":13737,"stairs":13738,"ĠGraham":13739,"Ġcircles":13740,"ĠTransportation":13741,"Ġvegetable":13742,"ĠCommunication":13743,"Ġjer":13744,"ĠHair":13745,"sim":13746,"Mem":13747,"Ġflip":13748,"omas":13749,"uity":13750,"conomic":13751,"Ġcontend":13752,"ĠEmergency":13753,"Ġmice":13754,"Ġpursuing":13755,"uds":13756,"ĠRat":13757,"Ġnod":13758,"Ġpromoted":13759,"Ġsurveys":13760,"Ġignor":13761,"Ġrelatives":13762,"ijing":13763,"size":13764,"ĠPent":13765,"ĠKrist":13766,"Ġlever":13767,"Ġalgorithm":13768,"hess":13769,"Ġbesides":13770,"Ġtwin":13771,"Ġdownloaded":13772,"ĠRobinson":13773,"Ġsolving":13774,"Ġcents":13775,"idel":13776,"MB":13777,"connect":13778,"Ġconsume":13779,"Ġinterrupt":13780,"Ġdefeated":13781,"Ġtailored":13782,"ĠTea":13783,"ĠSett":13784,"Ġmigration":13785,"Ġcompound":13786,"vet":13787,"Ġmaximize":13788,"Sue":13789,"century":13790,"Ġconflicts":13791,"ĠMilitary":13792,"ĠTokyo":13793,"Ġprogrammes":13794,"pher":13795,"ÙĦ":13796,"Ġbuilds":13797,"Ġcounties":13798,"Ġdisci":13799,"Pay":13800,"Right":13801,"Ġnowhere":13802,"Ġadapted":13803,"Ġstressed":13804,"Ġenhancement":13805,"ĠCitiz":13806,"ĠStrategy":13807,"Web":13808,".....":13809,"ĠLux":13810,"ĠFranklin":13811,"Still":13812,"Ġtransit":13813,"Ġburned":13814,"Ġtrains":13815,"ĠFresh":13816,"Ġdimin":13817,"ĠGa":13818,"FR":13819,"COM":13820,"ĠRab":13821,"lie":13822,"uit":13823,"ĠTob":13824,"Ġinequ":13825,"ĠCurrently":13826,"Ġsurprisingly":13827,"Ġcollapse":13828,"Ġfilters":13829,"Ġgrasp":13830,"encer":13831,"ĠPra":13832,"Ġwound":13833,"ĠAaron":13834,"Unfortunately":13835,"ĠJobs":13836,"Ġdropping":13837,"ĠChristianity":13838,"Ġfinan":13839,"ancers":13840,"itle":13841,"ĠBelow":13842,"emade":13843,"Ġinstalling":13844,"Ġquarterback":13845,"Ġproceeds":13846,"blem":13847,"rub":13848,"Ġscenarios":13849,"Ġtens":13850,"Ġhouseholds":13851,"Ġappliances":13852,"Ġwaist":13853,"Ġadvances":13854,"ĠEmily":13855,"stan":13856,"stick":13857,"ĠMall":13858,"ĠSad":13859,"ournals":13860,"third":13861,"ĠPatri":13862,"ĠOtt":13863,"pace":13864,"Their":13865,"Ġchapters":13866,"Â»":13867,"Ġburst":13868,"Ġ67":13869,"Ġachievements":13870,"elled":13871,"Ġdonated":13872,"ĠCorps":13873,"fi":13874,"ĠPrep":13875,"Ġkiller":13876,"ĠIntel":13877,"ĠDating":13878,"gging":13879,"onde":13880,"Ġdele":13881,"ĠCorporate":13882,"ND":13883,"Ġdistinctive":13884,"idding":13885,"ĠFine":13886,"Ġdont":13887,"Ġtactics":13888,"ĠHunter":13889,"Ġacknowledged":13890,"Ġoccupied":13891,"BER":13892,"ustral":13893,"Ġmetabol":13894,"Ġnotification":13895,"ĠBO":13896,"Ġ>>":13897,"Ġfarming":13898,"Ġvenues":13899,"Cent":13900,"ĠWarren":13901,"Ġ]":13902,"Ġsnacks":13903,"Ġamazed":13904,"Ġshar":13905,"Ġconditioning":13906,"Ġexisted":13907,"Ġcompanion":13908,"Ġspecifications":13909,"Ġresolved":13910,"Ġresistant":13911,"âĢ¦âĢĿ":13912,"ĠOperations":13913,"Ġrenov":13914,"lando":13915,"ĠClear":13916,"ountain":13917,"ĠCampbell":13918,"Ġappearances":13919,"ĠIndependent":13920,"Ġcolored":13921,"Par":13922,"Ġmanuscript":13923,"ĠAnimal":13924,"Ġeducate":13925,"ĠFisher":13926,"ĠRegister":13927,"olved":13928,"Ġindividually":13929,"iasm":13930,"ĠCollect":13931,"Ġreass":13932,"Ġextrem":13933,"ĠCurrent":13934,"Ġwinds":13935,"ĠLie":13936,"_\\":13937,"kends":13938,"ONE":13939,"Ġlighter":13940,"Ġbriefly":13941,"Ġpriorit":13942,"Ġdeserves":13943,"Ġpockets":13944,"North":13945,"Ġordering":13946,"iffs":13947,"Ġsooner":13948,"Ã³n":13949,"Ġrecruitment":13950,"Ġadvisor":13951,"ĠLaura":13952,"ĠUsers":13953,"PER":13954,"Ġ61":13955,"cium":13956,"Ġunve":13957,"ĠLeader":13958,"arms":13959,"Ġ{":13960,"entials":13961,"Ġinfluences":13962,"Ġcycl":13963,"Ġinclusive":13964,"anka":13965,"Ġvarieties":13966,"Ġlistings":13967,"iaries":13968,"ĠFem":13969,"bie":13970,"Ġprecision":13971,"Ġpartly":13972,"ĠJunior":13973,"Ġlaunching":13974,"Ġprescribed":13975,"Ġtires":13976,"Ġinnings":13977,"phi":13978,"Ġbout":13979,"Ġreporters":13980,"Ġtomatoes":13981,"formed":13982,"Ġhike":13983,"Ġeducated":13984,"Ġhint":13985,"Ġhomework":13986,"ĠHus":13987,"Ġarc":13988,"Ġcamping":13989,"adays":13990,"kg":13991,"ĠSay":13992,"Ġsensitivity":13993,"ĠCars":13994,"Ġenact":13995,"arlier":13996,"Ġhed":13997,"Ġappearing":13998,"ĠLabour":13999,"ĠBeth":14000,"ĠMoscow":14001,"Ġavoiding":14002,"inging":14003,"Ġintegral":14004,"bec":14005,"ylon":14006,"ĠAy":14007,"ĠCoffee":14008,"ĠTar":14009,"Ġhills":14010,"Ġcounterpart":14011,"ĠPink":14012,"Ġpenis":14013,"itol":14014,"Ġprotests":14015,"Ġpartially":14016,"Ġurge":14017,"ardo":14018,"Super":14019,"Ġconvince":14020,"ĠGuid":14021,"Ġconvicted":14022,"Ġattributes":14023,"Ġpipeline":14024,"jan":14025,"Ġthroat":14026,"ĠIRS":14027,"END":14028,"marks":14029,"Ġdoi":14030,"ivic":14031,"0000":14032,"Ġsup":14033,"Ġbias":14034,"Ġperspectives":14035,"ĠSoul":14036,"stration":14037,"Ġcounting":14038,"UI":14039,"uv":14040,"asive":14041,"ĠArchives":14042,"Ġlongest":14043,"Ġcrops":14044,"Ġembedded":14045,"Ġattraction":14046,"Ġanalysts":14047,"Ġlineup":14048,"ĠRachel":14049,"Ġdimension":14050,"Ġfatal":14051,"120":14052,"Ġportal":14053,"Ġreminds":14054,"ĠTarget":14055,"ĠBloom":14056,"reate":14057,"ĠCraft":14058,"ammed":14059,"ĠKal":14060,"assy":14061,"ĠMadison":14062,"110":14063,"hh":14064,"Ġbikes":14065,"Ġhomeowners":14066,"Ġvisibility":14067,"Ġbelongs":14068,"idy":14069,"ĠPolitical":14070,"Ġbucket":14071,"ĠSummit":14072,"Ġoun":14073,"ighed":14074,"ĠDragon":14075,"ĠNYC":14076,"agg":14077,"than":14078,"Ġvalley":14079,"Ġcomplications":14080,"Ġaccessed":14081,"ĠEST":14082,"gered":14083,"Ġsensors":14084,"anship":14085,"Ġoutlets":14086,"ĠGer":14087,"Ġcaution":14088,"ARE":14089,"ĠLoss":14090,"ĠKhan":14091,"Ġcorners":14092,"Ġunh":14093,"ĠGPS":14094,"ĠEli":14095,"Ġdistinction":14096,"inyl":14097,"Ġdeer":14098,"esity":14099,"quet":14100,"Ġorganizing":14101,"ĠVersion":14102,"Ġrefugees":14103,"Ġbrowse":14104,"Ġcontinually":14105,"Ġconsistency":14106,"ernand":14107,"Ġpharmaceutical":14108,"Know":14109,"ASS":14110,"ebook":14111,"Ġranges":14112,"ĠViol":14113,"Care":14114,"Ġethics":14115,"ĠDakota":14116,"Ġeasiest":14117,"Ġfisher":14118,"ĠAdditional":14119,"ĠConsumer":14120,"iph":14121,"Ġlogical":14122,"Ġdealers":14123,"Ġcrossing":14124,"Ġhood":14125,"Ġpunishment":14126,"ĠCertified":14127,"mented":14128,"olesterol":14129,"Ġdescribing":14130,"ĠLuck":14131,"ĠHans":14132,"ĠSwiss":14133,"ĠNat":14134,"ĠMorris":14135,"Ġbron":14136,"ĠSleep":14137,"Ġlun":14138,"ĠPin":14139,"ĠStars":14140,"Ġeditorial":14141,"Ġfoss":14142,"Set":14143,"Ġdetected":14144,"fold":14145,"Ġdelayed":14146,"James":14147,"Suddenly":14148,"Ġoccasional":14149,"ĠGetting":14150,"ĠColomb":14151,"Ġskip":14152,"SD":14153,"Ġseasonal":14154,"Ġstrictly":14155,"Ġcontam":14156,"ĠOscar":14157,"rose":14158,"Ġpanic":14159,"ele":14160,"Ġtags":14161,"Ġastron":14162,"Ġmanages":14163,"Â£":14164,"elect":14165,"pless":14166,"Ġcomparable":14167,"ĠCommons":14168,"ĠFashion":14169,"Ġverse":14170,"Ġbasics":14171,"ĠHoliday":14172,"Ġgraduation":14173,"Ġspotted":14174,"izon":14175,"ĠPrograms":14176,"Ġmusician":14177,"ÃĤ":14178,"LP":14179,"Ġinvitation":14180,"ĠRol":14181,"Ġcounseling":14182,"ĠUniversal":14183,"Ġgraduates":14184,"Ġorganizational":14185,"ME":14186,"quire":14187,"ĠBachelor":14188,"ĠNASA":14189,"Ġanalyst":14190,"Ġcontrad":14191,"Ġdiagram":14192,"ĠPlatform":14193,"Ġregret":14194,"Ġelabor":14195,"ĠAle":14196,"Ġmedi":14197,"direct":14198,"Ġsciences":14199,"gun":14200,"Ġtemplates":14201,"Vol":14202,"watch":14203,"Ġtherapeutic":14204,"ĠWA":14205,"Ġbanned":14206,"Ġpressing":14207,"Child":14208,"ĠVirtual":14209,"Ġod":14210,"ĠLarry":14211,"Ġdressing":14212,"Special":14213,"Ġholder":14214,"Want":14215,"Ġcompromise":14216,"Ġsubstances":14217,"ĠCovid":14218,"Ġmeth":14219,"ĠParker":14220,"Ġfucking":14221,"mart":14222,"dered":14223,"Ġrecovered":14224,"ĠSuite":14225,"written":14226,"ĠSens":14227,"ometer":14228,"acies":14229,"ĠEye":14230,"Ġappetite":14231,"ĠSean":14232,"IONS":14233,"ĠHence":14234,"Ġmodes":14235,"Ġevaluated":14236,"nings":14237,"hero":14238,"Ġgospel":14239,"Ġdece":14240,"bbing":14241,"strong":14242,"Ġdign":14243,"ĠGuy":14244,
[...]
